{
  "version": "1.0",
  "truncation": null,
  "padding": null,
  "added_tokens": [
    {
      "id": 0,
      "content": "<s>",
      "single_word": false,
      "lstrip": false,
      "rstrip": false,
      "normalized": false,
      "special": true
    },
    {
      "id": 1,
      "content": "<pad>",
      "single_word": false,
      "lstrip": false,
      "rstrip": false,
      "normalized": false,
      "special": true
    },
    {
      "id": 2,
      "content": "</s>",
      "single_word": false,
      "lstrip": false,
      "rstrip": false,
      "normalized": false,
      "special": true
    },
    {
      "id": 3,
      "content": "<unk>",
      "single_word": false,
      "lstrip": false,
      "rstrip": false,
      "normalized": false,
      "special": true
    }
  ],
  "normalizer": {
    "type": "Lowercase"
  },
  "pre_tokenizer": {
    "type": "ByteLevel",
    "add_prefix_space": true,
    "trim_offsets": true,
    "use_regex": true
  },
  "post_processor": {
    "type": "ByteLevel",
    "add_prefix_space": true,
    "trim_offsets": true,
    "use_regex": true
  },
  "decoder": {
    "type": "ByteLevel",
    "add_prefix_space": true,
    "trim_offsets": true,
    "use_regex": true
  },
  "model": {
    "type": "BPE",
    "dropout": null,
    "unk_token": "<unk>",
    "continuing_subword_prefix": null,
    "end_of_word_suffix": null,
    "fuse_unk": false,
    "vocab": {
      "<s>": 0,
      "<pad>": 1,
      "</s>": 2,
      "<unk>": 3,
      "!": 4,
      "\"": 5,
      "#": 6,
      "$": 7,
      "%": 8,
      "&": 9,
      "'": 10,
      "(": 11,
      ")": 12,
      "*": 13,
      "+": 14,
      ",": 15,
      "-": 16,
      ".": 17,
      "/": 18,
      "0": 19,
      "1": 20,
      "2": 21,
      "3": 22,
      "4": 23,
      "5": 24,
      "6": 25,
      "7": 26,
      "8": 27,
      "9": 28,
      ":": 29,
      ";": 30,
      "<": 31,
      "=": 32,
      ">": 33,
      "?": 34,
      "@": 35,
      "A": 36,
      "B": 37,
      "C": 38,
      "D": 39,
      "E": 40,
      "F": 41,
      "G": 42,
      "H": 43,
      "I": 44,
      "J": 45,
      "K": 46,
      "L": 47,
      "M": 48,
      "N": 49,
      "O": 50,
      "P": 51,
      "Q": 52,
      "R": 53,
      "S": 54,
      "T": 55,
      "U": 56,
      "V": 57,
      "W": 58,
      "X": 59,
      "Y": 60,
      "Z": 61,
      "[": 62,
      "\\": 63,
      "]": 64,
      "^": 65,
      "_": 66,
      "`": 67,
      "a": 68,
      "b": 69,
      "c": 70,
      "d": 71,
      "e": 72,
      "f": 73,
      "g": 74,
      "h": 75,
      "i": 76,
      "j": 77,
      "k": 78,
      "l": 79,
      "m": 80,
      "n": 81,
      "o": 82,
      "p": 83,
      "q": 84,
      "r": 85,
      "s": 86,
      "t": 87,
      "u": 88,
      "v": 89,
      "w": 90,
      "x": 91,
      "y": 92,
      "z": 93,
      "{": 94,
      "|": 95,
      "}": 96,
      "~": 97,
      "¡": 98,
      "¢": 99,
      "£": 100,
      "¤": 101,
      "¥": 102,
      "¦": 103,
      "§": 104,
      "¨": 105,
      "©": 106,
      "ª": 107,
      "«": 108,
      "¬": 109,
      "®": 110,
      "¯": 111,
      "°": 112,
      "±": 113,
      "²": 114,
      "³": 115,
      "´": 116,
      "µ": 117,
      "¶": 118,
      "·": 119,
      "¸": 120,
      "¹": 121,
      "º": 122,
      "»": 123,
      "¼": 124,
      "½": 125,
      "¾": 126,
      "¿": 127,
      "À": 128,
      "Á": 129,
      "Â": 130,
      "Ã": 131,
      "Ä": 132,
      "Å": 133,
      "Æ": 134,
      "Ç": 135,
      "È": 136,
      "É": 137,
      "Ê": 138,
      "Ë": 139,
      "Ì": 140,
      "Í": 141,
      "Î": 142,
      "Ï": 143,
      "Ð": 144,
      "Ñ": 145,
      "Ò": 146,
      "Ó": 147,
      "Ô": 148,
      "Õ": 149,
      "Ö": 150,
      "×": 151,
      "Ø": 152,
      "Ù": 153,
      "Ú": 154,
      "Û": 155,
      "Ü": 156,
      "Ý": 157,
      "Þ": 158,
      "ß": 159,
      "à": 160,
      "á": 161,
      "â": 162,
      "ã": 163,
      "ä": 164,
      "å": 165,
      "æ": 166,
      "ç": 167,
      "è": 168,
      "é": 169,
      "ê": 170,
      "ë": 171,
      "ì": 172,
      "í": 173,
      "î": 174,
      "ï": 175,
      "ð": 176,
      "ñ": 177,
      "ò": 178,
      "ó": 179,
      "ô": 180,
      "õ": 181,
      "ö": 182,
      "÷": 183,
      "ø": 184,
      "ù": 185,
      "ú": 186,
      "û": 187,
      "ü": 188,
      "ý": 189,
      "þ": 190,
      "ÿ": 191,
      "Ā": 192,
      "ā": 193,
      "Ă": 194,
      "ă": 195,
      "Ą": 196,
      "ą": 197,
      "Ć": 198,
      "ć": 199,
      "Ĉ": 200,
      "ĉ": 201,
      "Ċ": 202,
      "ċ": 203,
      "Č": 204,
      "č": 205,
      "Ď": 206,
      "ď": 207,
      "Đ": 208,
      "đ": 209,
      "Ē": 210,
      "ē": 211,
      "Ĕ": 212,
      "ĕ": 213,
      "Ė": 214,
      "ė": 215,
      "Ę": 216,
      "ę": 217,
      "Ě": 218,
      "ě": 219,
      "Ĝ": 220,
      "ĝ": 221,
      "Ğ": 222,
      "ğ": 223,
      "Ġ": 224,
      "ġ": 225,
      "Ģ": 226,
      "ģ": 227,
      "Ĥ": 228,
      "ĥ": 229,
      "Ħ": 230,
      "ħ": 231,
      "Ĩ": 232,
      "ĩ": 233,
      "Ī": 234,
      "ī": 235,
      "Ĭ": 236,
      "ĭ": 237,
      "Į": 238,
      "į": 239,
      "İ": 240,
      "ı": 241,
      "Ĳ": 242,
      "ĳ": 243,
      "Ĵ": 244,
      "ĵ": 245,
      "Ķ": 246,
      "ķ": 247,
      "ĸ": 248,
      "Ĺ": 249,
      "ĺ": 250,
      "Ļ": 251,
      "ļ": 252,
      "Ľ": 253,
      "ľ": 254,
      "Ŀ": 255,
      "ŀ": 256,
      "Ł": 257,
      "ł": 258,
      "Ń": 259,
      "in": 260,
      "st": 261,
      ");": 262,
      "re": 263,
      "le": 264,
      "on": 265,
      "te": 266,
      "Ġ=": 267,
      "ut": 268,
      "ge": 269,
      "se": 270,
      "fi": 271,
      "ne": 272,
      "Ġ{": 273,
      "Ġ}": 274,
      "ti": 275,
      "file": 276,
      "rea": 277,
      "er": 278,
      "me": 279,
      "Ġ(": 280,
      "ce": 281,
      "Ġi": 282,
      "get": 283,
      "at": 284,
      "rin": 285,
      "tion": 286,
      "or": 287,
      "()": 288,
      "Ġc": 289,
      "();": 290,
      "new": 291,
      "ur": 292,
      "Ġt": 293,
      "out": 294,
      "al": 295,
      "Ġ\"": 296,
      "de": 297,
      "put": 298,
      "ar": 299,
      "ring": 300,
      "string": 301,
      "Ġ+": 302,
      "(\"": 303,
      "ch": 304,
      "an": 305,
      "ro": 306,
      "Ġe": 307,
      "Ġnew": 308,
      "Ġp": 309,
      "lo": 310,
      "strea": 311,
      "stream": 312,
      "nt": 313,
      "Ġfile": 314,
      "Ġb": 315,
      "Ġin": 316,
      "ri": 317,
      "ul": 318,
      "Ġf": 319,
      "Ġn": 320,
      "Ġs": 321,
      "ption": 322,
      "putstream": 323,
      "Ġif": 324,
      "ss": 325,
      "xce": 326,
      "xception": 327,
      "di": 328,
      "co": 329,
      "read": 330,
      "ame": 331,
      "Ġre": 332,
      "ull": 333,
      "li": 334,
      "con": 335,
      "\");": 336,
      "Ġstring": 337,
      "url": 338,
      "ry": 339,
      "Ġnull": 340,
      "pe": 341,
      "Ġd": 342,
      "ate": 343,
      "th": 344,
      "name": 345,
      "set": 346,
      "Ġout": 347,
      "id": 348,
      "ue": 349,
      "age": 350,
      "uf": 351,
      "mp": 352,
      "ad": 353,
      "wri": 354,
      "to": 355,
      "exception": 356,
      "yte": 357,
      "ct": 358,
      "Ġth": 359,
      "write": 360,
      "ser": 361,
      "atch": 362,
      "());": 363,
      "Ġm": 364,
      "Ġ0": 365,
      "ra": 366,
      "Ġtry": 367,
      "uff": 368,
      "la": 369,
      "));": 370,
      "row": 371,
      "Ġcatch": 372,
      "ta": 373,
      "lose": 374,
      "il": 375,
      "len": 376,
      "close": 377,
      "ty": 378,
      "Ġcon": 379,
      "Ġurl": 380,
      "ub": 381,
      "si": 382,
      "ction": 383,
      "sp": 384,
      "rint": 385,
      "Ġthrow": 386,
      "ap": 387,
      "Ġ!": 388,
      "up": 389,
      "Ġst": 390,
      "inputstream": 391,
      "so": 392,
      "tp": 393,
      "ata": 394,
      "Ġv": 395,
      "outputstream": 396,
      "print": 397,
      "Ġ!=": 398,
      "log": 399,
      "lin": 400,
      "ck": 401,
      "em": 402,
      "is": 403,
      "nel": 404,
      "Ġh": 405,
      "ing": 406,
      "Ġret": 407,
      "chan": 408,
      "))": 409,
      "ment": 410,
      "un": 411,
      "().": 412,
      "urce": 413,
      "urn": 414,
      "\",": 415,
      "as": 416,
      "Ġreturn": 417,
      "channel": 418,
      "reader": 419,
      "inal": 420,
      "ex": 421,
      "red": 422,
      "oexception": 423,
      "ath": 424,
      "Ġw": 425,
      "yst": 426,
      "ter": 427,
      "mess": 428,
      "err": 429,
      "xt": 430,
      "line": 431,
      "())": 432,
      "message": 433,
      "lic": 434,
      "Ġj": 435,
      "int": 436,
      "ve": 437,
      "pen": 438,
      "Ġbyte": 439,
      "par": 440,
      "qu": 441,
      "ystem": 442,
      "nection": 443,
      "Ġbuff": 444,
      "Ġde": 445,
      "byte": 446,
      "pro": 447,
      "ation": 448,
      "os": 449,
      "ttp": 450,
      "ublic": 451,
      "Ġfinal": 452,
      "gest": 453,
      "Ġsystem": 454,
      "pa": 455,
      "Ġpublic": 456,
      "data": 457,
      "leng": 458,
      "digest": 459,
      "Ġint": 460,
      "length": 461,
      "ver": 462,
      "ln": 463,
      "ble": 464,
      "en": 465,
      "path": 466,
      "error": 467,
      "ot": 468,
      "date": 469,
      "bu": 470,
      "source": 471,
      "Ġco": 472,
      "println": 473,
      "fo": 474,
      "[]": 475,
      "ile": 476,
      "do": 477,
      "ered": 478,
      "ze": 479,
      "for": 480,
      "Ġ1": 481,
      "que": 482,
      "um": 483,
      "Ġel": 484,
      "val": 485,
      "Ġelse": 486,
      "Ġlog": 487,
      "per": 488,
      "fa": 489,
      "it": 490,
      "Ġ-": 491,
      "list": 492,
      "Ġo": 493,
      "type": 494,
      "ger": 495,
      "ctor": 496,
      "mo": 497,
      "Ġex": 498,
      "Ġvo": 499,
      "Ġbuffered": 500,
      "buff": 501,
      "Ġfor": 502,
      "Ġ==": 503,
      "ent": 504,
      "lass": 505,
      "Ġwh": 506,
      "Ġvoid": 507,
      "py": 508,
      "Ġthrows": 509,
      "spon": 510,
      "gs": 511,
      "stan": 512,
      "sponse": 513,
      "cu": 514,
      "connection": 515,
      "quest": 516,
      ").": 517,
      "ly": 518,
      "ip": 519,
      "ack": 520,
      "writer": 521,
      "add": 522,
      "us": 523,
      "oo": 524,
      "Ġa": 525,
      "tent": 526,
      "Ġfileoutputstream": 527,
      "code": 528,
      "update": 529,
      "dir": 530,
      "ase": 531,
      "ult": 532,
      "rc": 533,
      "der": 534,
      "\\\"": 535,
      "tr": 536,
      "vi": 537,
      "text": 538,
      "Ġ>": 539,
      "buffer": 540,
      "Ġinputstream": 541,
      "and": 542,
      "el": 543,
      "av": 544,
      "ray": 545,
      "array": 546,
      "Ġwhile": 547,
      "ml": 548,
      "je": 549,
      "Ġr": 550,
      "Ġfileinputstream": 551,
      "es": 552,
      "stance": 553,
      "ctory": 554,
      "tic": 555,
      "Ġto": 556,
      "value": 557,
      "Ġ<": 558,
      "alse": 559,
      "ils": 560,
      "wor": 561,
      "Ġdo": 562,
      "Ġpro": 563,
      "of": 564,
      "tostring": 565,
      "time": 566,
      "ke": 567,
      "\";": 568,
      "ava": 569,
      "Ġmd": 570,
      "(),": 571,
      "ioexception": 572,
      "size": 573,
      "Ġioexception": 574,
      "Ġsta": 575,
      "form": 576,
      "rom": 577,
      "no": 578,
      "class": 579,
      "qual": 580,
      "he": 581,
      "Ġmessage": 582,
      "ject": 583,
      "bytes": 584,
      "instance": 585,
      "pend": 586,
      "Ġ(!": 587,
      "load": 588,
      "ith": 589,
      "mage": 590,
      "append": 591,
      "Ġstatic": 592,
      "Ġhttp": 593,
      "tra": 594,
      "sult": 595,
      "Ġ((": 596,
      "rent": 597,
      "dex": 598,
      "00": 599,
      "ho": 600,
      "Ġ&": 601,
      "Ġds": 602,
      "Ġget": 603,
      "ist": 604,
      "user": 605,
      "temp": 606,
      "Ġdest": 607,
      "Ġz": 608,
      "able": 609,
      "ted": 610,
      "];": 611,
      "unt": 612,
      "==": 613,
      "Ġis": 614,
      "++": 615,
      "loc": 616,
      "request": 617,
      "Ġso": 618,
      "Ġtr": 619,
      "Ġfinally": 620,
      "</": 621,
      "uid": 622,
      "ds": 623,
      "io": 624,
      "ort": 625,
      "reate": 626,
      "quals": 627,
      "trace": 628,
      "lean": 629,
      "Ġg": 630,
      "am": 631,
      "open": 632,
      "xml": 633,
      "copy": 634,
      "content": 635,
      "ed": 636,
      "\"))": 637,
      "com": 638,
      "oolean": 639,
      "tri": 640,
      "dire": 641,
      "filename": 642,
      "tags": 643,
      "Ġse": 644,
      "\")": 645,
      "Ġmessagedigest": 646,
      "ma": 647,
      "Ġfalse": 648,
      "key": 649,
      "index": 650,
      "stack": 651,
      "http": 652,
      "po": 653,
      "Ġread": 654,
      "ash": 655,
      "Ġl": 656,
      "pre": 657,
      "dest": 658,
      "od": 659,
      "cess": 660,
      "state": 661,
      "Ġen": 662,
      "stacktrace": 663,
      "art": 664,
      "word": 665,
      "Ġboolean": 666,
      "response": 667,
      "Ġdata": 668,
      "printstacktrace": 669,
      "..": 670,
      "ig": 671,
      "ong": 672,
      "Ġbufferedreader": 673,
      "Ġdc": 674,
      "lu": 675,
      "Ġconn": 676,
      "info": 677,
      "lement": 678,
      "proper": 679,
      "Ġsource": 680,
      "lient": 681,
      "sc": 682,
      "bject": 683,
      "ator": 684,
      "--": 685,
      "ans": 686,
      "md": 687,
      "directory": 688,
      "equals": 689,
      "Ġ&&": 690,
      "ion": 691,
      "count": 692,
      "getname": 693,
      "sion": 694,
      "Ġsrc": 695,
      "mt": 696,
      "str": 697,
      "ader": 698,
      "arser": 699,
      "((": 700,
      "ssword": 701,
      "\"));": 702,
      "Ġconnection": 703,
      "Ġtrue": 704,
      "gor": 705,
      "ber": 706,
      "Ġjava": 707,
      "outils": 708,
      "ination": 709,
      "create": 710,
      "Ġresponse": 711,
      "><": 712,
      "ntry": 713,
      "lete": 714,
      "riv": 715,
      "sh": 716,
      "Ġnot": 717,
      "Ġresult": 718,
      "getinstance": 719,
      "map": 720,
      "ecu": 721,
      "Ġioutils": 722,
      "tain": 723,
      "getchannel": 724,
      "ecute": 725,
      "¿½": 726,
      "ï¿½": 727,
      "ix": 728,
      "getbytes": 729,
      "Ġthis": 730,
      "rivate": 731,
      "resource": 732,
      "atus": 733,
      "teger": 734,
      "Ġfi": 735,
      "Ġline": 736,
      "next": 737,
      "Ġlogger": 738,
      "Ġch": 739,
      "Ġprivate": 740,
      "num": 741,
      "format": 742,
      "++)": 743,
      "sq": 744,
      "Ġ|": 745,
      "bo": 746,
      "Ġ:": 747,
      "buil": 748,
      "ten": 749,
      "pt": 750,
      "ixel": 751,
      "ists": 752,
      "mparser": 753,
      "sub": 754,
      "Ġcopy": 755,
      "input": 756,
      "men": 757,
      "statement": 758,
      "let": 759,
      "Ġinput": 760,
      "comm": 761,
      "Ġfrom": 762,
      "bug": 763,
      "test": 764,
      "che": 765,
      "src": 766,
      "Ġfilechannel": 767,
      "execute": 768,
      "uri": 769,
      "Ġexception": 770,
      "param": 771,
      "client": 772,
      "ht": 773,
      "property": 774,
      "xlen": 775,
      "ixeldata": 776,
      "meth": 777,
      "uc": 778,
      "fl": 779,
      "Ġ'": 780,
      "ca": 781,
      "ress": 782,
      "Ġpa": 783,
      "lexception": 784,
      "not": 785,
      "und": 786,
      "Ġoutput": 787,
      "et": 788,
      "Ġx": 789,
      "tem": 790,
      "exists": 791,
      "comp": 792,
      "ler": 793,
      "output": 794,
      "rep": 795,
      "fig": 796,
      "contain": 797,
      "base": 798,
      "sto": 799,
      "vice": 800,
      "arget": 801,
      "Ġdcmparser": 802,
      "cument": 803,
      "from": 804,
      "tity": 805,
      "Ġ||": 806,
      "ac": 807,
      "ameter": 808,
      "urrent": 809,
      "Ġbuffer": 810,
      "sert": 811,
      "server": 812,
      "serv": 813,
      "dc": 814,
      "method": 815,
      "sa": 816,
      "getmessage": 817,
      "all": 818,
      "Ġar": 819,
      "Ġzip": 820,
      "Ġstringbuffer": 821,
      "zip": 822,
      "header": 823,
      "trans": 824,
      "table": 825,
      "algor": 826,
      "ure": 827,
      "Ġname": 828,
      "Ġpre": 829,
      "Ġdi": 830,
      "algorith": 831,
      "Ġreader": 832,
      "true": 833,
      "cted": 834,
      "Ġoutputstream": 835,
      ".\");": 836,
      "last": 837,
      "ties": 838,
      "substring": 839,
      "Ġrequest": 840,
      "Ġimage": 841,
      "cod": 842,
      "parse": 843,
      "readline": 844,
      "with": 845,
      "Ġ*": 846,
      "Ġtemp": 847,
      "Ġno": 848,
      "start": 849,
      "qui": 850,
      "Ġval": 851,
      "()));": 852,
      "ff": 853,
      "ab": 854,
      "ner": 855,
      "Ġerror": 856,
      "files": 857,
      "Ġinputstreamreader": 858,
      "====": 859,
      "Ġas": 860,
      "quer": 861,
      "Ġlong": 862,
      "wn": 863,
      "debug": 864,
      "ize": 865,
      "contains": 866,
      "entry": 867,
      "buf": 868,
      "Ġ2": 869,
      "conn": 870,
      "null": 871,
      "query": 872,
      "ken": 873,
      "Ġsb": 874,
      "col": 875,
      "ssion": 876,
      "Ġps": 877,
      "son": 878,
      "Ġlist": 879,
      "number": 880,
      "servlet": 881,
      "Ġpst": 882,
      "ew": 883,
      "image": 884,
      "can": 885,
      "use": 886,
      "Ġfos": 887,
      "status": 888,
      "factory": 889,
      "Ġ>>": 890,
      "ph": 891,
      "this": 892,
      "openstream": 893,
      "ere": 894,
      "Ġdestination": 895,
      "parameter": 896,
      "Ġfilename": 897,
      "db": 898,
      "app": 899,
      "urlconnection": 900,
      "fer": 901,
      "delete": 902,
      "dexception": 903,
      "rol": 904,
      "Ġclass": 905,
      "utils": 906,
      "password": 907,
      "scri": 908,
      "gin": 909,
      "ï¿½ï¿½": 910,
      "Ġdigest": 911,
      "ok": 912,
      "result": 913,
      "context": 914,
      "Ġhash": 915,
      "uccess": 916,
      "##": 917,
      "Ġsq": 918,
      "back": 919,
      "mi": 920,
      "Ġwriter": 921,
      "vent": 922,
      "roup": 923,
      "one": 924,
      "aut": 925,
      "Ġftp": 926,
      "be": 927,
      "ms": 928,
      "den": 929,
      "indexof": 930,
      "ipe": 931,
      "Ġ?": 932,
      "Ġset": 933,
      "hash": 934,
      "service": 935,
      "Ġmo": 936,
      "andler": 937,
      "Ġuser": 938,
      "Ġma": 939,
      "Ġinteger": 940,
      "Ġ+=": 941,
      "action": 942,
      "object": 943,
      "ary": 944,
      "man": 945,
      "builder": 946,
      "ting": 947,
      "arch": 948,
      "attri": 949,
      "Ġpar": 950,
      "conne": 951,
      "),": 952,
      "=\"": 953,
      "difi": 954,
      "util": 955,
      "64": 956,
      "uble": 957,
      "version": 958,
      "attribu": 959,
      "uch": 960,
      "utf": 961,
      "Ġid": 962,
      "mple": 963,
      "final": 964,
      "mexception": 965,
      "Ġ\".": 966,
      "ush": 967,
      "getinputstream": 968,
      "mode": 969,
      "ic": 970,
      "Ġ\"\";": 971,
      "attribute": 972,
      "ha": 973,
      "Ġbase": 974,
      "config": 975,
      "item": 976,
      "commit": 977,
      "Ġvalue": 978,
      "Ġpxlen": 979,
      "dcm": 980,
      "Ġstmt": 981,
      "Ġarray": 982,
      "java": 983,
      "Ġ\"\\": 984,
      "openconnection": 985,
      "char": 986,
      "Ġcontent": 987,
      "executeupdate": 988,
      "Ġbytearray": 989,
      "mat": 990,
      "Ġ\"/": 991,
      "getint": 992,
      "atcher": 993,
      "rec": 994,
      "Ġrun": 995,
      "].": 996,
      "fin": 997,
      "//": 998,
      "flush": 999,
      "setstring": 1000,
      "td": 1001,
      "group": 1002,
      "Ġtmp": 1003,
      "port": 1004,
      "token": 1005,
      "handler": 1006,
      "false": 1007,
      "Ġ\"'": 1008,
      "Ġthe": 1009,
      "Ġbuf": 1010,
      "(\"\\": 1011,
      "tag": 1012,
      "gu": 1013,
      "Ġ4": 1014,
      "link": 1015,
      "Ġfa": 1016,
      "osuch": 1017,
      "war": 1018,
      "lder": 1019,
      "Ġbufferedinputstream": 1020,
      "fault": 1021,
      "Ġbytes": 1022,
      "ive": 1023,
      "ager": 1024,
      "sele": 1025,
      "modifi": 1026,
      "transfer": 1027,
      "current": 1028,
      "algorithmexception": 1029,
      "osuchalgorithmexception": 1030,
      "sql": 1031,
      "min": 1032,
      "ci": 1033,
      "ded": 1034,
      "Ġentry": 1035,
      "----": 1036,
      "ob": 1037,
      "option": 1038,
      "nex": 1039,
      "cate": 1040,
      "Ġdb": 1041,
      "Ġ\",": 1042,
      "element": 1043,
      "Ġpd": 1044,
      "pixeldata": 1045,
      "tern": 1046,
      "location": 1047,
      "connect": 1048,
      "Ġfis": 1049,
      "host": 1050,
      "Ġ3": 1051,
      "lace": 1052,
      "view": 1053,
      "swith": 1054,
      "ts": 1055,
      "solu": 1056,
      "reak": 1057,
      "solute": 1058,
      "=\\\"": 1059,
      "tid": 1060,
      ">\");": 1061,
      "getstring": 1062,
      "iz": 1063,
      "Ġun": 1064,
      "ui": 1065,
      "long": 1066,
      "texception": 1067,
      "vel": 1068,
      "Ġpath": 1069,
      "Ġfo": 1070,
      "parent": 1071,
      "10": 1072,
      "coding": 1073,
      "Ġbufferedoutputstream": 1074,
      "absolute": 1075,
      "lay": 1076,
      "ipentry": 1077,
      "ries": 1078,
      "]);": 1079,
      "Ġobject": 1080,
      "trim": 1081,
      "tmp": 1082,
      "local": 1083,
      "alo": 1084,
      "Ġ@": 1085,
      "Ġpassword": 1086,
      "ema": 1087,
      "Ġbreak": 1088,
      "parator": 1089,
      "wnload": 1090,
      "roll": 1091,
      "document": 1092,
      "sqlexception": 1093,
      "Ġdst": 1094,
      "post": 1095,
      "ype": 1096,
      "://": 1097,
      "check": 1098,
      "Ġor": 1099,
      "hex": 1100,
      "sho": 1101,
      "destination": 1102,
      "Ġal": 1103,
      "getabsolute": 1104,
      "ftp": 1105,
      "Ġ\":": 1106,
      "ww": 1107,
      "has": 1108,
      "getread": 1109,
      "Ġstr": 1110,
      "coder": 1111,
      "integer": 1112,
      "Ġtarget": 1113,
      "tle": 1114,
      "Ġstream": 1115,
      "Ġos": 1116,
      "instanceuid": 1117,
      "work": 1118,
      "manager": 1119,
      "lan": 1120,
      "mon": 1121,
      "prepa": 1122,
      "eb": 1123,
      "separator": 1124,
      "gra": 1125,
      "Ġmap": 1126,
      "yn": 1127,
      "sig": 1128,
      "fe": 1129,
      "Ġexc": 1130,
      "html": 1131,
      "loader": 1132,
      "umn": 1133,
      "('": 1134,
      "**": 1135,
      "getabsolutepath": 1136,
      "Ġand": 1137,
      "?,": 1138,
      "Ġk": 1139,
      "notfo": 1140,
      "iled": 1141,
      "encode": 1142,
      "Ġuid": 1143,
      "node": 1144,
      "terator": 1145,
      "alog": 1146,
      "ated": 1147,
      "getproperty": 1148,
      "()).": 1149,
      "undexception": 1150,
      "ild": 1151,
      "Ġresource": 1152,
      "target": 1153,
      "net": 1154,
      "sk": 1155,
      "rollback": 1156,
      "Ġbytearrayoutputstream": 1157,
      "ld": 1158,
      "Ġta": 1159,
      "Ġurlconnection": 1160,
      "Ġpo": 1161,
      "Ġsql": 1162,
      "doc": 1163,
      "low": 1164,
      "Ġoutfile": 1165,
      "cry": 1166,
      "notfoundexception": 1167,
      "Ġxml": 1168,
      "over": 1169,
      "Ġdocument": 1170,
      "nd": 1171,
      "mal": 1172,
      "vr": 1173,
      "Ġme": 1174,
      "imp": 1175,
      "address": 1176,
      "(\"<": 1177,
      "replace": 1178,
      "root": 1179,
      "kdir": 1180,
      "Ġargs": 1181,
      "res": 1182,
      "nosuchalgorithmexception": 1183,
      "Ġsuccess": 1184,
      "lugin": 1185,
      "startswith": 1186,
      "ref": 1187,
      "level": 1188,
      "build": 1189,
      "vert": 1190,
      "med": 1191,
      "Ġdate": 1192,
      "dit": 1193,
      "setrequest": 1194,
      "prepare": 1195,
      "Ġkey": 1196,
      "fix": 1197,
      "Ġsa": 1198,
      "modified": 1199,
      "tach": 1200,
      "insert": 1201,
      "24": 1202,
      "rame": 1203,
      "preparestatement": 1204,
      "jar": 1205,
      "ls": 1206,
      "\"),": 1207,
      "Ġbe": 1208,
      "Ġ'\"": 1209,
      "warn": 1210,
      "(\"/": 1211,
      "leg": 1212,
      "Ġ_": 1213,
      "Ġcopyfile": 1214,
      "ord": 1215,
      "Ġca": 1216,
      "ps": 1217,
      "folder": 1218,
      "Ġche": 1219,
      "sha": 1220,
      "por": 1221,
      "Ġcheck": 1222,
      "Ġnum": 1223,
      "Ġproper": 1224,
      "Ġcreate": 1225,
      "gress": 1226,
      "codeparam": 1227,
      "Ġcom": 1228,
      "timeexception": 1229,
      "br": 1230,
      "!\");": 1231,
      "logger": 1232,
      "getparameter": 1233,
      "Ġzipentry": 1234,
      "fiel": 1235,
      "Ġrs": 1236,
      "pxlen": 1237,
      "rlen": 1238,
      "lit": 1239,
      "rix": 1240,
      "upload": 1241,
      "var": 1242,
      "ie": 1243,
      "mkdir": 1244,
      "sup": 1245,
      "da": 1246,
      "chema": 1247,
      "Ġdcmen": 1248,
      ">\\": 1249,
      "icon": 1250,
      "setint": 1251,
      "Ġan": 1252,
      "\\\":": 1253,
      "\").": 1254,
      "Ġstatus": 1255,
      "pane": 1256,
      "system": 1257,
      "attach": 1258,
      "Ġio": 1259,
      "redstatement": 1260,
      "legal": 1261,
      "Ġarraylist": 1262,
      "show": 1263,
      "inter": 1264,
      "mer": 1265,
      "lock": 1266,
      "Ġjar": 1267,
      "Ġ16": 1268,
      "></": 1269,
      "sal": 1270,
      "script": 1271,
      "Ġres": 1272,
      "title": 1273,
      "Ġ8": 1274,
      "Ġprint": 1275,
      "msg": 1276,
      "lter": 1277,
      "nce": 1278,
      "getcontent": 1279,
      "disp": 1280,
      "Ġstate": 1281,
      "valid": 1282,
      "ir": 1283,
      "Ġcomp": 1284,
      "getresource": 1285,
      "default": 1286,
      "Ġbu": 1287,
      "eader": 1288,
      "Ġchar": 1289,
      "formed": 1290,
      "Ġprepa": 1291,
      "Ġupdate": 1292,
      "outfile": 1293,
      "late": 1294,
      "auth": 1295,
      "Ġwrite": 1296,
      "Ġnode": 1297,
      "order": 1298,
      "Ġsize": 1299,
      "Ġtest": 1300,
      "vo": 1301,
      "org": 1302,
      "tive": 1303,
      "dialog": 1304,
      "Ġpstmt": 1305,
      "ec": 1306,
      "numberof": 1307,
      "requi": 1308,
      "========": 1309,
      "ody": 1310,
      "properties": 1311,
      "Ġcurrent": 1312,
      "Ġba": 1313,
      "df": 1314,
      "uld": 1315,
      "sition": 1316,
      "Ġil": 1317,
      "(\".": 1318,
      "fact": 1319,
      "ride": 1320,
      "gen": 1321,
      "Ġdirectory": 1322,
      "Ġ>=": 1323,
      "Ġpreparedstatement": 1324,
      "Ġtrans": 1325,
      "Ġbr": 1326,
      "raw": 1327,
      "process": 1328,
      "Ġassert": 1329,
      "Ġclient": 1330,
      "Ġinchannel": 1331,
      "sta": 1332,
      "gist": 1333,
      "Ġhttpurlconnection": 1334,
      "Ġof": 1335,
      "Ġmy": 1336,
      "frame": 1337,
      "du": 1338,
      "Ġfin": 1339,
      "main": 1340,
      "getpath": 1341,
      "override": 1342,
      "rst": 1343,
      "remo": 1344,
      "Ġdouble": 1345,
      "####": 1346,
      "Ġconvert": 1347,
      "newfile": 1348,
      "Ġ/": 1349,
      "Ġ\"\");": 1350,
      "Ġge": 1351,
      "mar": 1352,
      "spe": 1353,
      "rial": 1354,
      "constan": 1355,
      "ret": 1356,
      "bin": 1357,
      "Ġstringbuilder": 1358,
      "login": 1359,
      "Ġchan": 1360,
      ")));": 1361,
      "quiet": 1362,
      "pi": 1363,
      "uration": 1364,
      "gexception": 1365,
      "Ġfc": 1366,
      "Ġresp": 1367,
      "Ġtags": 1368,
      "getoutputstream": 1369,
      "Ġac": 1370,
      "fail": 1371,
      "fore": 1372,
      "sop": 1373,
      "getparent": 1374,
      "session": 1375,
      "algorithm": 1376,
      "tentry": 1377,
      "itor": 1378,
      "(\"</": 1379,
      "putui": 1380,
      "spixeldata": 1381,
      "Ġinfile": 1382,
      "tohex": 1383,
      "xy": 1384,
      "dcmhandler": 1385,
      "Ġfiles": 1386,
      "Ġproperties": 1387,
      "Ġconfig": 1388,
      "required": 1389,
      "auto": 1390,
      "Ġcol": 1391,
      "ight": 1392,
      "stu": 1393,
      "double": 1394,
      "Ġserver": 1395,
      "tected": 1396,
      "column": 1397,
      "Ġy": 1398,
      "sample": 1399,
      "Ġ\");": 1400,
      "max": 1401,
      "Ġsrcchannel": 1402,
      "by": 1403,
      "quietly": 1404,
      "tex": 1405,
      ")\");": 1406,
      "Ġwhere": 1407,
      "ron": 1408,
      "abled": 1409,
      "tofile": 1410,
      "attern": 1411,
      "getvalue": 1412,
      "meta": 1413,
      "\".": 1414,
      "if": 1415,
      "Ġlength": 1416,
      "ren": 1417,
      "body": 1418,
      "Ġreq": 1419,
      "Ġstatement": 1420,
      "ili": 1421,
      "matrix": 1422,
      "mail": 1423,
      "');": 1424,
      "Ġioe": 1425,
      "()))": 1426,
      "parser": 1427,
      "web": 1428,
      "ener": 1429,
      "optionpane": 1430,
      "filter": 1431,
      "gory": 1432,
      "event": 1433,
      "Ġper": 1434,
      "ace": 1435,
      "12": 1436,
      "Ġstart": 1437,
      "ped": 1438,
      "Ġon": 1439,
      "Ġcount": 1440,
      "bit": 1441,
      "cs": 1442,
      "100": 1443,
      "requiredtype": 1444,
      "ature": 1445,
      "txt": 1446,
      "parseint": 1447,
      "au": 1448,
      "Ġvi": 1449,
      "vid": 1450,
      "plugin": 1451,
      "case": 1452,
      "Ġprotected": 1453,
      "scription": 1454,
      "closequietly": 1455,
      "model": 1456,
      "Ġ10": 1457,
      "Ġjoptionpane": 1458,
      "Ġtype": 1459,
      "Ġformat": 1460,
      "mkdirs": 1461,
      "box": 1462,
      "++;": 1463,
      "Ġho": 1464,
      "flate": 1465,
      "project": 1466,
      "im": 1467,
      "ity": 1468,
      "Ġvalues": 1469,
      ">();": 1470,
      "Ġsession": 1471,
      "Ġruntimeexception": 1472,
      "telement": 1473,
      "\\\\": 1474,
      "Ġms": 1475,
      "tot": 1476,
      "httpurlconnection": 1477,
      "Ġcont": 1478,
      "cation": 1479,
      "isdirectory": 1480,
      "Ġtot": 1481,
      "',": 1482,
      "ale": 1483,
      "Ġload": 1484,
      "...\");": 1485,
      "autocommit": 1486,
      "Ġver": 1487,
      "Ġillegal": 1488,
      "Ġaut": 1489,
      "Ġdir": 1490,
      "dom": 1491,
      "Ġparent": 1492,
      "Ġindex": 1493,
      "success": 1494,
      "sexception": 1495,
      "pack": 1496,
      "real": 1497,
      "ym": 1498,
      "tings": 1499,
      "run": 1500,
      "Ġfilewriter": 1501,
      "Ġhttpclient": 1502,
      "Ġelement": 1503,
      "Ġinto": 1504,
      "dy": 1505,
      "ign": 1506,
      "save": 1507,
      "tor": 1508,
      "Ġve": 1509,
      "constants": 1510,
      "are": 1511,
      "argu": 1512,
      "Ġli": 1513,
      "page": 1514,
      "Ġob": 1515,
      "iterator": 1516,
      "Ġ\"\\\"": 1517,
      "Ġtime": 1518,
      "...": 1519,
      "setrequestproperty": 1520,
      "field": 1521,
      "Ġsha": 1522,
      "cket": 1523,
      "cur": 1524,
      "tial": 1525,
      "Ġbufferedwriter": 1526,
      "Ġtext": 1527,
      "category": 1528,
      "Ġparam": 1529,
      "ado": 1530,
      "nextentry": 1531,
      "before": 1532,
      "command": 1533,
      "Ġmethod": 1534,
      "mil": 1535,
      "serte": 1536,
      "lastmodified": 1537,
      "part": 1538,
      "ree": 1539,
      "infile": 1540,
      "failure": 1541,
      "Ġoutchannel": 1542,
      "search": 1543,
      "select": 1544,
      "transferto": 1545,
      "dataset": 1546,
      "params": 1547,
      "?,?,": 1548,
      "sertequals": 1549,
      "store": 1550,
      "stru": 1551,
      "suppor": 1552,
      "okie": 1553,
      "Ġdstchannel": 1554,
      "urlexception": 1555,
      "lab": 1556,
      "Ġapp": 1557,
      "Ġsw": 1558,
      "listener": 1559,
      "Ġuri": 1560,
      "Ġ\"<": 1561,
      "failed": 1562,
      "split": 1563,
      "='": 1564,
      "getclass": 1565,
      "ingexception": 1566,
      "Ġdisp": 1567,
      "formedurlexception": 1568,
      "pos": 1569,
      "ine": 1570,
      "download": 1571,
      "Ġ\"&": 1572,
      "lis": 1573,
      "Ġlen": 1574,
      "samples": 1575,
      "Ġdestfile": 1576,
      "tension": 1577,
      "series": 1578,
      "progress": 1579,
      "inue": 1580,
      "izer": 1581,
      "attachment": 1582,
      "les": 1583,
      "Ġtable": 1584,
      "tifi": 1585,
      "hoto": 1586,
      "tation": 1587,
      "mentexception": 1588,
      "'t": 1589,
      "study": 1590,
      "metri": 1591,
      "space": 1592,
      "ized": 1593,
      "pair": 1594,
      "op": 1595,
      "hel": 1596,
      ":\"": 1597,
      "home": 1598,
      "Ġhttpservlet": 1599,
      "setdo": 1600,
      "Ġdoc": 1601,
      "norec": 1602,
      "Ġassertequals": 1603,
      "Ġha": 1604,
      "norecase": 1605,
      "cont": 1606,
      "--------": 1607,
      "tempfile": 1608,
      "tohexstring": 1609,
      "equal": 1610,
      "rid": 1611,
      "signorecase": 1612,
      "equalsignorecase": 1613,
      "sol": 1614,
      "located": 1615,
      "Ġquery": 1616,
      "Ġmain": 1617,
      "rexception": 1618,
      "Ġdownload": 1619,
      "Ġfilereader": 1620,
      "Ġu": 1621,
      "cache": 1622,
      "Ġ\"/\"": 1623,
      "cept": 1624,
      "sallocated": 1625,
      "her": 1626,
      "ba": 1627,
      "bitsallocated": 1628,
      "grlen": 1629,
      "Ġheader": 1630,
      "numberofsamples": 1631,
      "0000": 1632,
      "stmt": 1633,
      "setautocommit": 1634,
      "lication": 1635,
      "Ġmode": 1636,
      "valueof": 1637,
      "beforemd": 1638,
      "Ġht": 1639,
      "cparam": 1640,
      "getreadvr": 1641,
      "Ġdcmencparam": 1642,
      "argumentexception": 1643,
      "ces": 1644,
      "ran": 1645,
      "rs": 1646,
      "filenotfoundexception": 1647,
      "vari": 1648,
      "could": 1649,
      "mpty": 1650,
      "Ġaction": 1651,
      "lang": 1652,
      "Ġinstance": 1653,
      "Ġsi": 1654,
      "exit": 1655,
      "idth": 1656,
      "bytearray": 1657,
      "Ġftpclient": 1658,
      "millis": 1659,
      ">\"": 1660,
      "supporte": 1661,
      "ror": 1662,
      "Ġadd": 1663,
      "Ġview": 1664,
      "Ġ(\"": 1665,
      "Ġcontinue": 1666,
      "getresponse": 1667,
      "full": 1668,
      "urlen": 1669,
      "dst": 1670,
      "dis": 1671,
      "getparentfile": 1672,
      "pected": 1673,
      "Ġcan": 1674,
      "vider": 1675,
      "warning": 1676,
      "schema": 1677,
      "unk": 1678,
      "stat": 1679,
      "ont": 1680,
      "valuepair": 1681,
      "dar": 1682,
      "pass": 1683,
      "req": 1684,
      "contenttype": 1685,
      "codingexception": 1686,
      "1024": 1687,
      "args": 1688,
      "ook": 1689,
      "Ġproject": 1690,
      "ends": 1691,
      "Ġvector": 1692,
      "09": 1693,
      "ical": 1694,
      "Ġauth": 1695,
      "Ġbig": 1696,
      "label": 1697,
      "/\"": 1698,
      "dencodingexception": 1699,
      "supportedencodingexception": 1700,
      "dat": 1701,
      "rows": 1702,
      "Ġbin": 1703,
      "point": 1704,
      "Ġcomm": 1705,
      "Ġdebug": 1706,
      "Ġhex": 1707,
      "Ġsourcechannel": 1708,
      "ymbo": 1709,
      "getfile": 1710,
      "loa": 1711,
      "Ġfound": 1712,
      "Ġdatabase": 1713,
      "match": 1714,
      "www": 1715,
      "Ġcontext": 1716,
      "ise": 1717,
      "graph": 1718,
      "regist": 1719,
      "onent": 1720,
      "mime": 1721,
      "asstream": 1722,
      "username": 1723,
      "ipher": 1724,
      "lation": 1725,
      "filepath": 1726,
      "tentity": 1727,
      "utili": 1728,
      "Ġ};": 1729,
      "erence": 1730,
      "currenttime": 1731,
      "change": 1732,
      "ust": 1733,
      "Ġit": 1734,
      "malformedurlexception": 1735,
      ".\",": 1736,
      "loat": 1737,
      "buffered": 1738,
      "ton": 1739,
      "json": 1740,
      "monitor": 1741,
      "Ġpost": 1742,
      "too": 1743,
      "filecopy": 1744,
      "cen": 1745,
      "errorcount": 1746,
      "wd": 1747,
      "Ġad": 1748,
      "Ġdelete": 1749,
      "Ġerrorcount": 1750,
      "sec": 1751,
      "the": 1752,
      "Ġsyn": 1753,
      "photo": 1754,
      "Ġ\";": 1755,
      "Ġencry": 1756,
      "Ġclose": 1757,
      "ï¿½ï¿½ï¿½ï¿½": 1758,
      "clu": 1759,
      "child": 1760,
      "undle": 1761,
      "lear": 1762,
      "metric": 1763,
      "transferfrom": 1764,
      "Ġgzip": 1765,
      "throw": 1766,
      "Ġ});": 1767,
      "Ġcase": 1768,
      "Ġjson": 1769,
      "go": 1770,
      "sum": 1771,
      "currenttimemillis": 1772,
      "hasnext": 1773,
      "lastindexof": 1774,
      "valuebeforemd": 1775,
      "ready": 1776,
      "Ġchannel": 1777,
      "Ġzipoutputstream": 1778,
      "fileinputstream": 1779,
      "sen": 1780,
      "sic": 1781,
      "Ġsave": 1782,
      "cri": 1783,
      "first": 1784,
      "ao": 1785,
      "Ġdefault": 1786,
      "ep": 1787,
      "ini": 1788,
      "my": 1789,
      "endswith": 1790,
      "description": 1791,
      "Ġmax": 1792,
      "11": 1793,
      "iso": 1794,
      "sor": 1795,
      "lable": 1796,
      "Ġinputline": 1797,
      "Ġbytesread": 1798,
      "unable": 1799,
      "Ġsal": 1800,
      "setattribute": 1801,
      "lendar": 1802,
      "ft": 1803,
      "Ġversion": 1804,
      "geti": 1805,
      "Ġwith": 1806,
      "Ġdataset": 1807,
      "site": 1808,
      "Ġmsg": 1809,
      "reply": 1810,
      "destfile": 1811,
      "Ġti": 1812,
      "ja": 1813,
      "ooser": 1814,
      "leted": 1815,
      "timeout": 1816,
      "deta": 1817,
      "end": 1818,
      ")).": 1819,
      "Ġgra": 1820,
      "Ġinstanceof": 1821,
      "bound": 1822,
      "tice": 1823,
      "cookie": 1824,
      "report": 1825,
      "variable": 1826,
      "Ġimp": 1827,
      "lag": 1828,
      "outputfile": 1829,
      "isfile": 1830,
      "va": 1831,
      "Ġparams": 1832,
      "ker": 1833,
      "stra": 1834,
      "ll": 1835,
      "guage": 1836,
      "configuration": 1837,
      "names": 1838,
      "Ġsp": 1839,
      "\\\":\\\"": 1840,
      "Ġcode": 1841,
      "unit": 1842,
      "Ġoutstream": 1843,
      "wa": 1844,
      "thread": 1845,
      "ino": 1846,
      "Ġfailed": 1847,
      "proxy": 1848,
      "88": 1849,
      "Ġservice": 1850,
      "Ġoutputstreamwriter": 1851,
      "stamp": 1852,
      "getrequest": 1853,
      "Ġ<=": 1854,
      "Ġ24": 1855,
      "archive": 1856,
      "Ġsub": 1857,
      "xff": 1858,
      "but": 1859,
      "Ġmi": 1860,
      "createstatement": 1861,
      "Ġran": 1862,
      "job": 1863,
      "vie": 1864,
      "package": 1865,
      "getconnection": 1866,
      "ulti": 1867,
      "gment": 1868,
      "px": 1869,
      "(\"\"))": 1870,
      "tobytearray": 1871,
      "lob": 1872,
      "Ġ(;": 1873,
      "Ġ5": 1874,
      "Ġzipinputstream": 1875,
      "Ġprocess": 1876,
      "ating": 1877,
      "Ġhttpresponse": 1878,
      "replaceall": 1879,
      "ternal": 1880,
      "total": 1881,
      "network": 1882,
      "seth": 1883,
      ",\\\"": 1884,
      "agent": 1885,
      "ilable": 1886,
      "Ġsbvaluebeforemd": 1887,
      "16": 1888,
      "selected": 1889,
      "Ġresultset": 1890,
      "createnewfile": 1891,
      "putnextentry": 1892,
      "categoryid": 1893,
      "mber": 1894,
      "Ġend": 1895,
      "headers": 1896,
      "crea": 1897,
      "lower": 1898,
      "Ġparser": 1899,
      "Ġrec": 1900,
      "fileoutputstream": 1901,
      "getstatus": 1902,
      "Ġhttpget": 1903,
      "Ġro": 1904,
      "orig": 1905,
      "urity": 1906,
      "Ġ?,": 1907,
      "Ġbuil": 1908,
      "throwable": 1909,
      "posi": 1910,
      "clude": 1911,
      "encoding": 1912,
      "Ġevent": 1913,
      "entity": 1914,
      "lowercase": 1915,
      "Ġback": 1916,
      "values": 1917,
      "Ġupload": 1918,
      "Ġbw": 1919,
      "vere": 1920,
      "Ġimageio": 1921,
      "Ġlast": 1922,
      "Ġuse": 1923,
      "Ġconne": 1924,
      "done": 1925,
      "Ġopen": 1926,
      "Ġhttppost": 1927,
      "lain": 1928,
      "dispatcher": 1929,
      "reset": 1930,
      "impl": 1931,
      "ws": 1932,
      "core": 1933,
      "Ġexist": 1934,
      "Ġillegalargumentexception": 1935,
      "task": 1936,
      "Ġurlen": 1937,
      "Ġthread": 1938,
      "59": 1939,
      "typeid": 1940,
      "gener": 1941,
      "remove": 1942,
      "application": 1943,
      "Ġat": 1944,
      "aterial": 1945,
      "Ġurlconn": 1946,
      "outof": 1947,
      "clear": 1948,
      "severe": 1949,
      "chooser": 1950,
      "20": 1951,
      "Ġremo": 1952,
      "face": 1953,
      "Ġbuild": 1954,
      "Ġsup": 1955,
      "lection": 1956,
      "Ġnumber": 1957,
      "gettext": 1958,
      "duct": 1959,
      "][": 1960,
      "Ġtoken": 1961,
      "Ġstringwriter": 1962,
      "getid": 1963,
      "Ġsh": 1964,
      "tolowercase": 1965,
      "resources": 1966,
      "width": 1967,
      "inst": 1968,
      "Ġ\"...\");": 1969,
      "admin": 1970,
      "boundsexception": 1971,
      "ecut": 1972,
      "Ġitem": 1973,
      "sed": 1974,
      "ping": 1975,
      "executequery": 1976,
      "adata": 1977,
      "former": 1978,
      "!\"": 1979,
      "Ġdispatcher": 1980,
      "arg": 1981,
      "indo": 1982,
      "Ġlink": 1983,
      "httpservlet": 1984,
      "pattern": 1985,
      ".,": 1986,
      "hed": 1987,
      "ual": 1988,
      "unter": 1989,
      "Ġencoding": 1990,
      "Ġuids": 1991,
      "Ġpart": 1992,
      "Ġhttpservletresponse": 1993,
      "createimage": 1994,
      "Ġentity": 1995,
      "096": 1996,
      "faul": 1997,
      "outofboundsexception": 1998,
      "inflate": 1999,
      "ule": 2000,
      "inputline": 2001,
      "template": 2002,
      "interpre": 2003,
      "Ġfileformat": 2004,
      "Ġja": 2005,
      "Ġ=>": 2006,
      "proto": 2007,
      "Ġhost": 2008,
      "ance": 2009,
      "tolog": 2010,
      "ght": 2011,
      "sl": 2012,
      "ymbol": 2013,
      "ies": 2014,
      "ore": 2015,
      "ou": 2016,
      "Ġsynch": 2017,
      "Ġbos": 2018,
      "000": 2019,
      ")...": 2020,
      "classuid": 2021,
      "grouplen": 2022,
      "fs": 2023,
      "createtempfile": 2024,
      "Ġoff": 2025,
      "loaded": 2026,
      "\\\",": 2027,
      "decodeparam": 2028,
      "sep": 2029,
      "sign": 2030,
      "af": 2031,
      "Ġcontain": 2032,
      "control": 2033,
      "Ġent": 2034,
      "Ġlocal": 2035,
      "metainfo": 2036,
      "Ġcommand": 2037,
      "rne": 2038,
      "putus": 2039,
      "Ġgrlen": 2040,
      "haspixeldata": 2041,
      "sopinstanceuid": 2042,
      "sopclassuid": 2043,
      "seriesinstanceuid": 2044,
      "studyinstanceuid": 2045,
      "Ġhaspixeldata": 2046,
      "photometric": 2047,
      "pxdata": 2048,
      "interpretation": 2049,
      "rnema": 2050,
      "photometricinterpretation": 2051,
      "lot": 2052,
      "pri": 2053,
      "only": 2054,
      "getdcmhandler": 2055,
      "newdc": 2056,
      "newdataset": 2057,
      "Ġport": 2058,
      "setdcmhandler": 2059,
      "parsedcm": 2060,
      "getreadlength": 2061,
      "newdcmparser": 2062,
      "parsedcmfile": 2063,
      "coded": 2064,
      "Ġiis": 2065,
      "Ġ\\\"": 2066,
      "ool": 2067,
      "setdooutput": 2068,
      "getdcm": 2069,
      "Ġpixeldata": 2070,
      "byteorder": 2071,
      "cach": 2072,
      "Ġpdreader": 2073,
      "Ġpdwriter": 2074,
      "Ġpdfact": 2075,
      "Ġdcmencodeparam": 2076,
      "getdcmdecodeparam": 2077,
      "material": 2078,
      "Ġpack": 2079,
      "database": 2080,
      "Ġprintwriter": 2081,
      "send": 2082,
      "Ġalready": 2083,
      "Ġbut": 2084,
      "tact": 2085,
      "Ġ\"</": 2086,
      "Ġpage": 2087,
      "led": 2088,
      "Ġlogin": 2089,
      "fini": 2090,
      "########": 2091,
      "rentry": 2092,
      "Ġalgorithm": 2093,
      "55": 2094,
      "prefix": 2095,
      "8859": 2096,
      "disconnect": 2097,
      "Ġfout": 2098,
      "tivi": 2099,
      "more": 2100,
      "')": 2101,
      "nexttoken": 2102,
      "charset": 2103,
      "namevaluepair": 2104,
      "lib": 2105,
      "Ġ1024": 2106,
      "****": 2107,
      "settings": 2108,
      "finition": 2109,
      "cannot": 2110,
      "Ġsynchron": 2111,
      "settext": 2112,
      "Ġwor": 2113,
      "indexoutofboundsexception": 2114,
      "getresourceasstream": 2115,
      "Ġmon": 2116,
      "remote": 2117,
      "Ġtotread": 2118,
      "bundle": 2119,
      "setfile": 2120,
      "Ġbytebuffer": 2121,
      "backup": 2122,
      "fy": 2123,
      "nb": 2124,
      "ard": 2125,
      "tivity": 2126,
      "record": 2127,
      "sw": 2128,
      "Ġiterator": 2129,
      "resol": 2130,
      "Ġsearch": 2131,
      "cat": 2132,
      "servletcontext": 2133,
      "dent": 2134,
      "Ġoption": 2135,
      "stomer": 2136,
      "adap": 2137,
      "tokenizer": 2138,
      "ward": 2139,
      "Ġsourcefile": 2140,
      "bus": 2141,
      "Ġdoes": 2142,
      "ization": 2143,
      "ext": 2144,
      "Ġrep": 2145,
      "sing": 2146,
      "classpath": 2147,
      "ario": 2148,
      "elements": 2149,
      "ged": 2150,
      "Ġweb": 2151,
      "Ġ%": 2152,
      "Ġprogress": 2153,
      "Ġsynchronized": 2154,
      "diction": 2155,
      "provider": 2156,
      "unsupportedencodingexception": 2157,
      "boolean": 2158,
      "sv": 2159,
      "('.": 2160,
      "],": 2161,
      "Ġarg": 2162,
      "Ġbiginteger": 2163,
      "details": 2164,
      "Ġparameter": 2165,
      "matcher": 2166,
      "positor": 2167,
      "\\\",\\\"": 2168,
      "complete": 2169,
      "gram": 2170,
      "writing": 2171,
      "Ġtra": 2172,
      "ute": 2173,
      "Ġinfo": 2174,
      "locale": 2175,
      "tadata": 2176,
      "getentity": 2177,
      "Ġoutputfile": 2178,
      "container": 2179,
      "gno": 2180,
      "Ġcipher": 2181,
      "Ġusername": 2182,
      "jec": 2183,
      "dio": 2184,
      "exclude": 2185,
      "quo": 2186,
      "Ġspe": 2187,
      "Ġab": 2188,
      "iness": 2189,
      "bean": 2190,
      "Ġle": 2191,
      "Ġzipfile": 2192,
      "=?": 2193,
      "Ġwr": 2194,
      "person": 2195,
      "Ġsqlexception": 2196,
      "])": 2197,
      "sb": 2198,
      "Ġnosuchalgorithmexception": 2199,
      "pted": 2200,
      "Ġrow": 2201,
      "inf": 2202,
      "showmessage": 2203,
      "scriptor": 2204,
      "Ġbaos": 2205,
      "quence": 2206,
      "isde": 2207,
      "ear": 2208,
      "================": 2209,
      "fest": 2210,
      "chive": 2211,
      "genabled": 2212,
      "compare": 2213,
      "cnt": 2214,
      "gettime": 2215,
      "osition": 2216,
      "forward": 2217,
      "Ġ;": 2218,
      "Ġhashmap": 2219,
      "Ġ)": 2220,
      "Ġxpath": 2221,
      "(\"#": 2222,
      "dia": 2223,
      "Ġ12": 2224,
      "Ġini": 2225,
      "block": 2226,
      "brary": 2227,
      "ses": 2228,
      "product": 2229,
      "Ġpattern": 2230,
      "hasmore": 2231,
      "pository": 2232,
      "sort": 2233,
      "Ġcur": 2234,
      "fromfile": 2235,
      "Ġinsert": 2236,
      "getlogger": 2237,
      "gle": 2238,
      "panel": 2239,
      "Ġgener": 2240,
      "Ġbytearrayinputstream": 2241,
      "fc": 2242,
      "Ġ<<": 2243,
      "Ġzos": 2244,
      "Ġq": 2245,
      "top": 2246,
      "layout": 2247,
      "Ġhexstring": 2248,
      "bugenabled": 2249,
      "isdebugenabled": 2250,
      "fis": 2251,
      "Ġ[": 2252,
      "getresponsecode": 2253,
      "Ġorig": 2254,
      "wl": 2255,
      "getattribute": 2256,
      "color": 2257,
      ")),": 2258,
      "entic": 2259,
      "Ġman": 2260,
      "found": 2261,
      "Ġcache": 2262,
      "dicate": 2263,
      "Ġsax": 2264,
      "56": 2265,
      "Ġvalid": 2266,
      "security": 2267,
      "Ġmatcher": 2268,
      "obj": 2269,
      "skip": 2270,
      "Ġigno": 2271,
      "Ġurlencoder": 2272,
      "height": 2273,
      "gr": 2274,
      "ther": 2275,
      "device": 2276,
      "upd": 2277,
      "Ġdefaul": 2278,
      "author": 2279,
      "pn": 2280,
      "Ġinc": 2281,
      "4096": 2282,
      "setcontenttype": 2283,
      "short": 2284,
      "ain": 2285,
      "call": 2286,
      "invalid": 2287,
      "Ġpos": 2288,
      "peration": 2289,
      "position": 2290,
      "dyn": 2291,
      "reading": 2292,
      "lease": 2293,
      "button": 2294,
      "edit": 2295,
      "Ġbuilder": 2296,
      "Ġcu": 2297,
      "ys": 2298,
      "available": 2299,
      "classloader": 2300,
      "ifest": 2301,
      "Ġvar": 2302,
      "]));": 2303,
      "yy": 2304,
      "destino": 2305,
      "decode": 2306,
      "sourcefile": 2307,
      "gine": 2308,
      "down": 2309,
      "cript": 2310,
      "fields": 2311,
      "Ġtotal": 2312,
      "language": 2313,
      "ference": 2314,
      "=\\\"\"": 2315,
      "Ġiter": 2316,
      "Ġrd": 2317,
      "component": 2318,
      "Ġsettings": 2319,
      "Ġroot": 2320,
      "formation": 2321,
      "Ġmodel": 2322,
      "Ġcal": 2323,
      "Ġ\")": 2324,
      "tools": 2325,
      "business": 2326,
      "cure": 2327,
      "Ġap": 2328,
      "nbsp": 2329,
      "socket": 2330,
      "adapter": 2331,
      "cy": 2332,
      "results": 2333,
      "Ġnotice": 2334,
      "32": 2335,
      "layer": 2336,
      "conf": 2337,
      "36": 2338,
      "cal": 2339,
      "addform": 2340,
      "Ġgraph": 2341,
      "Ġhas": 2342,
      "Ġ--": 2343,
      "Ġcrea": 2344,
      "Ġus": 2345,
      "Ġda": 2346,
      "(\":": 2347,
      "andle": 2348,
      "fine": 2349,
      "(\"[": 2350,
      "Ġdestinationchannel": 2351,
      "messages": 2352,
      "showmessagedialog": 2353,
      "inputfile": 2354,
      "ask": 2355,
      "rup": 2356,
      "setheader": 2357,
      "Ġoc": 2358,
      "Ġobj": 2359,
      "helper": 2360,
      "here": 2361,
      "ib": 2362,
      "80": 2363,
      "setrequestmethod": 2364,
      "img": 2365,
      "flag": 2366,
      "mimetype": 2367,
      "Ġaddress": 2368,
      "return": 2369,
      "oogle": 2370,
      "Ġcall": 2371,
      "closeentry": 2372,
      "Ġmime": 2373,
      "counter": 2374,
      "Ġbo": 2375,
      "compareto": 2376,
      "zipentry": 2377,
      "cap": 2378,
      "Ġprob": 2379,
      "Ġpackage": 2380,
      "idx": 2381,
      "quan": 2382,
      "ints": 2383,
      "added": 2384,
      "Ġnodelist": 2385,
      "compile": 2386,
      "Ġregist": 2387,
      "definition": 2388,
      "lines": 2389,
      "newinstance": 2390,
      "Ġsele": 2391,
      "Ġsimple": 2392,
      "ctr": 2393,
      "Ġtemplate": 2394,
      "Ġhtml": 2395,
      "access": 2396,
      "Ġdatainputstream": 2397,
      ";</": 2398,
      "Ġfiel": 2399,
      "windo": 2400,
      "ode": 2401,
      "Ġwas": 2402,
      "Ġfirst": 2403,
      "Ġ\"_": 2404,
      "ster": 2405,
      "binary": 2406,
      "na": 2407,
      "Ġau": 2408,
      "direct": 2409,
      "Ġfolder": 2410,
      ":&": 2411,
      "lip": 2412,
      "Ġexecute": 2413,
      "parameters": 2414,
      "cimal": 2415,
      "Ġ++": 2416,
      "mit": 2417,
      "we": 2418,
      "Ġdefaulth": 2419,
      "Ġ6": 2420,
      "tx": 2421,
      "pentity": 2422,
      "mension": 2423,
      "Ġtofile": 2424,
      "lex": 2425,
      "Ġcharset": 2426,
      "simple": 2427,
      "Ġ\\\"\"": 2428,
      "arrayindexoutofboundsexception": 2429,
      "Ġconfiguration": 2430,
      "Ġremote": 2431,
      "pc": 2432,
      "Ġover": 2433,
      "Ġexpected": 2434,
      "umer": 2435,
      "Ġconnect": 2436,
      "Ġerr": 2437,
      "Ġsho": 2438,
      "Ġ-=": 2439,
      "Ġparse": 2440,
      "non": 2441,
      "font": 2442,
      "river": 2443,
      "tablename": 2444,
      "Ġurlstring": 2445,
      "phone": 2446,
      "dimage": 2447,
      "visi": 2448,
      "Ġext": 2449,
      "Ġdis": 2450,
      "200": 2451,
      "columns": 2452,
      "fos": 2453,
      "utilities": 2454,
      "encoder": 2455,
      "progressmonitor": 2456,
      "ai": 2457,
      "cer": 2458,
      "member": 2459,
      "organ": 2460,
      "rsrc": 2461,
      "dbc": 2462,
      "reg": 2463,
      "Ġclassname": 2464,
      "inte": 2465,
      "Ġinputsource": 2466,
      "cre": 2467,
      "ia": 2468,
      "right": 2469,
      "deleted": 2470,
      "++,": 2471,
      "Ġsend": 2472,
      "find": 2473,
      "Ġoptions": 2474,
      "calendar": 2475,
      "stateexception": 2476,
      "float": 2477,
      "wait": 2478,
      "pd": 2479,
      "ttpclient": 2480,
      "Ġborder": 2481,
      "ration": 2482,
      "cor": 2483,
      "mary": 2484,
      "Ġlocation": 2485,
      "hasmoreelements": 2486,
      "onical": 2487,
      "jsp": 2488,
      "Ġemail": 2489,
      "Ġclassloader": 2490,
      "Ġstringtokenizer": 2491,
      "writefile": 2492,
      "descriptor": 2493,
      "ubor": 2494,
      "mission": 2495,
      "linkswith": 2496,
      "Ġorg": 2497,
      "linkswithin": 2498,
      "eded": 2499,
      "Ġ\"',": 2500,
      "Ġasserttrue": 2501,
      "ldpath": 2502,
      "cas": 2503,
      "Ġrand": 2504,
      "itemcategoryid": 2505,
      "itemtypeid": 2506,
      "any": 2507,
      "mount": 2508,
      "init": 2509,
      "Ġbasic": 2510,
      "Ġprop": 2511,
      "Ġbis": 2512,
      "ments": 2513,
      "head": 2514,
      "Ġgetclass": 2515,
      "Ġ\":\"": 2516,
      "Ġdefaulthttpclient": 2517,
      "struction": 2518,
      "Ġ\"(": 2519,
      "Ġencrypt": 2520,
      ">\";": 2521,
      "Ġnext": 2522,
      "Ġattachment": 2523,
      "Ġne": 2524,
      "cursor": 2525,
      "filechooser": 2526,
      "Ġjob": 2527,
      "eve": 2528,
      "runtimeexception": 2529,
      "Ġdevice": 2530,
      "hi": 2531,
      "writ": 2532,
      "stor": 2533,
      "Ġpass": 2534,
      "Ġsum": 2535,
      "apro": 2536,
      "srcchannel": 2537,
      "etch": 2538,
      "Ġbook": 2539,
      "ant": 2540,
      "Ġarchive": 2541,
      "Ġcontenttype": 2542,
      "extension": 2543,
      "Ġnewfile": 2544,
      "Ġfz": 2545,
      "umeration": 2546,
      "look": 2547,
      "Ġinst": 2548,
      "nextelement": 2549,
      "fully": 2550,
      "tree": 2551,
      "cent": 2552,
      "iver": 2553,
      "Ġencode": 2554,
      "Ġxm": 2555,
      "listfiles": 2556,
      "ni": 2557,
      "Ġsrcfile": 2558,
      "Ġsalt": 2559,
      "ada": 2560,
      "entries": 2561,
      "Ġgui": 2562,
      "Ġfloat": 2563,
      "bytesread": 2564,
      "Ġmat": 2565,
      "()),": 2566,
      "Ġprefix": 2567,
      "17": 2568,
      "Ġbackup": 2569,
      "Ġmod": 2570,
      "Ġfind": 2571,
      "salt": 2572,
      "realm": 2573,
      "Ġplugin": 2574,
      "Ġhe": 2575,
      "concept": 2576,
      "Ġpsta": 2577,
      "Ġmonitor": 2578,
      "Ġ\"]": 2579,
      "vide": 2580,
      "illegal": 2581,
      "ctrum": 2582,
      "zipfile": 2583,
      "encry": 2584,
      "prop": 2585,
      "Ġproxy": 2586,
      "Ġperson": 2587,
      "modification": 2588,
      "metadata": 2589,
      "isempty": 2590,
      "email": 2591,
      "ished": 2592,
      "canwrite": 2593,
      "random": 2594,
      "pexception": 2595,
      "datasource": 2596,
      "fax": 2597,
      "props": 2598,
      "ked": 2599,
      "Ġ\"'\");": 2600,
      "ning": 2601,
      "Ġurlc": 2602,
      "Ġcolumn": 2603,
      "quote": 2604,
      "getheader": 2605,
      "pdf": 2606,
      "sequence": 2607,
      "chi": 2608,
      "images": 2609,
      "ero": 2610,
      "menu": 2611,
      "canonical": 2612,
      "roo": 2613,
      "terror": 2614,
      "signature": 2615,
      "arge": 2616,
      "geturl": 2617,
      "dimension": 2618,
      "protocol": 2619,
      "Ġ\"-": 2620,
      "activity": 2621,
      "Ġgroup": 2622,
      "ling": 2623,
      "Ġexists": 2624,
      "ecution": 2625,
      "mb": 2626,
      "getdefault": 2627,
      "Ġjavax": 2628,
      "655": 2629,
      "relation": 2630,
      "cel": 2631,
      "(_": 2632,
      "diff": 2633,
      "tencoding": 2634,
      "Ġra": 2635,
      "Ġtri": 2636,
      "urlstring": 2637,
      "Ġcontains": 2638,
      "Ġmar": 2639,
      "bufferedinputstream": 2640,
      "isp": 2641,
      "Ġsec": 2642,
      "plain": 2643,
      "Ġgetservletcontext": 2644,
      "fileformat": 2645,
      "ach": 2646,
      "png": 2647,
      "sist": 2648,
      "httpservletrequest": 2649,
      "rename": 2650,
      "written": 2651,
      "transaction": 2652,
      "mapping": 2653,
      "totread": 2654,
      "dentity": 2655,
      "Ġimport": 2656,
      "dateformat": 2657,
      "timestamp": 2658,
      "rt": 2659,
      "Ġwork": 2660,
      "Ġhtt": 2661,
      "dto": 2662,
      "ug": 2663,
      "65536": 2664,
      "Ġinstream": 2665,
      "__": 2666,
      "tificate": 2667,
      "Ġava": 2668,
      "keyst": 2669,
      "heet": 2670,
      "?,?,?,?,": 2671,
      "Ġfilenotfoundexception": 2672,
      "Ġinputfile": 2673,
      "ssing": 2674,
      "lume": 2675,
      "Ġfactory": 2676,
      "rome": 2677,
      "\")));": 2678,
      ".\";": 2679,
      "Ġdicom": 2680,
      "Ġextension": 2681,
      "Ġ>>>": 2682,
      "Ġhref": 2683,
      "----------------": 2684,
      "cul": 2685,
      "phra": 2686,
      "Ġillegalstateexception": 2687,
      "tect": 2688,
      "ids": 2689,
      "spec": 2690,
      "bufferedoutputstream": 2691,
      "Ġtargetfile": 2692,
      "working": 2693,
      "Ġcas": 2694,
      "rand": 2695,
      "track": 2696,
      "Ġmath": 2697,
      "classname": 2698,
      "Ġraw": 2699,
      "mpl": 2700,
      "gzip": 2701,
      "Ġup": 2702,
      "orary": 2703,
      "Ġreading": 2704,
      "Ġignore": 2705,
      "getmatrix": 2706,
      "Ġcollection": 2707,
      "gets": 2708,
      "Ġcl": 2709,
      "Ġthrown": 2710,
      "frames": 2711,
      "gete": 2712,
      "Ġdocumentbuilder": 2713,
      "ade": 2714,
      "Ġtask": 2715,
      "setcontent": 2716,
      "notnull": 2717,
      "(\"\\\\": 2718,
      "nown": 2719,
      "ctual": 2720,
      "proc": 2721,
      "igh": 2722,
      "Ġla": 2723,
      "Ġdat": 2724,
      "Ġreport": 2725,
      "library": 2726,
      "tokens": 2727,
      "dient": 2728,
      "window": 2729,
      "unction": 2730,
      "dential": 2731,
      "=?,": 2732,
      "cl": 2733,
      "tifier": 2734,
      "Ġattribute": 2735,
      "compress": 2736,
      "cmd": 2737,
      "ceive": 2738,
      "constra": 2739,
      "off": 2740,
      "movie": 2741,
      "emp": 2742,
      "()];": 2743,
      "Ġinflate": 2744,
      "types": 2745,
      "book": 2746,
      "Ġpredicate": 2747,
      "Ġmovie": 2748,
      "ismatch": 2749,
      "srcfile": 2750,
      "filetofile": 2751,
      "Ġstable": 2752,
      "tipo": 2753,
      "ned": 2754,
      "Ġcomponent": 2755,
      "Ġmatrix": 2756,
      "Ġtitle": 2757,
      "setlong": 2758,
      "pied": 2759,
      "ax": 2760,
      "mm": 2761,
      "Ġclasspath": 2762,
      "ging": 2763,
      "[])": 2764,
      "sty": 2765,
      "velbuild": 2766,
      "Ġstablebuild": 2767,
      "struct": 2768,
      "01": 2769,
      "rect": 2770,
      "Ġurls": 2771,
      "getrequestdispatcher": 2772,
      "Ġfilepath": 2773,
      "Ġtar": 2774,
      "del": 2775,
      "pl": 2776,
      "sper": 2777,
      "common": 2778,
      "Ġenumeration": 2779,
      "Ġ\"\"": 2780,
      "getstatusline": 2781,
      "stri": 2782,
      "Ġfail": 2783,
      "where": 2784,
      "sax": 2785,
      "(\"&": 2786,
      "tagname": 2787,
      "umb": 2788,
      "original": 2789,
      "Ġjsonobject": 2790,
      "convert": 2791,
      "las": 2792,
      "Ġcalendar": 2793,
      "Ġserv": 2794,
      "Ġinter": 2795,
      "sca": 2796,
      "contact": 2797,
      "tourl": 2798,
      "('.');": 2799,
      "lookup": 2800,
      "nm": 2801,
      "cn": 2802,
      "oin": 2803,
      "[],": 2804,
      "utility": 2805,
      "Ġdos": 2806,
      "ell": 2807,
      "getnextentry": 2808,
      "accept": 2809,
      "Ġall": 2810,
      "charat": 2811,
      "canread": 2812,
      "Ġhttpconn": 2813,
      "stoexclude": 2814,
      "pg": 2815,
      "Ġph": 2816,
      "metho": 2817,
      "Ġfont": 2818,
      "star": 2819,
      "rap": 2820,
      "Ġje": 2821,
      "Ġdescription": 2822,
      "dian": 2823,
      "vector": 2824,
      "words": 2825,
      "Ġscript": 2826,
      "lns": 2827,
      "Ġtransformer": 2828,
      "other": 2829,
      "48": 2830,
      "ragment": 2831,
      "customer": 2832,
      "dao": 2833,
      "Ġoffset": 2834,
      "outstream": 2835,
      "Ġsocket": 2836,
      "getcontenttype": 2837,
      "Ġjfilechooser": 2838,
      "ifi": 2839,
      "getwriter": 2840,
      "parsedouble": 2841,
      "rm": 2842,
      "domain": 2843,
      "inchannel": 2844,
      "Ġrequestdispatcher": 2845,
      "Ġparts": 2846,
      "rupte": 2847,
      "Ġicon": 2848,
      "andre": 2849,
      "setmatrix": 2850,
      "display": 2851,
      "Ġlan": 2852,
      "123": 2853,
      "setdoinput": 2854,
      "mg": 2855,
      "ital": 2856,
      "cifi": 2857,
      "decimal": 2858,
      "Ġform": 2859,
      "requiredtypegroup": 2860,
      "realpath": 2861,
      "endian": 2862,
      "chem": 2863,
      "Ġserial": 2864,
      "Ġjarfile": 2865,
      "volume": 2866,
      "Ġ\"\",": 2867,
      "Ġfield": 2868,
      "detect": 2869,
      "Ġmapped": 2870,
      "lien": 2871,
      "ori": 2872,
      "Ġgzipinputstream": 2873,
      "ededrsrc": 2874,
      "iv": 2875,
      "tify": 2876,
      "processor": 2877,
      "Ġbasicnamevaluepair": 2878,
      "Ġfw": 2879,
      "Ġscan": 2880,
      "Ġimageinputstream": 2881,
      "seriesuid": 2882,
      "studyuid": 2883,
      "getelement": 2884,
      "getfilename": 2885,
      "cr": 2886,
      "attr": 2887,
      "our": 2888,
      "Ġhttpservletrequest": 2889,
      "Ġ7": 2890,
      "mono": 2891,
      "little": 2892,
      "rer": 2893,
      "<?": 2894,
      "Ġpixel": 2895,
      "upper": 2896,
      "mod": 2897,
      "bad": 2898,
      "quantity": 2899,
      "plo": 2900,
      "repository": 2901,
      "keys": 2902,
      "resolver": 2903,
      "licit": 2904,
      "ved": 2905,
      "keystore": 2906,
      "left": 2907,
      "orted": 2908,
      "entication": 2909,
      "Ġmismatch": 2910,
      "letexception": 2911,
      "cip": 2912,
      "ship": 2913,
      "Ġfn": 2914,
      "Ġold": 2915,
      "Ġmodifi": 2916,
      "Ġfact": 2917,
      "getcanonical": 2918,
      "instuid": 2919,
      "Ġimageoutputstream": 2920,
      "uppercase": 2921,
      "lish": 2922,
      "exion": 2923,
      "Ġzout": 2924,
      "Ġctx": 2925,
      "ruptedexception": 2926,
      "Ġtempfile": 2927,
      "ag": 2928,
      "seten": 2929,
      "skipgrouplen": 2930,
      "Ġsite": 2931,
      "filechannel": 2932,
      "createimageinputstream": 2933,
      "Ġpw": 2934,
      "touppercase": 2935,
      "iis": 2936,
      "mobject": 2937,
      "numberofframes": 2938,
      "ivr": 2939,
      "lue": 2940,
      "Ġfe": 2941,
      "bar": 2942,
      "uni": 2943,
      "resultset": 2944,
      "fmi": 2945,
      "putcs": 2946,
      "chrome": 2947,
      "Ġpfact": 2948,
      "Ġencodeparam": 2949,
      "acrnema": 2950,
      "Ġclassuid": 2951,
      "getreadtag": 2952,
      "vrlittle": 2953,
      "implicit": 2954,
      "newfilemetainfo": 2955,
      "Ġacrnema": 2956,
      "setfilemetainfo": 2957,
      "Ġprobable": 2958,
      "detectfileformat": 2959,
      "monochrome": 2960,
      "vrlittleendian": 2961,
      "implicitvrlittleendian": 2962,
      "Ġdecode": 2963,
      "selection": 2964,
      "setstatus": 2965,
      "cense": 2966,
      "}\",": 2967,
      "hashbox": 2968,
      "getselected": 2969,
      "ffe": 2970,
      "nexpected": 2971,
      "Ġby": 2972,
      "messagedigest": 2973,
      "keyset": 2974,
      "Ġ\".\"": 2975,
      "capt": 2976,
      "gif": 2977,
      "Ġfileutils": 2978,
      "getpixeldata": 2979,
      "newreader": 2980,
      "newwriter": 2981,
      "readpixeldata": 2982,
      "writeheader": 2983,
      "writepixeldata": 2984,
      "writedataset": 2985,
      "Ġreadandre": 2986,
      "Ġdcmobject": 2987,
      "Ġdcmparserfactory": 2988,
      "marker": 2989,
      "createimageoutputstream": 2990,
      "Ġpixeldatareader": 2991,
      "Ġpixeldatawriter": 2992,
      "pdreader": 2993,
      "getpixeldataarray": 2994,
      "Ġreadandrewrite": 2995,
      "Ġdcmobjectfactory": 2996,
      "month": 2997,
      "getkey": 2998,
      "(\"\");": 2999,
      "lative": 3000,
      "coach": 3001,
      "jav": 3002,
      "deleteon": 3003,
      "viewer": 3004,
      "dictionary": 3005,
      "tmpfile": 3006,
      ">(": 3007,
      "dentifier": 3008,
      "cp": 3009,
      "Ġunsupportedencodingexception": 3010,
      "redirect": 3011,
      "audit": 3012,
      "Ġmatch": 3013,
      "Ġsqle": 3014,
      "lobal": 3015,
      "erro": 3016,
      "initial": 3017,
      "cke": 3018,
      "avail": 3019,
      "Ġencoder": 3020,
      "uario": 3021,
      "Ġservletexception": 3022,
      "role": 3023,
      "materialtype": 3024,
      "range": 3025,
      "gz": 3026,
      "tiv": 3027,
      "outchannel": 3028,
      "Ġ\"?": 3029,
      "year": 3030,
      "prod": 3031,
      "Ġdataoutputstream": 3032,
      "caches": 3033,
      "day": 3034,
      "om": 3035,
      "cover": 3036,
      "Ġ1000": 3037,
      "Ġframe": 3038,
      "Ġbooking": 3039,
      "Ġsalid": 3040,
      "dition": 3041,
      "nor": 3042,
      "Ġproperty": 3043,
      "Ġins": 3044,
      "active": 3045,
      "usecaches": 3046,
      "export": 3047,
      "ory": 3048,
      "99": 3049,
      "Ġutil": 3050,
      "tempdir": 3051,
      "methods": 3052,
      "old": 3053,
      "Ġstat": 3054,
      "asstring": 3055,
      "now": 3056,
      "\")))": 3057,
      "sd": 3058,
      "tool": 3059,
      "Ġscanner": 3060,
      "Ġostmt": 3061,
      "Ġprops": 3062,
      "copyfile": 3063,
      "ceived": 3064,
      "secure": 3065,
      "ence": 3066,
      "cc": 3067,
      "round": 3068,
      "getcontentlength": 3069,
      "api": 3070,
      "Ġcontents": 3071,
      "cbuf": 3072,
      "basedir": 3073,
      "ven": 3074,
      "Ġfromfile": 3075,
      "pool": 3076,
      "pub": 3077,
      "Ġprin": 3078,
      "Ġ100": 3079,
      "tologia": 3080,
      "tab": 3081,
      "Ġtmpfile": 3082,
      "(\"\\\"": 3083,
      "Ġnamevaluepair": 3084,
      "deleteonexit": 3085,
      "after": 3086,
      "targetfile": 3087,
      "datastore": 3088,
      "aving": 3089,
      "50": 3090,
      "Ġ(_": 3091,
      "align": 3092,
      "Ġbout": 3093,
      "Ġsen": 3094,
      "term": 3095,
      "Ġdbdyn": 3096,
      "seq": 3097,
      "city": 3098,
      "datastream": 3099,
      "cached": 3100,
      "]),": 3101,
      "Ġviewer": 3102,
      "14": 3103,
      "gre": 3104,
      "Ġsimpledateformat": 3105,
      "Ġshort": 3106,
      "Ġrows": 3107,
      "Ġrandom": 3108,
      "stop": 3109,
      "def": 3110,
      "des": 3111,
      "cao": 3112,
      "llow": 3113,
      "ns": 3114,
      "Ġren": 3115,
      "ched": 3116,
      "transformer": 3117,
      "Ġstm": 3118,
      "userid": 3119,
      "registry": 3120,
      "modu": 3121,
      "Ġcry": 3122,
      "conti": 3123,
      "mark": 3124,
      "Ġ[\"": 3125,
      "(\",": 3126,
      "controller": 3127,
      "Ġselected": 3128,
      "getrow": 3129,
      ">>": 3130,
      "streamreader": 3131,
      "Ġref": 3132,
      "Ġsuper": 3133,
      "Ġheight": 3134,
      "aby": 3135,
      "localhost": 3136,
      "extra": 3137,
      "mac": 3138,
      "used": 3139,
      "storage": 3140,
      "sby": 3141,
      "Ġgenerate": 3142,
      "unch": 3143,
      "Ġconf": 3144,
      "Ġrecord": 3145,
      "lt": 3146,
      "ords": 3147,
      "Ġdone": 3148,
      "errors": 3149,
      "conver": 3150,
      "13": 3151,
      "xm": 3152,
      "xsl": 3153,
      "serial": 3154,
      "reen": 3155,
      "Ġretri": 3156,
      "delement": 3157,
      "Ġchunk": 3158,
      "Ġbuildxml": 3159,
      "Ġfsep": 3160,
      "unity": 3161,
      "ill": 3162,
      "div": 3163,
      "Ġmeta": 3164,
      "spectrum": 3165,
      ")\";": 3166,
      "++++": 3167,
      "units": 3168,
      "Ġlin": 3169,
      "Ġisr": 3170,
      "lash": 3171,
      "Ġuc": 3172,
      "Ġseq": 3173,
      "dig": 3174,
      "Ġdeleted": 3175,
      "Ġresults": 3176,
      "Ġdisplay": 3177,
      "Ġfilter": 3178,
      "uffix": 3179,
      "Ġfilecopy": 3180,
      "locate": 3181,
      "cf": 3182,
      "Ġcer": 3183,
      "alle": 3184,
      "Ġhttpentity": 3185,
      "spro": 3186,
      "Ġentries": 3187,
      "seti": 3188,
      "containskey": 3189,
      "setting": 3190,
      "formate": 3191,
      "cut": 3192,
      "bytebuffer": 3193,
      "notice": 3194,
      "Ġsuccessfully": 3195,
      "Ġstmtdestino": 3196,
      "Ġreplace": 3197,
      "setusecaches": 3198,
      "enabled": 3199,
      "Ġschema": 3200,
      "retri": 3201,
      "Ġservlet": 3202,
      "import": 3203,
      "getreply": 3204,
      "Ġtree": 3205,
      "allen": 3206,
      "hello": 3207,
      "getstatuscode": 3208,
      "rada": 3209,
      "pwd": 3210,
      "19": 3211,
      "getclassloader": 3212,
      "blem": 3213,
      "Ġmodule": 3214,
      "https": 3215,
      "release": 3216,
      "getbusiness": 3217,
      "chier": 3218,
      "modificationdefinition": 3219,
      "Ġfull": 3220,
      "manifest": 3221,
      "charac": 3222,
      "(\":\");": 3223,
      "viron": 3224,
      "gt": 3225,
      "tpo": 3226,
      "decoder": 3227,
      "Ġdown": 3228,
      "allow": 3229,
      "Ġunit": 3230,
      "Ġoverwrite": 3231,
      "256": 3232,
      "basic": 3233,
      "Ġic": 3234,
      "getfirst": 3235,
      "Ġsign": 3236,
      "Ġdevelbuild": 3237,
      ";\");": 3238,
      "pk": 3239,
      "rating": 3240,
      "interface": 3241,
      "unknown": 3242,
      "google": 3243,
      "worker": 3244,
      "chunk": 3245,
      "arraycopy": 3246,
      "Ġlabel": 3247,
      "nextline": 3248,
      "arqui": 3249,
      "tate": 3250,
      "tedi": 3251,
      "(\"-": 3252,
      "Ġsv": 3253,
      "gethome": 3254,
      "Ġabort": 3255,
      "liente": 3256,
      "Ġ\\": 3257,
      "forname": 3258,
      "vironment": 3259,
      "camp": 3260,
      "cipher": 3261,
      "tology": 3262,
      "unexpected": 3263,
      "oc": 3264,
      "Ġcn": 3265,
      "inv": 3266,
      "resp": 3267,
      "ump": 3268,
      "Ġdiff": 3269,
      "Ġ$": 3270,
      "swing": 3271,
      "Ġcookie": 3272,
      "Ġtransfer": 3273,
      "getcode": 3274,
      "jectid": 3275,
      "capture": 3276,
      "Ġflag": 3277,
      "getelementsby": 3278,
      "preference": 3279,
      "Ġcmd": 3280,
      "nable": 3281,
      "syn": 3282,
      "httpservletresponse": 3283,
      "Ġfetch": 3284,
      "Ġmodified": 3285,
      "Ġ200": 3286,
      "Ġcontact": 3287,
      "Ġrea": 3288,
      "large": 3289,
      "performed": 3290,
      "desc": 3291,
      "Ġip": 3292,
      "Ġurlstr": 3293,
      "emap": 3294,
      "Ġpstm": 3295,
      "generator": 3296,
      "function": 3297,
      "symbol": 3298,
      "building": 3299,
      "Ġseat": 3300,
      "\")).": 3301,
      "stocapture": 3302,
      "stocapturelinkswithin": 3303,
      "getcon": 3304,
      "uuid": 3305,
      "Ġplain": 3306,
      "apa": 3307,
      "18": 3308,
      "]).": 3309,
      "getelementsbytagname": 3310,
      "02": 3311,
      "dd": 3312,
      "ient": 3313,
      "getcolumn": 3314,
      "setproperty": 3315,
      "resourceset": 3316,
      "points": 3317,
      "toarray": 3318,
      "Ġ\").": 3319,
      "='\"": 3320,
      "15": 3321,
      "xpath": 3322,
      "stats": 3323,
      "################": 3324,
      "Ġcustomer": 3325,
      "{\\\"": 3326,
      "pointe": 3327,
      "pointerexception": 3328,
      "instream": 3329,
      "tpath": 3330,
      "multi": 3331,
      "atal": 3332,
      "Ġproto": 3333,
      "internal": 3334,
      "getoption": 3335,
      "draw": 3336,
      "Ġnl": 3337,
      "Ġposition": 3338,
      "Ġchild": 3339,
      "getex": 3340,
      "okies": 3341,
      "constraint": 3342,
      "Ġsr": 3343,
      "asci": 3344,
      "Ġdom": 3345,
      "Ġactual": 3346,
      "Ġfromfilename": 3347,
      "Ġmin": 3348,
      "Ġarrays": 3349,
      "Ġlike": 3350,
      "Ġwidth": 3351,
      "Ġdestinationfile": 3352,
      "Ġmarker": 3353,
      "cado": 3354,
      "question": 3355,
      "indexset": 3356,
      "getnode": 3357,
      "actionevent": 3358,
      "Ġexport": 3359,
      "lementation": 3360,
      "Ġxmlns": 3361,
      "vend": 3362,
      "Ġjarentry": 3363,
      "ass": 3364,
      "Ġred": 3365,
      "Ġfs": 3366,
      "shell": 3367,
      "manage": 3368,
      "prin": 3369,
      "gettype": 3370,
      "Ġmember": 3371,
      "disposition": 3372,
      "organize": 3373,
      "feed": 3374,
      "dentials": 3375,
      "Ġbasedir": 3376,
      "Ġ('": 3377,
      "Ġimg": 3378,
      "Ġblock": 3379,
      "country": 3380,
      "ics": 3381,
      "runtime": 3382,
      "Ġextra": 3383,
      "Ġchange": 3384,
      "lasses": 3385,
      "ano": 3386,
      "register": 3387,
      "Ġcreated": 3388,
      "Ġauthor": 3389,
      "Ġdesc": 3390,
      "Ġlines": 3391,
      "itch": 3392,
      "parts": 3393,
      "iter": 3394,
      "mid": 3395,
      "Ġie": 3396,
      "Ġdriver": 3397,
      "Ġinstall": 3398,
      "reference": 3399,
      "region": 3400,
      "operation": 3401,
      "Ġ},": 3402,
      "illegalargumentexception": 3403,
      "Ġ20": 3404,
      "big": 3405,
      "getcurrent": 3406,
      "Ġmal": 3407,
      "scripts": 3408,
      "Ġgzipoutputstream": 3409,
      "allenge": 3410,
      "Ġfcin": 3411,
      "structor": 3412,
      "visible": 3413,
      "high": 3414,
      "namespace": 3415,
      "Ġinitial": 3416,
      "eredimage": 3417,
      "renameto": 3418,
      "Ġfilelist": 3419,
      "writeable": 3420,
      "transform": 3421,
      "Ġunwriteable": 3422,
      "},": 3423,
      "Ġloader": 3424,
      "getvariable": 3425,
      "matches": 3426,
      "dients": 3427,
      "abyfinal": 3428,
      "Ġruntime": 3429,
      "Ġmulti": 3430,
      "times": 3431,
      "Ġlo": 3432,
      "vision": 3433,
      "versioncheck": 3434,
      "baos": 3435,
      "Ġmanifest": 3436,
      "ample": 3437,
      "sm": 3438,
      "Ġcolor": 3439,
      "vals": 3440,
      "js": 3441,
      "Ġze": 3442,
      "(\"_": 3443,
      "urls": 3444,
      "flip": 3445,
      "uring": 3446,
      "phrase": 3447,
      "Ġlanguage": 3448,
      "filereader": 3449,
      "maining": 3450,
      "ome": 3451,
      "utdown": 3452,
      "php": 3453,
      "(\"%": 3454,
      "ati": 3455,
      "jdbc": 3456,
      "Ġjav": 3457,
      "addheader": 3458,
      "Ġss": 3459,
      "40": 3460,
      "Ġ9": 3461,
      "formance": 3462,
      "Ġalign": 3463,
      "account": 3464,
      ":</": 3465,
      "25": 3466,
      "sin": 3467,
      "wrap": 3468,
      "Ġword": 3469,
      "(((": 3470,
      "workingdirectory": 3471,
      "gethost": 3472,
      "offset": 3473,
      "leep": 3474,
      "separatorchar": 3475,
      "act": 3476,
      "Ġpi": 3477,
      "getvariablecontainer": 3478,
      "ditor": 3479,
      "atest": 3480,
      "isr": 3481,
      "nextlong": 3482,
      "combo": 3483,
      "ose": 3484,
      "getpassword": 3485,
      "Ġpk": 3486,
      "Ġsto": 3487,
      "Ġmp": 3488,
      "tran": 3489,
      "varname": 3490,
      "collection": 3491,
      "Ġhandle": 3492,
      "verse": 3493,
      "formatexception": 3494,
      "iss": 3495,
      "Ġnon": 3496,
      "atype": 3497,
      "Ġcre": 3498,
      "ugh": 3499,
      "Ġcould": 3500,
      "Ġhel": 3501,
      "Ġswt": 3502,
      "facet": 3503,
      "touri": 3504,
      "ascii": 3505,
      "=\");": 3506,
      "Ġchem": 3507,
      "Ġfilesize": 3508,
      "Ġfilenamedata": 3509,
      "fr": 3510,
      "seat": 3511,
      "Ġcalcul": 3512,
      "ding": 3513,
      "did": 3514,
      "ipient": 3515,
      "ported": 3516,
      "empty": 3517,
      "std": 3518,
      "modifiedtable": 3519,
      "Ġcamp": 3520,
      "Ġdocumentbuilderfactory": 3521,
      "Ġredlines": 3522,
      "Ġexp": 3523,
      "copying": 3524,
      "Ġfcout": 3525,
      "cell": 3526,
      "Ġcannot": 3527,
      "losing": 3528,
      "destinationfile": 3529,
      "('/": 3530,
      "Ġoriginal": 3531,
      "Ġesca": 3532,
      "Ġop": 3533,
      "sitive": 3534,
      "keep": 3535,
      "comment": 3536,
      "uboru": 3537,
      "style": 3538,
      "tpoints": 3539,
      "Ġdoesn": 3540,
      "Ġheaders": 3541,
      "Ġone": 3542,
      "created": 3543,
      "!\",": 3544,
      "sent": 3545,
      "Ġsc": 3546,
      "serve": 3547,
      "Ġur": 3548,
      "Ġdf": 3549,
      "[@": 3550,
      "blocksize": 3551,
      "ible": 3552,
      "allocate": 3553,
      "addr": 3554,
      "letion": 3555,
      "tile": 3556,
      "Ġinit": 3557,
      "instruction": 3558,
      "Ġbundle": 3559,
      "Ġ'/": 3560,
      "serviceimpl": 3561,
      "Ġ\"=\"": 3562,
      "mapmode": 3563,
      "Ġpri": 3564,
      "lick": 3565,
      "fili": 3566,
      "prediction": 3567,
      "Ġbytecount": 3568,
      "lat": 3569,
      "getlength": 3570,
      "Ġpdf": 3571,
      "exp": 3572,
      "Ġhttprequest": 3573,
      "Ġtile": 3574,
      "media": 3575,
      "getsimple": 3576,
      ")))": 3577,
      "finished": 3578,
      "},{\\\"": 3579,
      "Ġdoversioncheck": 3580,
      "interruptedexception": 3581,
      "tpa": 3582,
      "tw": 3583,
      "():": 3584,
      "dify": 3585,
      "://\"": 3586,
      "external": 3587,
      "tmpdir": 3588,
      "Ġencrypted": 3589,
      "stable": 3590,
      "registro": 3591,
      "classpathentry": 3592,
      "contig": 3593,
      "Ġreply": 3594,
      "Ġwhen": 3595,
      "shif": 3596,
      "permission": 3597,
      "Ġcanal": 3598,
      "Ġte": 3599,
      "Ġstra": 3600,
      "mapper": 3601,
      "Ġyou": 3602,
      "sae": 3603,
      "Ġnow": 3604,
      "Ġconverttohex": 3605,
      "jarfile": 3606,
      "audio": 3607,
      "ploy": 3608,
      "rinfo": 3609,
      "Ġzis": 3610,
      "fragment": 3611,
      "spath": 3612,
      "proces": 3613,
      "Ġbufferedimage": 3614,
      "\\\"><": 3615,
      "ify": 3616,
      "Ġobtain": 3617,
      "passwd": 3618,
      "rop": 3619,
      "Ġtag": 3620,
      "ias": 3621,
      "scale": 3622,
      "Ġhome": 3623,
      "setlastmodified": 3624,
      "aproject": 3625,
      "emode": 3626,
      "Ġpersist": 3627,
      "est": 3628,
      "nto": 3629,
      "rate": 3630,
      "train": 3631,
      "xf": 3632,
      "tpro": 3633,
      "mina": 3634,
      "tt": 3635,
      "getquery": 3636,
      "unds": 3637,
      "oai": 3638,
      "Ġtokens": 3639,
      "Ġcut": 3640,
      "ubble": 3641,
      "srcidx": 3642,
      "iversrcidx": 3643,
      "/>\\": 3644,
      "gi": 3645,
      "tpart": 3646,
      "70": 3647,
      "guid": 3648,
      "responsemodificationdefinition": 3649,
      "price": 3650,
      "setentity": 3651,
      "..\",": 3652,
      "ordinal": 3653,
      "warnings": 3654,
      "********": 3655,
      "owl": 3656,
      "Ġstop": 3657,
      "intvalue": 3658,
      "jsonobject": 3659,
      "_\"": 3660,
      "setvariable": 3661,
      "unic": 3662,
      "Ġresources": 3663,
      "css": 3664,
      "information": 3665,
      "applet": 3666,
      "Ġcm": 3667,
      "Ġcomplete": 3668,
      "composition": 3669,
      "Ġrunnable": 3670,
      "ightstreamreader": 3671,
      "Ġstraightstreamreader": 3672,
      ".\"": 3673,
      "rpc": 3674,
      "Ġsecret": 3675,
      "bile": 3676,
      "termin": 3677,
      "Ġencoded": 3678,
      "Ġamount": 3679,
      "ssl": 3680,
      "Ġ#": 3681,
      "()...\",": 3682,
      "sleep": 3683,
      "Ġreadcount": 3684,
      "bs": 3685,
      "Ġgoogle": 3686,
      ")\",": 3687,
      "Ġstore": 3688,
      "Ġdestdir": 3689,
      "Ġnetwork": 3690,
      "raction": 3691,
      "Ġhashset": 3692,
      "mem": 3693,
      "Ġmust": 3694,
      "Ġdaoexception": 3695,
      "ah": 3696,
      "lecu": 3697,
      "student": 3698,
      "jpg": 3699,
      "zz": 3700,
      "Ġmimetype": 3701,
      "newline": 3702,
      "Ġcd": 3703,
      "Ġgetconnection": 3704,
      "getimage": 3705,
      "Ġnumberof": 3706,
      "aly": 3707,
      "loading": 3708,
      "stringutils": 3709,
      "arraylist": 3710,
      "contents": 3711,
      "Ġparameters": 3712,
      "getheaderfield": 3713,
      "ynt": 3714,
      "Ġtemporary": 3715,
      "Ġpe": 3716,
      "options": 3717,
      "ait": 3718,
      "getsource": 3719,
      "engine": 3720,
      "Ġgd": 3721,
      "xp": 3722,
      "press": 3723,
      "cancel": 3724,
      "handle": 3725,
      "divide": 3726,
      "Ġsplit": 3727,
      "pto": 3728,
      "resh": 3729,
      "Ġhandler": 3730,
      "Ġgene": 3731,
      "aux": 3732,
      "Ġ\")\");": 3733,
      "strings": 3734,
      "missing": 3735,
      "Ġuserid": 3736,
      "hellowor": 3737,
      "bd": 3738,
      "segment": 3739,
      "Ġfr": 3740,
      "Ġdecoder": 3741,
      "perties": 3742,
      "jarentry": 3743,
      "ins": 3744,
      "Ġcommandline": 3745,
      "putation": 3746,
      "getrowdimension": 3747,
      "gb": 3748,
      "pression": 3749,
      "way": 3750,
      "Ġsaxparser": 3751,
      "Ġsk": 3752,
      "Ġ\"\\\"\");": 3753,
      "Ġvarname": 3754,
      "ubblesort": 3755,
      "wi": 3756,
      "Ġactionperformed": 3757,
      "atname": 3758,
      "ctive": 3759,
      "teration": 3760,
      "aowl": 3761,
      "Ġsalidaowl": 3762,
      "Ġfileto": 3763,
      "Ġdatasource": 3764,
      "begin": 3765,
      "setenabled": 3766,
      "Ġzipout": 3767,
      "docroot": 3768,
      "received": 3769,
      "[][]": 3770,
      "fullpath": 3771,
      "Ġescaped": 3772,
      "dl": 3773,
      "arr": 3774,
      "roles": 3775,
      "Ġinformation": 3776,
      "limit": 3777,
      "profile": 3778,
      "getlocal": 3779,
      "Ġjdbc": 3780,
      "ftpclient": 3781,
      "Ġavail": 3782,
      "Ġretrieve": 3783,
      "director": 3784,
      "Ġcopying": 3785,
      "connecttimeout": 3786,
      "dr": 3787,
      "mobile": 3788,
      "Ġaccess": 3789,
      "try": 3790,
      "ume": 3791,
      "ffect": 3792,
      "datafile": 3793,
      "creator": 3794,
      "nature": 3795,
      "neededrsrc": 3796,
      "Ġtargetchannel": 3797,
      "ud": 3798,
      "()\");": 3799,
      "cho": 3800,
      "connector": 3801,
      "currentthread": 3802,
      "(\"/\"))": 3803,
      "getcanonicalpath": 3804,
      "Ġrel": 3805,
      "notation": 3806,
      "cheme": 3807,
      "readable": 3808,
      "getdate": 3809,
      "Ġdel": 3810,
      "ationexception": 3811,
      "ressed": 3812,
      "pie": 3813,
      "Ġ//": 3814,
      "destdir": 3815,
      "Ġconver": 3816,
      "lecule": 3817,
      "ish": 3818,
      "Ġdestchannel": 3819,
      "Ġerrors": 3820,
      "company": 3821,
      "Ġmake": 3822,
      "launch": 3823,
      "Ġjframe": 3824,
      "threads": 3825,
      "Ġshow": 3826,
      "character": 3827,
      "codec": 3828,
      "ffff": 3829,
      "hashmap": 3830,
      "Ġguiutilities": 3831,
      "driver": 3832,
      "mock": 3833,
      "gps": 3834,
      "Ġswitch": 3835,
      "getuser": 3836,
      "Ġsuch": 3837,
      "readobject": 3838,
      "ulo": 3839,
      "Ġtransaction": 3840,
      "Ġapplication": 3841,
      "Ġhave": 3842,
      "gc": 3843,
      "Ġrollback": 3844,
      "geterror": 3845,
      "vt": 3846,
      "lem": 3847,
      "Ġistream": 3848,
      "peg": 3849,
      "zone": 3850,
      "stemp": 3851,
      "module": 3852,
      "digit": 3853,
      "make": 3854,
      "Ġenv": 3855,
      "Ġchanged": 3856,
      "getchild": 3857,
      "Ġloc": 3858,
      "stm": 3859,
      "1000": 3860,
      "Ġrepository": 3861,
      "simpl": 3862,
      "cumen": 3863,
      "Ġcor": 3864,
      "Ġbody": 3865,
      "Ġcore": 3866,
      "sel": 3867,
      "(\"{": 3868,
      "Ġfilelength": 3869,
      "sschema": 3870,
      "cture": 3871,
      "tivator": 3872,
      "dobject": 3873,
      "stract": 3874,
      "area": 3875,
      "reputation": 3876,
      "Ġnsae": 3877,
      "Ġkeystore": 3878,
      "thumb": 3879,
      "support": 3880,
      "Ġworking": 3881,
      "Ġcertificate": 3882,
      "rdf": 3883,
      "ados": 3884,
      "getp": 3885,
      "Ġstar": 3886,
      "apache": 3887,
      "Ġdes": 3888,
      "vio": 3889,
      "elementat": 3890,
      "Ġcity": 3891,
      "lipse": 3892,
      "Ġbinary": 3893,
      "detail": 3894,
      "Ġare": 3895,
      "Ġyour": 3896,
      "tification": 3897,
      "Ġquerystring": 3898,
      "ban": 3899,
      "Ġlocale": 3900,
      "race": 3901,
      "vocation": 3902,
      "Ġoffer": 3903,
      "shift": 3904,
      "ssdf": 3905,
      "setvalue": 3906,
      "mpar": 3907,
      "plaintext": 3908,
      "httpclient": 3909,
      "rement": 3910,
      "ric": 3911,
      "verage": 3912,
      "Ġentryname": 3913,
      "Ġassertnotnull": 3914,
      "Ġtablename": 3915,
      "Ġdecodefiletofile": 3916,
      "Ġnamevaluepairs": 3917,
      "reet": 3918,
      "Ġ\",\"": 3919,
      ".*": 3920,
      "logging": 3921,
      "problem": 3922,
      "Ġdialog": 3923,
      "Ġunzip": 3924,
      "<?>": 3925,
      "Ġmodify": 3926,
      "instr": 3927,
      "Ġresol": 3928,
      "crypt": 3929,
      "30": 3930,
      "Ġprovider": 3931,
      "Ġnewlink": 3932,
      "2001": 3933,
      "rel": 3934,
      "remaining": 3935,
      "execution": 3936,
      "Ġresponsecode": 3937,
      "changed": 3938,
      "Ġlinked": 3939,
      "Ġarti": 3940,
      "targetdirectory": 3941,
      "yntax": 3942,
      "Ġempty": 3943,
      "Ġontologia": 3944,
      "certificate": 3945,
      "Ġstarttime": 3946,
      "Ġorder": 3947,
      "Ġformatter": 3948,
      "codemp": 3949,
      "chetype": 3950,
      "cause": 3951,
      "ioutils": 3952,
      "route": 3953,
      "ground": 3954,
      "relative": 3955,
      "bum": 3956,
      "retrieve": 3957,
      "identity": 3958,
      "Ġutils": 3959,
      "filial": 3960,
      "Ġgps": 3961,
      "Ġfilecopyexception": 3962,
      "setname": 3963,
      "Ġcached": 3964,
      "Ġcbuf": 3965,
      "Ġnews": 3966,
      "attributeinfo": 3967,
      "nonce": 3968,
      "cd": 3969,
      "Ġcp": 3970,
      "Ġoutc": 3971,
      "jedit": 3972,
      "cast": 3973,
      "Ġ\"-\"": 3974,
      "licy": 3975,
      "resourcename": 3976,
      "newdocument": 3977,
      "Ġbutton": 3978,
      "getsession": 3979,
      "Ġplaintext": 3980,
      "Ġwill": 3981,
      "Ġsegment": 3982,
      "Ġsubprogressmonitor": 3983,
      "Ġmessages": 3984,
      "summary": 3985,
      "tes": 3986,
      "confi": 3987,
      ":\\\\": 3988,
      "Ġnames": 3989,
      "Ġusuario": 3990,
      "\\\"/>\\": 3991,
      "buildingtime": 3992,
      "links": 3993,
      "Ġri": 3994,
      "Ġtxt": 3995,
      "ï¿½ï¿½ï¿½": 3996,
      "Ġbubblesort": 3997,
      "archiveentry": 3998,
      ":/": 3999,
      "limi": 4000,
      "urlstr": 4001,
      "appendchild": 4002,
      "spital": 4003,
      "mercado": 4004,
      "Ġrequi": 4005,
      "Ġmapp": 4006,
      "Ġanother": 4007,
      "fic": 4008,
      "cons": 4009,
      "zer": 4010,
      "attributes": 4011,
      "pipe": 4012,
      "directive": 4013,
      "checkout": 4014,
      "getoutput": 4015,
      "kit": 4016,
      "getmethod": 4017,
      "Ġregistro": 4018,
      "dtos": 4019,
      "Ġssl": 4020,
      "amount": 4021,
      "cond": 4022,
      "cand": 4023,
      "rator": 4024,
      "streamwriter": 4025,
      "copied": 4026,
      "Ġcusto": 4027,
      "filefilter": 4028,
      "Ġarr": 4029,
      "Ġidx": 4030,
      "jax": 4031,
      "install": 4032,
      "Ġcreating": 4033,
      "concat": 4034,
      "Ġlda": 4035,
      "completion": 4036,
      "Ġcounter": 4037,
      "Ġtimestamp": 4038,
      "getoptionvalue": 4039,
      "Ġtypes": 4040,
      "secret": 4041,
      "getsystem": 4042,
      "copylarge": 4043,
      "edfile": 4044,
      "Ġdbconn": 4045,
      "getpropertyvalue": 4046,
      "sys": 4047,
      "getcontext": 4048,
      "setmessage": 4049,
      "Ġlibrary": 4050,
      "yes": 4051,
      "setup": 4052,
      "Ġrset": 4053,
      ",\"": 4054,
      "Ġmas": 4055,
      "ucer": 4056,
      "completepath": 4057,
      "origen": 4058,
      "setvisible": 4059,
      "Ġaf": 4060,
      "Ġgive": 4061,
      "tas": 4062,
      "baseurl": 4063,
      "services": 4064,
      "Ġrender": 4065,
      "aw": 4066,
      "vod": 4067,
      "Ġstu": 4068,
      "board": 4069,
      "Ġavailable": 4070,
      "getselectedfile": 4071,
      "dt": 4072,
      "ow": 4073,
      "setdate": 4074,
      "tob": 4075,
      "Ġcopied": 4076,
      "answ": 4077,
      "ast": 4078,
      "exec": 4079,
      "encrypt": 4080,
      "ontology": 4081,
      "Ġenc": 4082,
      "posal": 4083,
      "Ġspecifi": 4084,
      "setconnecttimeout": 4085,
      "toprocess": 4086,
      "hor": 4087,
      "Ġsing": 4088,
      "29": 4089,
      "Ġjb": 4090,
      "Ġcr": 4091,
      "writeobject": 4092,
      "processing": 4093,
      "Ġtab": 4094,
      "islo": 4095,
      "isset": 4096,
      "(\"/\")": 4097,
      "directives": 4098,
      "Ġencodefiletofile": 4099,
      "alignment": 4100,
      "lr": 4101,
      "feature": 4102,
      "none": 4103,
      "limina": 4104,
      "dbdyn": 4105,
      "getcolumndimension": 4106,
      "Ġ=\");": 4107,
      "Ġprep": 4108,
      "transp": 4109,
      "21": 4110,
      "ations": 4111,
      "ind": 4112,
      "Ġrc": 4113,
      "prefilter": 4114,
      "elementtext": 4115,
      "Ġany": 4116,
      "sethome": 4117,
      "lotdata": 4118,
      "stoexcludecomplete": 4119,
      "stoexcludelinkswithin": 4120,
      "'\"": 4121,
      "zbin": 4122,
      "Ġbit": 4123,
      "Ġinstruction": 4124,
      "Ġmaster": 4125,
      "bution": 4126,
      "generate": 4127,
      "car": 4128,
      "oom": 4129,
      "recipe": 4130,
      "Ġmalformedurlexception": 4131,
      "metrics": 4132,
      "couldn": 4133,
      "center": 4134,
      "fri": 4135,
      "Ġyear": 4136,
      "Ġsignature": 4137,
      "Ġmapping": 4138,
      "bose": 4139,
      "Ġ32": 4140,
      "ga": 4141,
      "getruntime": 4142,
      "nodes": 4143,
      "Ġsupported": 4144,
      "Ġldapexception": 4145,
      "getpropertyvalueasstring": 4146,
      "Ġ->": 4147,
      "=\\\"\");": 4148,
      "Ġcompress": 4149,
      "Ġconstan": 4150,
      "till": 4151,
      "getde": 4152,
      "gui": 4153,
      "authentication": 4154,
      "fatal": 4155,
      "Ġcommon": 4156,
      "primary": 4157,
      "Ġapi": 4158,
      "bounds": 4159,
      "connected": 4160,
      "ispo": 4161,
      "getlastmodified": 4162,
      "pedfile": 4163,
      "correct": 4164,
      "Ġdot": 4165,
      "Ġsources": 4166,
      "getdata": 4167,
      "outil": 4168,
      "offer": 4169,
      "temporary": 4170,
      "Ġtempdir": 4171,
      "Ġgram": 4172,
      "Ġshould": 4173,
      "gic": 4174,
      "Ġreadlen": 4175,
      "damage": 4176,
      "coes": 4177,
      "souboru": 4178,
      "perjob": 4179,
      "getresources": 4180,
      "requiredtypename": 4181,
      "requiredtypeid": 4182,
      "requiredtypecategoryid": 4183,
      "requiredtypevolume": 4184,
      "creating": 4185,
      "activityname": 4186,
      "activityid": 4187,
      "requiredtypegroupname": 4188,
      "requiredtypegroupid": 4189,
      "damageperjob": 4190,
      "follow": 4191,
      "valu": 4192,
      "httppost": 4193,
      "render": 4194,
      "Ġremove": 4195,
      "xmlschema": 4196,
      "ymbols": 4197,
      "unique": 4198,
      "]/": 4199,
      "senderror": 4200,
      "personal": 4201,
      "cipal": 4202,
      "free": 4203,
      "soft": 4204,
      "Ġ\"/\");": 4205,
      "Ġcate": 4206,
      "amento": 4207,
      "Ġappend": 4208,
      "Ġtint": 4209,
      "Ġinvalid": 4210,
      "dido": 4211,
      "getsimpleelementtext": 4212,
      "(-": 4213,
      "ian": 4214,
      "Ġexten": 4215,
      "outputdir": 4216,
      "lank": 4217,
      "Ġpermission": 4218,
      "play": 4219,
      "classnotfoundexception": 4220,
      "texta": 4221,
      "2048": 4222,
      "Ġ}));": 4223,
      "Ġthat": 4224,
      "enter": 4225,
      "userreputation": 4226,
      "mig": 4227,
      "za": 4228,
      "suppress": 4229,
      "csv": 4230,
      "Ġusing": 4231,
      "suppresswarnings": 4232,
      "getv": 4233,
      "nome": 4234,
      "Ġpanel": 4235,
      "Ġbuildexception": 4236,
      "arti": 4237,
      "move": 4238,
      "ol": 4239,
      "cookies": 4240,
      "logout": 4241,
      "groups": 4242,
      "administ": 4243,
      "sources": 4244,
      "Ġrange": 4245,
      "protoco": 4246,
      "bigdecimal": 4247,
      "Ġgrammar": 4248,
      "license": 4249,
      "ldap": 4250,
      "pect": 4251,
      "Ġdomain": 4252,
      "predicate": 4253,
      "Ġxsi": 4254,
      "constant": 4255,
      "href": 4256,
      "getroot": 4257,
      "ssible": 4258,
      "yste": 4259,
      "finalstate": 4260,
      "Ġmissing": 4261,
      "dist": 4262,
      "ditem": 4263,
      "imum": 4264,
      "xsi": 4265,
      "Ġattach": 4266,
      "Ġcla": 4267,
      "exist": 4268,
      "siden": 4269,
      "Ġclassnotfoundexception": 4270,
      "initpoints": 4271,
      "ful": 4272,
      "Ġtop": 4273,
      "Ġproc": 4274,
      "campo": 4275,
      "ice": 4276,
      "andtablename": 4277,
      "sschemaandtablename": 4278,
      "game": 4279,
      "stype": 4280,
      "Ġquote": 4281,
      "section": 4282,
      "mouse": 4283,
      "***": 4284,
      "getreplycode": 4285,
      "blue": 4286,
      "Ġqual": 4287,
      "preferences": 4288,
      "oid": 4289,
      "Ġjoin": 4290,
      "verbose": 4291,
      "redirects": 4292,
      "dot": 4293,
      "vis": 4294,
      "igno": 4295,
      "umni": 4296,
      "specifi": 4297,
      "requiredtypeicon": 4298,
      "Ġentrada": 4299,
      "Ġtrain": 4300,
      "Ġaudio": 4301,
      "availupd": 4302,
      "Ġprotocol": 4303,
      "classes": 4304,
      "notify": 4305,
      "Ġtokenizer": 4306,
      "organization": 4307,
      "fro": 4308,
      "Ġinstallclass": 4309,
      "tentencoding": 4310,
      "preparedstatement": 4311,
      "ich": 4312,
      "readtimeout": 4313,
      "entryset": 4314,
      "resolve": 4315,
      "teditpart": 4316,
      "getsize": 4317,
      "aller": 4318,
      "pel": 4319,
      "....": 4320,
      "Ġbean": 4321,
      "chars": 4322,
      "Ġchildren": 4323,
      "medi": 4324,
      "Ġtoo": 4325,
      "Ġuploaded": 4326,
      "getfirstchild": 4327,
      "slot": 4328,
      "ross": 4329,
      "Ġjarname": 4330,
      "ility": 4331,
      "fetch": 4332,
      "Ġconnector": 4333,
      "maccess": 4334,
      "23": 4335,
      "hb": 4336,
      "decomposition": 4337,
      "Ġpwd": 4338,
      "Ġselect": 4339,
      "ki": 4340,
      "Ġpipe": 4341,
      "Ġgetmethod": 4342,
      "Ġsecure": 4343,
      "firstname": 4344,
      "asse": 4345,
      "Ġapplet": 4346,
      "\\\"},{\\\"": 4347,
      "cla": 4348,
      "jo": 4349,
      "domaccess": 4350,
      "Ġblue": 4351,
      "Ġconformance": 4352,
      "Ġwindo": 4353,
      "opcode": 4354,
      "bank": 4355,
      "compressed": 4356,
      "ftpreply": 4357,
      "ispositive": 4358,
      "cion": 4359,
      "mgr": 4360,
      "setbusiness": 4361,
      "updated": 4362,
      "numbers": 4363,
      "refresh": 4364,
      "byname": 4365,
      "Ġretval": 4366,
      "cured": 4367,
      "eclipse": 4368,
      "Ġpredicatemi": 4369,
      "Ġcsv": 4370,
      "Ġhashtable": 4371,
      "dep": 4372,
      "Ġ'%": 4373,
      "actionlistener": 4374,
      "tn": 4375,
      "Ġfilesystem": 4376,
      "soption": 4377,
      "messa": 4378,
      "Ġ(!(": 4379,
      "hide": 4380,
      "molecule": 4381,
      "Ġgetmd": 4382,
      "voke": 4383,
      "Ġsecretkey": 4384,
      "ispositivecompletion": 4385,
      "rotate": 4386,
      "Ġchallenge": 4387,
      "Ġobjectoutputstream": 4388,
      "setfiletype": 4389,
      "exionbd": 4390,
      "policy": 4391,
      "Ġoccured": 4392,
      "addedtable": 4393,
      "deletedtable": 4394,
      "Ġmappedbytebuffer": 4395,
      "fn": 4396,
      "Ġfichier": 4397,
      "Ġlicense": 4398,
      "Ġadded": 4399,
      "variables": 4400,
      "stal": 4401,
      "teri": 4402,
      "timer": 4403,
      "(\"\")": 4404,
      "foaf": 4405,
      "Ġxsl": 4406,
      "Ġmetadata": 4407,
      "gne": 4408,
      "maps": 4409,
      "hasoption": 4410,
      "Ġks": 4411,
      "setid": 4412,
      "(\"\",": 4413,
      "ann": 4414,
      "Ġok": 4415,
      "functions": 4416,
      "Ġstudent": 4417,
      ":\");": 4418,
      "Ġplease": 4419,
      "eno": 4420,
      "Ġstatuscode": 4421,
      "=\"))": 4422,
      "getprotocol": 4423,
      "rinputstream": 4424,
      "Ġsuffix": 4425,
      "sets": 4426,
      "Ġlatest": 4427,
      "Ġxfile": 4428,
      "Ġdbconnection": 4429,
      "Ġpostmethod": 4430,
      "gettest": 4431,
      "Ġmid": 4432,
      "Ġprintln": 4433,
      "Ġnb": 4434,
      "writable": 4435,
      "vies": 4436,
      "Ġobjectinputstream": 4437,
      "piso": 4438,
      "nmr": 4439,
      "cliente": 4440,
      "sure": 4441,
      "slash": 4442,
      "================================": 4443,
      "getemail": 4444,
      "Ġrequired": 4445,
      "torexception": 4446,
      "Ġthumb": 4447,
      "Ġextract": 4448,
      "tet": 4449,
      "ahoo": 4450,
      "Ġextends": 4451,
      "pager": 4452,
      "analy": 4453,
      "printf": 4454,
      "waitcursor": 4455,
      "Ġcrypt": 4456,
      "nate": 4457,
      "urlconn": 4458,
      "getlocation": 4459,
      "ula": 4460,
      "queue": 4461,
      "prestat": 4462,
      "Ġsetpreparestatement": 4463,
      "configurationexception": 4464,
      "gettextcontent": 4465,
      "nte": 4466,
      "fileserver": 4467,
      "Ġwar": 4468,
      "persist": 4469,
      "Ġvari": 4470,
      "Ġaccount": 4471,
      "getnext": 4472,
      "Ġlinesep": 4473,
      "Ġ\"]\");": 4474,
      "rowser": 4475,
      "Ġimageicon": 4476,
      "Ġreg": 4477,
      "Ġhuc": 4478,
      "Ġdebugfile": 4479,
      "aa": 4480,
      "public": 4481,
      "ferred": 4482,
      "faxtools": 4483,
      "Ġmatchevent": 4484,
      "fla": 4485,
      "getserver": 4486,
      "Ġjbutton": 4487,
      "xmldocument": 4488,
      "authorization": 4489,
      "fm": 4490,
      "giversrcidx": 4491,
      "notification": 4492,
      "simp": 4493,
      "Ġwe": 4494,
      "foo": 4495,
      "Ġag": 4496,
      "stored": 4497,
      "Ġobtainuserreputation": 4498,
      "Ġcri": 4499,
      "community": 4500,
      "(\"/\");": 4501,
      "spo": 4502,
      "Ġimagename": 4503,
      "Ġentityutils": 4504,
      "nmrshift": 4505,
      "!!": 4506,
      "amp": 4507,
      "Ġmer": 4508,
      "sfile": 4509,
      "Ġidentity": 4510,
      "shutdown": 4511,
      "minus": 4512,
      "vars": 4513,
      "fileto": 4514,
      "chr": 4515,
      "Ġsequence": 4516,
      "rootdir": 4517,
      "ving": 4518,
      "Ġingre": 4519,
      "\\\">\\": 4520,
      "checksum": 4521,
      "Ġurlencoded": 4522,
      "textarea": 4523,
      "ange": 4524,
      "doarqui": 4525,
      "scan": 4526,
      "/*": 4527,
      "join": 4528,
      "Ġpub": 4529,
      "Ġstringreader": 4530,
      "cls": 4531,
      "tit": 4532,
      "Ġsty": 4533,
      "Ġjcr": 4534,
      "hy": 4535,
      "Ġmonth": 4536,
      "rb": 4537,
      "Ġcos": 4538,
      "cial": 4539,
      "192": 4540,
      "Ġnewzbin": 4541,
      "settime": 4542,
      "Ġstd": 4543,
      "Ġbeen": 4544,
      "Ġfiletype": 4545,
      "mpro": 4546,
      "ioe": 4547,
      "encrypted": 4548,
      "followredirects": 4549,
      "ystemexception": 4550,
      "60": 4551,
      "addrequest": 4552,
      "Ġinet": 4553,
      "doption": 4554,
      "hour": 4555,
      "Ġunreadable": 4556,
      "getplugin": 4557,
      "ora": 4558,
      "prote": 4559,
      "invtype": 4560,
      "Ġchemical": 4561,
      "22": 4562,
      "into": 4563,
      "Ġxmlstreamwriter": 4564,
      "domutil": 4565,
      "Ġexample": 4566,
      "Ġhttpmethod": 4567,
      "rency": 4568,
      "]\",": 4569,
      "disc": 4570,
      "appserviceimpl": 4571,
      "checked": 4572,
      "Ġmethods": 4573,
      "(\"(": 4574,
      "sole": 4575,
      "Ġoccur": 4576,
      "peer": 4577,
      "nmrshiftdb": 4578,
      "locity": 4579,
      "nullpointerexception": 4580,
      "incorrect": 4581,
      "team": 4582,
      "Ġfname": 4583,
      "Ġvalidate": 4584,
      "ams": 4585,
      "Ġarrayindexoutofboundsexception": 4586,
      "speed": 4587,
      "Ġadap": 4588,
      "lef": 4589,
      "getjsonobject": 4590,
      "Ġoutbuf": 4591,
      "addoption": 4592,
      "ctx": 4593,
      "hosts": 4594,
      "blank": 4595,
      "cm": 4596,
      "xsd": 4597,
      "newpath": 4598,
      "Ġzipin": 4599,
      "Ġresourcename": 4600,
      "sidency": 4601,
      "give": 4602,
      "Ġprogram": 4603,
      "bos": 4604,
      "Ġ\"{": 4605,
      "annotation": 4606,
      "codi": 4607,
      "asa": 4608,
      "exc": 4609,
      "Ġbigdecimal": 4610,
      "structure": 4611,
      "externalform": 4612,
      "news": 4613,
      "Ġconstruct": 4614,
      "Ġtofilename": 4615,
      "users": 4616,
      "uctivity": 4617,
      "Ġavailupd": 4618,
      "getparams": 4619,
      "Ġhr": 4620,
      "oose": 4621,
      "getcontextclassloader": 4622,
      "Ġdbo": 4623,
      "atable": 4624,
      "Ġtohex": 4625,
      "Ġtrack": 4626,
      "video": 4627,
      "Ġmatcheventfactory": 4628,
      "Ġsoubor": 4629,
      "geten": 4630,
      "getconfig": 4631,
      "factor": 4632,
      "Ġrdf": 4633,
      "holder": 4634,
      "htt": 4635,
      "limiter": 4636,
      "lerror": 4637,
      "Ġpoint": 4638,
      "bn": 4639,
      "click": 4640,
      "toexternalform": 4641,
      "Ġfido": 4642,
      "htm": 4643,
      "Ġdistri": 4644,
      "mysql": 4645,
      "Ġignored": 4646,
      "Ġlinkedlist": 4647,
      "Ġij": 4648,
      "getx": 4649,
      "luc": 4650,
      "items": 4651,
      "Ġsecurity": 4652,
      "Ġserializer": 4653,
      "(\"***": 4654,
      "Ġstringutils": 4655,
      "Ġindexcounter": 4656,
      "Ġ\"_\"": 4657,
      "rossref": 4658,
      "blob": 4659,
      "dav": 4660,
      "pedido": 4661,
      "ather": 4662,
      "('\\": 4663,
      "editor": 4664,
      "reverse": 4665,
      "sso": 4666,
      "savepoint": 4667,
      "ude": 4668,
      "Ġfich": 4669,
      "Ġiso": 4670,
      "light": 4671,
      "lastname": 4672,
      "searcher": 4673,
      "Ġsearcher": 4674,
      "uk": 4675,
      "memory": 4676,
      "addparameter": 4677,
      "Ġmanager": 4678,
      "smart": 4679,
      "Ġfileout": 4680,
      "toread": 4681,
      "aitcursor": 4682,
      "domaccessfile": 4683,
      "lope": 4684,
      "Ġ</": 4685,
      "imagefile": 4686,
      "tpassword": 4687,
      "protocolexception": 4688,
      "Ġï¿½ï¿½ï¿½ï¿½": 4689,
      "Ġprintstream": 4690,
      "mailsetting": 4691,
      "/\");": 4692,
      "rule": 4693,
      "icalviewer": 4694,
      "addactionlistener": 4695,
      "hospital": 4696,
      "Ġafter": 4697,
      "zos": 4698,
      "getrealpath": 4699,
      "ular": 4700,
      "ventry": 4701,
      "vious": 4702,
      "Ġconstants": 4703,
      "tie": 4704,
      "()[": 4705,
      "ando": 4706,
      "imagen": 4707,
      "filesize": 4708,
      "Ġ\"\"));": 4709,
      "ingre": 4710,
      "cos": 4711,
      "...\",": 4712,
      "combobox": 4713,
      "bot": 4714,
      "Ġsof": 4715,
      "responsecode": 4716,
      "Ġsaxexception": 4717,
      "Ġattributes": 4718,
      "trust": 4719,
      "Ġspecified": 4720,
      "bid": 4721,
      "lsa": 4722,
      "Ġexecution": 4723,
      "infodto": 4724,
      "signaturefacet": 4725,
      "basicinfodto": 4726,
      "getcodeattributeinfo": 4727,
      "invtypebasicinfodto": 4728,
      "global": 4729,
      "00000": 4730,
      "ivemode": 4731,
      "prt": 4732,
      "rma": 4733,
      "statuscode": 4734,
      "overwrite": 4735,
      "releaseconnection": 4736,
      "ql": 4737,
      "rans": 4738,
      "addelement": 4739,
      "Ġseed": 4740,
      "showw": 4741,
      "changeworkingdirectory": 4742,
      "Ġcalculation": 4743,
      "fileutils": 4744,
      "umber": 4745,
      "Ġuuid": 4746,
      "Ġlock": 4747,
      "Ġdefinition": 4748,
      "Ġobjects": 4749,
      "Ġallow": 4750,
      "')\");": 4751,
      "getlong": 4752,
      "spa": 4753,
      "Ġjedit": 4754,
      "Ġcod": 4755,
      "Ġprev": 4756,
      "plugins": 4757,
      "Ġrank": 4758,
      "hidewaitcursor": 4759,
      "showwaitcursor": 4760,
      "player": 4761,
      "derer": 4762,
      "(\"--": 4763,
      "Ġes": 4764,
      "dof": 4765,
      "Ġprofile": 4766,
      "filesystem": 4767,
      "bl": 4768,
      "Ġeno": 4769,
      "disk": 4770,
      "pop": 4771,
      "gorian": 4772,
      "goriancalendar": 4773,
      "that": 4774,
      "ador": 4775,
      "timage": 4776,
      "album": 4777,
      "Ġrut": 4778,
      "Ġsm": 4779,
      "setexception": 4780,
      "there": 4781,
      "ditional": 4782,
      "grape": 4783,
      "smartgrape": 4784,
      "/?": 4785,
      "sheet": 4786,
      "Ġstack": 4787,
      "uncate": 4788,
      "Ġgetnextline": 4789,
      "28": 4790,
      "_\",": 4791,
      "Ġreal": 4792,
      "reason": 4793,
      "appro": 4794,
      "Ġhi": 4795,
      "Ġsourceout": 4796,
      "Ġ\"/\";": 4797,
      "Ġbest": 4798,
      "latest": 4799,
      "origin": 4800,
      "nws": 4801,
      "Ġbg": 4802,
      "ater": 4803,
      "mentity": 4804,
      "svn": 4805,
      "Ġaux": 4806,
      "publish": 4807,
      "math": 4808,
      "newlink": 4809,
      "andclose": 4810,
      "romat": 4811,
      "copystream": 4812,
      "Ġbuffersize": 4813,
      "Ġpathdst": 4814,
      "help": 4815,
      "getnodevalue": 4816,
      "Ġenough": 4817,
      "ipar": 4818,
      "isyntax": 4819,
      "iparchive": 4820,
      "openxmldocument": 4821,
      "repor": 4822,
      "numberformatexception": 4823,
      "getresponsebody": 4824,
      "Ġwebxml": 4825,
      "Ġneededrsrc": 4826,
      "Ġtrim": 4827,
      "vance": 4828,
      "soap": 4829,
      "Ġstored": 4830,
      "saxexception": 4831,
      "sun": 4832,
      "attemp": 4833,
      ">\",": 4834,
      "Ġblob": 4835,
      "bernate": 4836,
      "marsh": 4837,
      "geturi": 4838,
      "cessexception": 4839,
      "())));": 4840,
      "gingexception": 4841,
      "Ġingredients": 4842,
      "lap": 4843,
      "nexo": 4844,
      "newdocumentbuilder": 4845,
      "leffect": 4846,
      "ers": 4847,
      "Ġseparator": 4848,
      "recipient": 4849,
      "plus": 4850,
      "ek": 4851,
      "elimina": 4852,
      "urned": 4853,
      "gestor": 4854,
      "Ġjavacore": 4855,
      "Ġ\"\\\\": 4856,
      "revision": 4857,
      "quota": 4858,
      "bi": 4859,
      "Ġgetfile": 4860,
      "hostexception": 4861,
      "Ġupdated": 4862,
      "licant": 4863,
      "usage": 4864,
      "Ġprefilter": 4865,
      "Ġtmpprefilter": 4866,
      "stocapturelinkswithintags": 4867,
      "stocapturelinkswithinscripts": 4868,
      ">\")": 4869,
      "filetype": 4870,
      "street": 4871,
      "mpres": 4872,
      "bertas": 4873,
      "implementation": 4874,
      "Ġloading": 4875,
      "lesheet": 4876,
      "credentials": 4877,
      "asabertas": 4878,
      "mpresasabertas": 4879,
      "Ġfiletransfer": 4880,
      "Ġnor": 4881,
      "helloworldpath": 4882,
      "pat": 4883,
      "valor": 4884,
      "?,?": 4885,
      "doccontroller": 4886,
      "Ġchecksum": 4887,
      "fname": 4888,
      "xls": 4889,
      "Ġ.": 4890,
      "tpar": 4891,
      "Ġpreference": 4892,
      "Ġlistener": 4893,
      "Ġmock": 4894,
      "chararray": 4895,
      "requirement": 4896,
      "Ġcurr": 4897,
      "setcontentlength": 4898,
      "Ġrealm": 4899,
      "Ġbad": 4900,
      "Ġsort": 4901,
      "Ġvtipo": 4902,
      "formentity": 4903,
      "seticon": 4904,
      "tware": 4905,
      "Ġurlencodedformentity": 4906,
      "Ġsoftware": 4907,
      "isyntaxexception": 4908,
      "Ġprefixresolver": 4909,
      "Ġbus": 4910,
      "cour": 4911,
      "Ä¼": 4912,
      "gex": 4913,
      "verifi": 4914,
      "Ġoper": 4915,
      "nap": 4916,
      "zd": 4917,
      "hostname": 4918,
      "Ġfza": 4919,
      "Ġcls": 4920,
      ":\\": 4921,
      "Ġsaving": 4922,
      "asempresasabertas": 4923,
      "Ġcampos": 4924,
      "vodasempresasabertas": 4925,
      "Ġbitmap": 4926,
      "doarquivodasempresasabertas": 4927,
      "requirementdtos": 4928,
      "Ġdigester": 4929,
      "Ġii": 4930,
      "Ġnu": 4931,
      "Ġproces": 4932,
      "usevent": 4933,
      "ievent": 4934,
      "Ġexisting": 4935,
      "single": 4936,
      "Ġnotify": 4937,
      "ope": 4938,
      "pin": 4939,
      "sess": 4940,
      "Ġduring": 4941,
      "settitle": 4942,
      "setlayout": 4943,
      "Ġreadbytes": 4944,
      "usuario": 4945,
      "mentid": 4946,
      "Ġcomments": 4947,
      "Ġftest": 4948,
      "force": 4949,
      "perm": 4950,
      "Ġspectrum": 4951,
      "Ġpsimpl": 4952,
      "Ġretry": 4953,
      "Ġdescriptor": 4954,
      "useragent": 4955,
      "Ġrslt": 4956,
      "ebug": 4957,
      "deploy": 4958,
      "Ġphoto": 4959,
      "abort": 4960,
      "Ġtmpdir": 4961,
      "zout": 4962,
      "lect": 4963,
      "getroo": 4964,
      "errormessage": 4965,
      "imate": 4966,
      "cenario": 4967,
      "campodoarquivodasempresasabertas": 4968,
      "lding": 4969,
      "Ġdrivermanager": 4970,
      "directories": 4971,
      "getwidth": 4972,
      "Ġfinalprediction": 4973,
      "Ġdbresultset": 4974,
      "static": 4975,
      "coming": 4976,
      "Ġcommunity": 4977,
      "sentity": 4978,
      "Ġfl": 4979,
      "Ġauthentication": 4980,
      "repo": 4981,
      "setreadtimeout": 4982,
      "ido": 4983,
      "locator": 4984,
      "Ġfollow": 4985,
      "primarykey": 4986,
      "jpeg": 4987,
      "getc": 4988,
      "Ġgeturl": 4989,
      "scroll": 4990,
      "messagingexception": 4991,
      "Ġoccurred": 4992,
      "padd": 4993,
      "Ġvalueafter": 4994,
      "workspace": 4995,
      "setnull": 4996,
      "passivemode": 4997,
      "inode": 4998,
      "dn": 4999,
      "tar": 5000,
      "xx": 5001,
      "Ġbefore": 5002,
      "jecut": 5003,
      "commons": 5004,
      "ultimo": 5005,
      "compression": 5006,
      "extract": 5007,
      "wrapper": 5008,
      "%%": 5009,
      "ppt": 5010,
      "Ġlib": 5011,
      "children": 5012,
      "Ġgeneric": 5013,
      "ee": 5014,
      "dict": 5015,
      "arrays": 5016,
      "Ġfoc": 5017,
      "sktop": 5018,
      "Ġmedia": 5019,
      "webdav": 5020,
      "Ġorigin": 5021,
      "sync": 5022,
      "teg": 5023,
      "getport": 5024,
      "dits": 5025,
      "compiler": 5026,
      "ditschema": 5027,
      "mbox": 5028,
      "alg": 5029,
      "chy": 5030,
      "Ġsoldpath": 5031,
      "Ġvalueaftermd": 5032,
      "Ġcv": 5033,
      "Ġvue": 5034,
      "enc": 5035,
      "000000": 5036,
      "Ġdownloaded": 5037,
      "Ġcrl": 5038,
      "Ġ\"\")": 5039,
      "Ġsoap": 5040,
      "Ġbound": 5041,
      "ciple": 5042,
      "multipart": 5043,
      "rex": 5044,
      "nota": 5045,
      "catalog": 5046,
      "Ġgetstring": 5047,
      "Ġchain": 5048,
      "Ġargu": 5049,
      "translation": 5050,
      "debugfile": 5051,
      "Ġtheadapter": 5052,
      "codigo": 5053,
      "Ġconstructor": 5054,
      "documen": 5055,
      "Ġosw": 5056,
      "break": 5057,
      "Ġscore": 5058,
      "Ġmore": 5059,
      "Ġdateformat": 5060,
      "jarname": 5061,
      "Ġger": 5062,
      "getheight": 5063,
      "ratings": 5064,
      "bra": 5065,
      "atom": 5066,
      "toxml": 5067,
      "fech": 5068,
      "validate": 5069,
      "Ġrole": 5070,
      "}\");": 5071,
      "lok": 5072,
      "conds": 5073,
      "sim": 5074,
      "environment": 5075,
      "Ġdatastream": 5076,
      "Ġprogressmonitor": 5077,
      "sco": 5078,
      "sertion": 5079,
      "Ġoid": 5080,
      "Ġhttpstatus": 5081,
      "executemethod": 5082,
      "background": 5083,
      "Ġ\"'\"": 5084,
      "statust": 5085,
      "Ġfields": 5086,
      "pisode": 5087,
      "getheaders": 5088,
      "illa": 5089,
      "combin": 5090,
      "Ġ?\");": 5091,
      "Ġresolve": 5092,
      "04": 5093,
      "review": 5094,
      "fichier": 5095,
      "alumni": 5096,
      "Ġouts": 5097,
      "tracker": 5098,
      "getproperties": 5099,
      "setpath": 5100,
      "prev": 5101,
      "Ġfire": 5102,
      "Ġjsonarray": 5103,
      "Ġcategory": 5104,
      "]\");": 5105,
      "endof": 5106,
      "Ġdstfs": 5107,
      "vidade": 5108,
      "Ġfnfe": 5109,
      "ks": 5110,
      "Ġfragment": 5111,
      "Ġalle": 5112,
      "Ġtimeout": 5113,
      "lm": 5114,
      "filelist": 5115,
      "outage": 5116,
      "++]": 5117,
      "Ġswap": 5118,
      "Ġportal": 5119,
      "cnst": 5120,
      "Ġsaxparserfactory": 5121,
      "prtcnst": 5122,
      "ebugprintln": 5123,
      "place": 5124,
      "Ġwritten": 5125,
      "getnum": 5126,
      "magic": 5127,
      "Ġtempstring": 5128,
      "68": 5129,
      "Ġcrossref": 5130,
      "flated": 5131,
      "labels": 5132,
      "weight": 5133,
      "Ġerro": 5134,
      "Ġoperation": 5135,
      "fined": 5136,
      "51": 5137,
      "Ġnex": 5138,
      "rio": 5139,
      "sourcechannel": 5140,
      "vrage": 5141,
      "ony": 5142,
      "getn": 5143,
      "lid": 5144,
      "tochararray": 5145,
      "rowindexset": 5146,
      "Ġrss": 5147,
      "urlencoded": 5148,
      "getremote": 5149,
      "Ġest": 5150,
      "Ġrule": 5151,
      "bolsa": 5152,
      "Ġvide": 5153,
      "Ġauthentic": 5154,
      "Ġnf": 5155,
      "Ġsymbol": 5156,
      "coord": 5157,
      "approve": 5158,
      "batch": 5159,
      "Ġtc": 5160,
      "Ġtw": 5161,
      "closed": 5162,
      "Ġjlabel": 5163,
      "vided": 5164,
      "tical": 5165,
      "srccand": 5166,
      "Ġbigint": 5167,
      "Ġsupport": 5168,
      "Ġfirstname": 5169,
      "?\");": 5170,
      "dms": 5171,
      "gy": 5172,
      "Ġgame": 5173,
      "Ġxtext": 5174,
      "drop": 5175,
      "pm": 5176,
      "gene": 5177,
      "Ġgrid": 5178,
      "Ġencryp": 5179,
      "Ġjavaproject": 5180,
      "setexceptionstate": 5181,
      "ae": 5182,
      "actual": 5183,
      "Ġsu": 5184,
      "Ġsys": 5185,
      "Ġsorted": 5186,
      "Ġrating": 5187,
      "Ġtran": 5188,
      "datum": 5189,
      "Ġwrong": 5190,
      "specification": 5191,
      "whi": 5192,
      "terna": 5193,
      "10000": 5194,
      "Ġalignment": 5195,
      "recent": 5196,
      "Ġem": 5197,
      "Ġreadlength": 5198,
      "Ġbegin": 5199,
      "constraints": 5200,
      "dif": 5201,
      "custo": 5202,
      "Ġ::": 5203,
      "pptx": 5204,
      "score": 5205,
      "tz": 5206,
      "cus": 5207,
      "pom": 5208,
      "Ġvariable": 5209,
      "27": 5210,
      "scheme": 5211,
      "getdocument": 5212,
      "atna": 5213,
      "itter": 5214,
      "master": 5215,
      "subject": 5216,
      "Ġtmpmailsetting": 5217,
      "Ġanfinal": 5218,
      "=?\");": 5219,
      "Ġcredentials": 5220,
      "Ġ\".\");": 5221,
      "Ġfileurl": 5222,
      "Ġdao": 5223,
      "Ġconten": 5224,
      ">\"))": 5225,
      "sr": 5226,
      "seterror": 5227,
      "setcode": 5228,
      "=\").": 5229,
      "commandline": 5230,
      "('.'": 5231,
      "Ġsz": 5232,
      "Ġreference": 5233,
      "lim": 5234,
      "dirs": 5235,
      "Ġunable": 5236,
      "assign": 5237,
      "som": 5238,
      "supported": 5239,
      "Ġpilotdata": 5240,
      "enterlocal": 5241,
      "Ġbgcolor": 5242,
      "Ġsca": 5243,
      "tap": 5244,
      "percent": 5245,
      "dirname": 5246,
      "Ġauto": 5247,
      "finest": 5248,
      "keepr": 5249,
      "documents": 5250,
      "getrootelement": 5251,
      "gate": 5252,
      "Ġmil": 5253,
      "Ġresultstring": 5254,
      "setstringatname": 5255,
      "fue": 5256,
      "alf": 5257,
      "sof": 5258,
      "Ġother": 5259,
      "Ġmove": 5260,
      "tegsoft": 5261,
      "uce": 5262,
      "onclose": 5263,
      "seed": 5264,
      "Ġcho": 5265,
      "chromat": 5266,
      "Ġpid": 5267,
      "ingredients": 5268,
      "Ġsetup": 5269,
      "senten": 5270,
      "Ġvalidation": 5271,
      "lefone": 5272,
      "hr": 5273,
      "}'": 5274,
      "getservletcontext": 5275,
      "setdefault": 5276,
      "Ġtrying": 5277,
      "Ġurlcon": 5278,
      "Ġobjectid": 5279,
      "31": 5280,
      "ily": 5281,
      "oof": 5282,
      "Ġrprtcnst": 5283,
      "going": 5284,
      "phrases": 5285,
      "pid": 5286,
      "private": 5287,
      "ina": 5288,
      "getdb": 5289,
      "Ġsheet": 5290,
      "socke": 5291,
      "objectid": 5292,
      "owner": 5293,
      "istrace": 5294,
      "Ġmenum": 5295,
      "istraceenabled": 5296,
      "errormsg": 5297,
      "activator": 5298,
      "insertinstr": 5299,
      "downloading": 5300,
      "Ġrotate": 5301,
      "getshort": 5302,
      "mentor": 5303,
      "loccode": 5304,
      "Ġcursor": 5305,
      "(\",\");": 5306,
      "45": 5307,
      "Ġ\"(\"": 5308,
      "Ġimages": 5309,
      "crypted": 5310,
      "getreplystring": 5311,
      "jframe": 5312,
      "siterator": 5313,
      "cussion": 5314,
      "Ġdoget": 5315,
      "cab": 5316,
      "Ġoutputdir": 5317,
      "Ġmaxcount": 5318,
      "fich": 5319,
      "getaddress": 5320,
      "getphrase": 5321,
      "acc": 5322,
      "Ġpop": 5323,
      "note": 5324,
      "Ġcompany": 5325,
      "osite": 5326,
      "Ġrealpath": 5327,
      "Ġnullpointerexception": 5328,
      "Ġoai": 5329,
      "fromurl": 5330,
      "querystring": 5331,
      "Ġsingle": 5332,
      "44": 5333,
      "Ġright": 5334,
      "ood": 5335,
      "ands": 5336,
      "Ġtransform": 5337,
      ")\"": 5338,
      "mor": 5339,
      "reque": 5340,
      "Ġclosing": 5341,
      "portlet": 5342,
      "Ġtargetdirectory": 5343,
      "getrequesturi": 5344,
      "sommapper": 5345,
      "pli": 5346,
      "didate": 5347,
      "Ġxstream": 5348,
      "Ġvaluebeforemd": 5349,
      "validation": 5350,
      "byid": 5351,
      "yyyy": 5352,
      "rerror": 5353,
      "tio": 5354,
      "(\"ï¿½ï¿½ï¿½ï¿½": 5355,
      "advance": 5356,
      "[])...": 5357,
      "arrayright": 5358,
      "filenames": 5359,
      "Ġ':": 5360,
      "divideequals": 5361,
      "getuserid": 5362,
      "Ġpat": 5363,
      "Ġfic": 5364,
      "Ġbaseurl": 5365,
      "Ġ\"'\";": 5366,
      "axis": 5367,
      "answer": 5368,
      "ï¼": 5369,
      "Ġparsing": 5370,
      "Ġcollections": 5371,
      "gettesttool": 5372,
      "Ġue": 5373,
      "ges": 5374,
      "Ġiproject": 5375,
      "pheno": 5376,
      "Ġ\"'>\"": 5377,
      "Ġ4096": 5378,
      "general": 5379,
      "509": 5380,
      "Ġnread": 5381,
      "setselected": 5382,
      "Ġsome": 5383,
      "events": 5384,
      "('/',": 5385,
      "httprequest": 5386,
      "[\"": 5387,
      "Ġnotneededrsrc": 5388,
      "Ġoutputchannel": 5389,
      "Ġprestat": 5390,
      "best": 5391,
      "posit": 5392,
      "suffix": 5393,
      "ä¸": 5394,
      "uthor": 5395,
      "Ġcx": 5396,
      "chine": 5397,
      "Ġvelocity": 5398,
      "vendor": 5399,
      "bib": 5400,
      "Ġmessagingexception": 5401,
      "getpackage": 5402,
      "Ġstor": 5403,
      "isvalid": 5404,
      "expected": 5405,
      "='/?": 5406,
      "playlist": 5407,
      "titem": 5408,
      "Ġhar": 5409,
      "cident": 5410,
      "called": 5411,
      "allel": 5412,
      "Ġnulogger": 5413,
      "46": 5414,
      "ique": 5415,
      "Ġfunction": 5416,
      "Ġsfilename": 5417,
      "Ġmc": 5418,
      "theme": 5419,
      "]+": 5420,
      "paths": 5421,
      "usr": 5422,
      "ashmap": 5423,
      "Ġ:\"": 5424,
      "Ġadmin": 5425,
      "getbundle": 5426,
      "marc": 5427,
      "Ġpredicatecf": 5428,
      "Ġhelp": 5429,
      "69": 5430,
      "gable": 5431,
      "Ġplat": 5432,
      "Ġrelative": 5433,
      "Ġdecimal": 5434,
      "tidad": 5435,
      "Ġrandomaccessfile": 5436,
      "Ġ'/')": 5437,
      "getresponsebodyasstream": 5438,
      "getdescription": 5439,
      "asset": 5440,
      "verify": 5441,
      ".\\": 5442,
      "inser": 5443,
      "setbigdecimal": 5444,
      "execut": 5445,
      "codfilial": 5446,
      "Ġphone": 5447,
      "cexception": 5448,
      "sis": 5449,
      "preview": 5450,
      "formatter": 5451,
      "accessexception": 5452,
      "Ġassertthat": 5453,
      "getcontentencoding": 5454,
      "gett": 5455,
      "rase": 5456,
      "objects": 5457,
      "Ġmedi": 5458,
      "Ġtools": 5459,
      "teria": 5460,
      "persistence": 5461,
      "getusername": 5462,
      "Ġinputchannel": 5463,
      "outputdirectory": 5464,
      "Ġalg": 5465,
      "Ġprobemap": 5466,
      "Ġtemplateelements": 5467,
      "cussionfields": 5468,
      "Ġstorage": 5469,
      "cade": 5470,
      "abstract": 5471,
      "geo": 5472,
      "roid": 5473,
      "metalevel": 5474,
      "512": 5475,
      "vm": 5476,
      "æĸ": 5477,
      "copybytes": 5478,
      "Ġfeed": 5479,
      "Ġtransferred": 5480,
      "stage": 5481,
      "rest": 5482,
      "xmldata": 5483,
      "Ġuserdata": 5484,
      "rsrcidx": 5485,
      "mbly": 5486,
      "wiki": 5487,
      "outdir": 5488,
      "Ġ\"%": 5489,
      "pers": 5490,
      "Ġao": 5491,
      "Ġimpor": 5492,
      "?,?,?,?,?,?,?,?,": 5493,
      "Ġdecimalformat": 5494,
      "archetype": 5495,
      "Ġexternal": 5496,
      "sedout": 5497,
      "bb": 5498,
      "tist": 5499,
      "lave": 5500,
      "gerror": 5501,
      "Ġ\"\\\\\"": 5502,
      "columnname": 5503,
      "Ġpersistence": 5504,
      "Ġagain": 5505,
      "03": 5506,
      "(\"//": 5507,
      "Ġostream": 5508,
      "Ġengine": 5509,
      "strbuff": 5510,
      "Ġnumread": 5511,
      "Ġcanalfue": 5512,
      "Ġcanalfuente": 5513,
      "jb": 5514,
      "ceiver": 5515,
      "ubm": 5516,
      "Ġproduct": 5517,
      "weather": 5518,
      "Ġcs": 5519,
      "alias": 5520,
      "cot": 5521,
      "tries": 5522,
      "Ġnamearray": 5523,
      "://\"))": 5524,
      "controle": 5525,
      "ised": 5526,
      "coachstr": 5527,
      "confirm": 5528,
      "tillcnt": 5529,
      "fun": 5530,
      "got": 5531,
      "ira": 5532,
      "Ġer": 5533,
      "getproject": 5534,
      "Ġmyrand": 5535,
      "Ġiconurl": 5536,
      "geterrorstream": 5537,
      "yahoo": 5538,
      "Ã©": 5539,
      "Ġfileutil": 5540,
      "Ġonly": 5541,
      "Ġmainframe": 5542,
      "Ġportlet": 5543,
      "hasmoretokens": 5544,
      "topdf": 5545,
      "awt": 5546,
      "Ġtintarraylist": 5547,
      "8192": 5548,
      "iel": 5549,
      "Ġioutil": 5550,
      "mailcontact": 5551,
      "getcheckout": 5552,
      "Ġdsventry": 5553,
      "parseexception": 5554,
      "materialtypeid": 5555,
      "materialvolume": 5556,
      "materialtypename": 5557,
      "materialtypeicon": 5558,
      "materialtypecategoryid": 5559,
      "natureids": 5560,
      "gettoken": 5561,
      "(\":\".": 5562,
      "bed": 5563,
      "fileinfo": 5564,
      "intcode": 5565,
      "Ġ(((": 5566,
      "Ġenvironment": 5567,
      "dump": 5568,
      "javaproject": 5569,
      "75": 5570,
      "identifier": 5571,
      "ple": 5572,
      "Ġec": 5573,
      "litem": 5574,
      "Ġchooser": 5575,
      "foldername": 5576,
      "stylesheet": 5577,
      "principal": 5578,
      "-\"": 5579,
      "Ġput": 5580,
      "Ġdj": 5581,
      "sound": 5582,
      "screen": 5583,
      "Ġprestm": 5584,
      "inea": 5585,
      "Ġrecipient": 5586,
      "Ġlastname": 5587,
      "enterlocalpassivemode": 5588,
      "refix": 5589,
      "Ġed": 5590,
      "Ġfiledialog": 5591,
      "setsize": 5592,
      "cols": 5593,
      "Ġentra": 5594,
      "Ġterm": 5595,
      "Ġbb": 5596,
      "--;": 5597,
      "Ġrunning": 5598,
      "fec": 5599,
      "Ġgiveresourceset": 5600,
      "Ġiteration": 5601,
      "updater": 5602,
      "startelement": 5603,
      "Ġquan": 5604,
      "Ġjpanel": 5605,
      "Ġ''": 5606,
      "finish": 5607,
      "Ġorset": 5608,
      "graphicalviewer": 5609,
      "cert": 5610,
      "Ġsalida": 5611,
      "xfile": 5612,
      "anger": 5613,
      "ida": 5614,
      "lng": 5615,
      "Ġlogfile": 5616,
      "Ġoconn": 5617,
      "entrada": 5618,
      "Ġchoose": 5619,
      "nodesource": 5620,
      "Ġmsgdigest": 5621,
      "Ġplatform": 5622,
      "78": 5623,
      "Ġiri": 5624,
      "Ġequal": 5625,
      "Ġpm": 5626,
      "Ġhttps": 5627,
      "Ġgetting": 5628,
      "Ġsol": 5629,
      "Ġbasi": 5630,
      "responsemodificationdefinitions": 5631,
      "Ġrelated": 5632,
      "celed": 5633,
      "ates": 5634,
      "Ġstx": 5635,
      "hashcode": 5636,
      "==========": 5637,
      "=?\";": 5638,
      "Ġregister": 5639,
      "Ġdiscussionfields": 5640,
      "extensions": 5641,
      "white": 5642,
      "'s": 5643,
      "une": 5644,
      "filesto": 5645,
      "mesh": 5646,
      "ading": 5647,
      "Ġproposal": 5648,
      "sci": 5649,
      "Ġsrcfs": 5650,
      "Ġleft": 5651,
      "octet": 5652,
      "fragmentroot": 5653,
      "getlog": 5654,
      "leton": 5655,
      "Ġkeys": 5656,
      "getcontentpane": 5657,
      "Ġhashed": 5658,
      "Ġboundary": 5659,
      "Ġtx": 5660,
      "Ġfilechooser": 5661,
      "coords": 5662,
      "vertex": 5663,
      "Ġsocke": 5664,
      "scal": 5665,
      "crypto": 5666,
      "normal": 5667,
      "ime": 5668,
      "instan": 5669,
      "getentry": 5670,
      "buffersize": 5671,
      "tidade": 5672,
      "encoded": 5673,
      "gov": 5674,
      "Ġcnt": 5675,
      "Ġclear": 5676,
      "Ġace": 5677,
      "parselong": 5678,
      "pages": 5679,
      "relationship": 5680,
      "Ġsvn": 5681,
      "nego": 5682,
      "(\".\");": 5683,
      "setdescription": 5684,
      "writebytes": 5685,
      "vers": 5686,
      "Ġgetresource": 5687,
      "Ġgetrandom": 5688,
      "keywords": 5689,
      "Ġdbf": 5690,
      "Ġactionlistener": 5691,
      "udp": 5692,
      "flags": 5693,
      "filelength": 5694,
      "getfolder": 5695,
      "setmax": 5696,
      "sity": 5697,
      "Ġcomple": 5698,
      "Ġrate": 5699,
      "relational": 5700,
      "Ġ':');": 5701,
      "[(": 5702,
      "_.": 5703,
      "nv": 5704,
      "invoke": 5705,
      "gettitle": 5706,
      "Ġcust": 5707,
      "iplin": 5708,
      "using": 5709,
      "irth": 5710,
      "attachments": 5711,
      "Ġtrace": 5712,
      "shipping": 5713,
      "average": 5714,
      "oldpath": 5715,
      "Ġ30": 5716,
      "getabsolutefile": 5717,
      "Ġsessionid": 5718,
      "windows": 5719,
      "Ġbasedirstr": 5720,
      "Ġclazz": 5721,
      "ost": 5722,
      "dims": 5723,
      "auditschema": 5724,
      "datatype": 5725,
      "Ġthrowable": 5726,
      "islog": 5727,
      "Ġchr": 5728,
      "stoadd": 5729,
      "evalu": 5730,
      "Ġreceived": 5731,
      "Ġ256": 5732,
      "observer": 5733,
      "jarpath": 5734,
      "oldfile": 5735,
      "unicip": 5736,
      "wise": 5737,
      "ink": 5738,
      "getpersonal": 5739,
      "Ġtvrage": 5740,
      "Ġoutheader": 5741,
      "Ġmf": 5742,
      "filenamedata": 5743,
      "Ġsel": 5744,
      "running": 5745,
      "Ġdoneheader": 5746,
      "Ġmidlet": 5747,
      "Ġfiletransferheader": 5748,
      "]))": 5749,
      "nio": 5750,
      "cust": 5751,
      "pres": 5752,
      "Ġmol": 5753,
      "loadexception": 5754,
      "Ġmanage": 5755,
      "Ġhelper": 5756,
      "clo": 5757,
      "kv": 5758,
      "opt": 5759,
      "fill": 5760,
      "Ġdatafile": 5761,
      "Ġcreaterecipe": 5762,
      "128": 5763,
      "celula": 5764,
      "norm": 5765,
      "rw": 5766,
      "deflated": 5767,
      "Ġbasepath": 5768,
      "chain": 5769,
      "jet": 5770,
      "dby": 5771,
      "Ġcomment": 5772,
      "Ġjaroutputstream": 5773,
      "fullname": 5774,
      "sentation": 5775,
      "}''": 5776,
      "Ġ''{": 5777,
      "Ġiclasspathentry": 5778,
      "delimiter": 5779,
      "Ġns": 5780,
      "isassign": 5781,
      "ablefrom": 5782,
      "httpget": 5783,
      "isassignablefrom": 5784,
      "pus": 5785,
      "Ġwriting": 5786,
      "research": 5787,
      "sex": 5788,
      "sentry": 5789,
      "defaul": 5790,
      "unzip": 5791,
      "testedfile": 5792,
      "-----": 5793,
      "Ġmysecure": 5794,
      "urlencoder": 5795,
      "resolvefile": 5796,
      "Ġmysecurerand": 5797,
      "getf": 5798,
      "Ġtm": 5799,
      "Ġfun": 5800,
      "Ġstavailupd": 5801,
      "Ġwhich": 5802,
      "Ġass": 5803,
      "malformed": 5804,
      "Ġmet": 5805,
      "Ġcompare": 5806,
      "lucz": 5807,
      "cfile": 5808,
      "getall": 5809,
      "chart": 5810,
      "live": 5811,
      "reducer": 5812,
      "Ġziparchive": 5813,
      "inputfilename": 5814,
      "scanner": 5815,
      "Ġhelpformatter": 5816,
      "Ġfilein": 5817,
      "Ġbi": 5818,
      "addcontent": 5819,
      "Ġnodeid": 5820,
      "Ġtipo": 5821,
      "outexception": 5822,
      "converter": 5823,
      "34": 5824,
      "atok": 5825,
      "Ġfileobject": 5826,
      "updates": 5827,
      "userinfo": 5828,
      "members": 5829,
      "dev": 5830,
      "Ġspa": 5831,
      "Ġsecond": 5832,
      "securityexception": 5833,
      "unknownhostexception": 5834,
      "Ġreset": 5835,
      "servletconfig": 5836,
      "configfile": 5837,
      "contro": 5838,
      "Ġcontainer": 5839,
      "languages": 5840,
      "################################": 5841,
      "Ġmultipar": 5842,
      "fritz": 5843,
      "relationalword": 5844,
      "Ġcreaterecipeingredients": 5845,
      "])));": 5846,
      "expression": 5847,
      "ashboard": 5848,
      "Ġjarinputstream": 5849,
      "analyzer": 5850,
      "Ġbatna": 5851,
      "setparameter": 5852,
      "Ġreturned": 5853,
      "addkv": 5854,
      "loadclass": 5855,
      "Ġnota": 5856,
      "Ġsqlex": 5857,
      "1111": 5858,
      "svg": 5859,
      "Ġinternet": 5860,
      "Ġpublish": 5861,
      "cio": 5862,
      "push": 5863,
      "Ġpr": 5864,
      "Ġrest": 5865,
      "settimestamp": 5866,
      "Ġmpentity": 5867,
      "Ġois": 5868,
      "connec": 5869,
      "Ġchannels": 5870,
      "Ġinetaddress": 5871,
      "Ġbrowser": 5872,
      "Ġmay": 5873,
      "generated": 5874,
      "countrycode": 5875,
      "Ġtohexstring": 5876,
      "getmsg": 5877,
      "Ġcliente": 5878,
      "devent": 5879,
      "Ġee": 5880,
      "Ġeditor": 5881,
      "Ġpl": 5882,
      "peri": 5883,
      "uploadfile": 5884,
      "Ġdistribution": 5885,
      "zit": 5886,
      "reco": 5887,
      "sequals": 5888,
      "Ġpic": 5889,
      "peo": 5890,
      "bytehashmap": 5891,
      "arrayleft": 5892,
      "ync": 5893,
      "databaseexception": 5894,
      "Ġrowstoadd": 5895,
      "waitfor": 5896,
      "aglobal": 5897,
      "sproperties": 5898,
      "38": 5899,
      "Ġlastmodified": 5900,
      "Ġccn": 5901,
      "Ġprogra": 5902,
      "Ġassertnull": 5903,
      "senha": 5904,
      "):": 5905,
      "ihtml": 5906,
      "unchecked": 5907,
      "Ġprod": 5908,
      "outputfilename": 5909,
      "adoc": 5910,
      "Ġrefused": 5911,
      "Ġprocfound": 5912,
      "topdftransformer": 5913,
      "ihtmltopdftransformer": 5914,
      "cgi": 5915,
      "filedate": 5916,
      "setboolean": 5917,
      "Ġ'\\": 5918,
      "Ġdigraph": 5919,
      "Ġbookkeepr": 5920,
      "met": 5921,
      "ced": 5922,
      "addpart": 5923,
      "Ġftestwriter": 5924,
      "bis": 5925,
      "gri": 5926,
      "hado": 5927,
      "wr": 5928,
      "ority": 5929,
      "thel": 5930,
      "Ġstrin": 5931,
      "exao": 5932,
      "Ġartista": 5933,
      "filestream": 5934,
      "preco": 5935,
      "00000000": 5936,
      "Ġshutdown": 5937,
      "Ġ=\"": 5938,
      "Ġnewpath": 5939,
      "Ġoutputdirectory": 5940,
      "Ġkdu": 5941,
      "validator": 5942,
      "rooteditpart": 5943,
      "advanceindex": 5944,
      "Ġequalto": 5945,
      "isloggable": 5946,
      "getaction": 5947,
      "Ġdeploy": 5948,
      "drawing": 5949,
      "sfilename": 5950,
      "selement": 5951,
      "Ġtgt": 5952,
      "Ġcontentlength": 5953,
      "sentences": 5954,
      "plan": 5955,
      "zoom": 5956,
      "(\";": 5957,
      "come": 5958,
      "Ġuseradd": 5959,
      "selec": 5960,
      "retry": 5961,
      "Ġjax": 5962,
      "saxparser": 5963,
      "Ġsenha": 5964,
      ")(": 5965,
      "49": 5966,
      "Ġmenu": 5967,
      "ution": 5968,
      "gettempdir": 5969,
      "Ġcoord": 5970,
      "forge": 5971,
      "Ġsep": 5972,
      "nextint": 5973,
      "Ġimportlist": 5974,
      "was": 5975,
      "Ġlayer": 5976,
      "Ġdsentry": 5977,
      "radio": 5978,
      "Ġgetparameter": 5979,
      "odt": 5980,
      "methodname": 5981,
      "rolling": 5982,
      "records": 5983,
      "Ġapplicant": 5984,
      "Ġcanaldestino": 5985,
      "Ġsoubortype": 5986,
      "dmsrelationalword": 5987,
      "dx": 5988,
      "targe": 5989,
      "setmethod": 5990,
      "Ġbyteread": 5991,
      "Ġexe": 5992,
      "trs": 5993,
      "numer": 5994,
      "tengine": 5995,
      "selector": 5996,
      "Ġencryptedpassword": 5997,
      "Ġgetrandomguid": 5998,
      "Ġfilemode": 5999,
      "ratio": 6000,
      "Ġvt": 6001,
      "leting": 6002,
      "xslt": 6003,
      ">\".": 6004,
      "mcat": 6005,
      "Ġsd": 6006,
      "tax": 6007,
      "Ġhs": 6008,
      "Ġanexo": 6009,
      "Ġgetcontent": 6010,
      "shop": 6011,
      "Ġitems": 6012,
      "--------------------------------": 6013,
      "reverselookup": 6014,
      "Ġmilinea": 6015,
      "teraction": 6016,
      "endelement": 6017,
      "keyspec": 6018,
      "arguments": 6019,
      "continue": 6020,
      "jecth": 6021,
      "persons": 6022,
      "']/": 6023,
      "Ġcb": 6024,
      "urisyntaxexception": 6025,
      "challenge": 6026,
      "assert": 6027,
      "Ġwa": 6028,
      "entryname": 6029,
      "archar": 6030,
      "Ġpathinfo": 6031,
      "systemid": 6032,
      "dispatch": 6033,
      "javas": 6034,
      "lectron": 6035,
      "atos": 6036,
      "develbuild": 6037,
      "dop": 6038,
      "srcdir": 6039,
      "Ġioex": 6040,
      "stablebuild": 6041,
      "Ġmenumgr": 6042,
      "Ġpn": 6043,
      "ctype": 6044,
      "listing": 6045,
      "allowed": 6046,
      "ured": 6047,
      "win": 6048,
      "tobject": 6049,
      "\\\"\");": 6050,
      "001": 6051,
      "Ġxmlreader": 6052,
      "Ġresul": 6053,
      "sessionid": 6054,
      "Ġinsst": 6055,
      "Ġdjatok": 6056,
      "Ġdjatoka": 6057,
      "Ġnamespace": 6058,
      "tationexception": 6059,
      "Ġprepstmt": 6060,
      "assembly": 6061,
      "Ġadaptationexception": 6062,
      "gg": 6063,
      "Ġln": 6064,
      "Ġtex": 6065,
      "stext": 6066,
      "getclient": 6067,
      "Ġsiteurl": 6068,
      "Ġcoreexception": 6069,
      "Ġcustom": 6070,
      "acao": 6071,
      "getdownload": 6072,
      "chat": 6073,
      "wordexception": 6074,
      "Ġproble": 6075,
      "--)": 6076,
      "phd": 6077,
      "Ġbais": 6078,
      "fout": 6079,
      "Ġce": 6080,
      "Ġplay": 6081,
      "papel": 6082,
      "Ġgetlog": 6083,
      "tend": 6084,
      "tables": 6085,
      "hasremaining": 6086,
      "tracks": 6087,
      "Ġcomponentname": 6088,
      "mappernum": 6089,
      "negocio": 6090,
      "reducernum": 6091,
      "step": 6092,
      "lite": 6093,
      "portal": 6094,
      "())).": 6095,
      "Ġ\"&\"": 6096,
      "Ġcommit": 6097,
      "regionmatches": 6098,
      "nf": 6099,
      "Ġloaded": 6100,
      "stringlist": 6101,
      "Ġjfritz": 6102,
      "Ġprovided": 6103,
      "Ġuseragent": 6104,
      "configure": 6105,
      "overview": 6106,
      "Ġcurrentdocroot": 6107,
      "Ġsaved": 6108,
      "Ġargsiterator": 6109,
      "Ġregistry": 6110,
      "controlerio": 6111,
      "dtd": 6112,
      "surl": 6113,
      "å¤": 6114,
      "seconds": 6115,
      "rindex": 6116,
      "Ġcookies": 6117,
      "erexception": 6118,
      "Ġbaout": 6119,
      "ignore": 6120,
      "das": 6121,
      "sete": 6122,
      "getrsrcidx": 6123,
      "liver": 6124,
      "sourceforge": 6125,
      "communic": 6126,
      "flj": 6127,
      "tachment": 6128,
      "yyy": 6129,
      "tobjecth": 6130,
      "tobjecthashmap": 6131,
      ",\");": 6132,
      "sf": 6133,
      "ulation": 6134,
      "ille": 6135,
      "Ġconstra": 6136,
      "roller": 6137,
      "statustext": 6138,
      ":\",": 6139,
      "bw": 6140,
      "reemap": 6141,
      "ssquota": 6142,
      "Ġdopost": 6143,
      "lussquota": 6144,
      "temitter": 6145,
      "bind": 6146,
      "pilot": 6147,
      "lussquotasize": 6148,
      "aus": 6149,
      "rut": 6150,
      "alk": 6151,
      "writeln": 6152,
      "Ġusers": 6153,
      "Ġconfigfile": 6154,
      "ofo": 6155,
      "Ġlinenumber": 6156,
      "stock": 6157,
      "bine": 6158,
      "getresponsemessage": 6159,
      ")...\",": 6160,
      "arquivo": 6161,
      "mparams": 6162,
      "hh": 6163,
      "Ġwritable": 6164,
      "Ġcf": 6165,
      "cha": 6166,
      "Ġnewname": 6167,
      "ason": 6168,
      "userin": 6169,
      "').": 6170,
      "=\")": 6171,
      "Ġgestor": 6172,
      "ticket": 6173,
      "conexionbd": 6174,
      "program": 6175,
      "addall": 6176,
      "Ġax": 6177,
      "Ġtoast": 6178,
      "previous": 6179,
      "Ġerrorsql": 6180,
      "Ġcompile": 6181,
      "08": 6182,
      "treen": 6183,
      "Ġfri": 6184,
      "urlc": 6185,
      "Ġmac": 6186,
      "Ġconexion": 6187,
      "Ġexit": 6188,
      "Ġreadfile": 6189,
      "Ġhostname": 6190,
      "components": 6191,
      "zilla": 6192,
      "Ġut": 6193,
      "cep": 6194,
      "(\"\"": 6195,
      "Ġrename": 6196,
      "constructor": 6197,
      "worddictionary": 6198,
      "Ġtmppattern": 6199,
      "spersize": 6200,
      "Ġworddictionary": 6201,
      "stoexcludecompletetag": 6202,
      "stoexcludecompletescript": 6203,
      "stoexcludelinkswithintags": 6204,
      "stoexcludelinkswithinscripts": 6205,
      "06": 6206,
      "Ġpool": 6207,
      "setallow": 6208,
      "adline": 6209,
      "Ġcolumnindexset": 6210,
      "xmlns": 6211,
      "Ġontologiasource": 6212,
      "Ġinstructions": 6213,
      "33": 6214,
      "ral": 6215,
      "zk": 6216,
      "setex": 6217,
      "Ġ(?,": 6218,
      "rag": 6219,
      "Ġjc": 6220,
      "mol": 6221,
      "Ġasource": 6222,
      "commonparameters": 6223,
      "Ġinitialize": 6224,
      "characters": 6225,
      "Ġstyle": 6226,
      "Ġfidodatabaseexception": 6227,
      "Ġscale": 6228,
      "Ġiss": 6229,
      "Ġresidency": 6230,
      "tpos": 6231,
      "Ġgmailcontact": 6232,
      "minute": 6233,
      "Ġmyfile": 6234,
      "Ġlimit": 6235,
      "::": 6236,
      "imageicon": 6237,
      "Ġmovies": 6238,
      "webserver": 6239,
      "resolved": 6240,
      "Ġorgan": 6241,
      "Ġnonce": 6242,
      "eh": 6243,
      "grid": 6244,
      "oni": 6245,
      "parserconfigurationexception": 6246,
      "goal": 6247,
      "Ġquantidade": 6248,
      "getmimetype": 6249,
      "Ġbro": 6250,
      "console": 6251,
      "aslist": 6252,
      "Ġbytedata": 6253,
      "edora": 6254,
      "Ġ25": 6255,
      "levels": 6256,
      "jarurlconnection": 6257,
      "alfbyte": 6258,
      "æĸĩ": 6259,
      "tistics": 6260,
      "Ġbasich": 6261,
      "bc": 6262,
      "xmlfile": 6263,
      "Ġnodes": 6264,
      "dentry": 6265,
      "Ġrfile": 6266,
      "Ġproblem": 6267,
      "Ġgr": 6268,
      "mdd": 6269,
      "maxindex": 6270,
      "Ġdatabasemanager": 6271,
      "Ġ[%": 6272,
      "Ġmappedfile": 6273,
      "ckey": 6274,
      "Ġprinciple": 6275,
      "cfg": 6276,
      "song": 6277,
      "para": 6278,
      "Ġerrormessage": 6279,
      "credit": 6280,
      "getcanonicalfile": 6281,
      "stdout": 6282,
      "Ġobtainuserreputationrequest": 6283,
      "Ġhb": 6284,
      "worked": 6285,
      "subtask": 6286,
      "Ġfault": 6287,
      "Ġpercent": 6288,
      "successful": 6289,
      "invok": 6290,
      "stempfile": 6291,
      "Ġci": 6292,
      "putfloat": 6293,
      "exe": 6294,
      "iledexception": 6295,
      "Ġgot": 6296,
      "Ġswing": 6297,
      "izedmessage": 6298,
      "getlocalizedmessage": 6299,
      "ternalerror": 6300,
      ">)": 6301,
      "isimp": 6302,
      "Ġjos": 6303,
      "Ġope": 6304,
      "keyword": 6305,
      "resourcebundle": 6306,
      "stoprocess": 6307,
      "modeleffect": 6308,
      "shared": 6309,
      "serialize": 6310,
      "servefiledate": 6311,
      "Ġqualmap": 6312,
      "Ġapplicantinfo": 6313,
      "isimported": 6314,
      "456": 6315,
      "vas": 6316,
      "ficul": 6317,
      "Ġnewuser": 6318,
      "writestartelement": 6319,
      "writeendelement": 6320,
      "maven": 6321,
      "8080": 6322,
      "datastreams": 6323,
      "userinteraction": 6324,
      "Ġidentifier": 6325,
      "Ġna": 6326,
      "xcess": 6327,
      "fast": 6328,
      "interval": 6329,
      "rencoding": 6330,
      "Ġperm": 6331,
      "Ġwarning": 6332,
      "gio": 6333,
      "filemap": 6334,
      "ligne": 6335,
      "Ġstri": 6336,
      "Ġblueprint": 6337,
      "Ġuee": 6338,
      "older": 6339,
      "utype": 6340,
      "cuerr": 6341,
      "opening": 6342,
      "candidate": 6343,
      "Ġ?\";": 6344,
      "Ġparallel": 6345,
      "izard": 6346,
      "Ġserverurl": 6347,
      "tiva": 6348,
      "Ġdirmgr": 6349,
      "Ġwithout": 6350,
      "Ġgradient": 6351,
      "ymbolsize": 6352,
      "('.',": 6353,
      "gettrain": 6354,
      "Ġcopi": 6355,
      "Ġarchetype": 6356,
      "Ġstatusevent": 6357,
      "++++++++": 6358,
      "Ġreaded": 6359,
      "Ġjfritzutils": 6360,
      "Ġaxis": 6361,
      "iro": 6362,
      "nserver": 6363,
      "pout": 6364,
      "pstmt": 6365,
      "Ġmessagebuffer": 6366,
      "testfile": 6367,
      "savefile": 6368,
      "getevent": 6369,
      "Ġservletoutputstream": 6370,
      "Ġwindow": 6371,
      "addrequestproperty": 6372,
      "Ġplussquotasize": 6373,
      "Ġfb": 6374,
      "setobject": 6375,
      "Ġcofaxtools": 6376,
      "Ġlogging": 6377,
      "mozilla": 6378,
      "httpresponse": 6379,
      "Ġabstract": 6380,
      "nail": 6381,
      "ffffff": 6382,
      "ean": 6383,
      "yload": 6384,
      "side": 6385,
      "Ġmetaprops": 6386,
      "Ġinternetaddress": 6387,
      "getobject": 6388,
      "getlocale": 6389,
      "tofilename": 6390,
      "isconnected": 6391,
      "tests": 6392,
      "Ġdatabaseadapter": 6393,
      "Ġdatatype": 6394,
      "scrollpane": 6395,
      "setallowuserinteraction": 6396,
      "vot": 6397,
      "deflate": 6398,
      "Ġpout": 6399,
      "amete": 6400,
      "provent": 6401,
      "Ġonmouse": 6402,
      "ecutor": 6403,
      "Ġcorrect": 6404,
      "orexception": 6405,
      "alvariables": 6406,
      "Ġoos": 6407,
      "Ġsrcfilename": 6408,
      "Ġtheconn": 6409,
      "saved": 6410,
      "productivity": 6411,
      "Ġofferbuildingtime": 6412,
      "environmentalvariables": 6413,
      "Ġoaiexception": 6414,
      "perslong": 6415,
      "xi": 6416,
      "putil": 6417,
      "Ġhigh": 6418,
      "Ġdid": 6419,
      "starting": 6420,
      "erer": 6421,
      "Ġclosed": 6422,
      "Ġrecipe": 6423,
      "patterns": 6424,
      "Ġbox": 6425,
      "Ġworkspace": 6426,
      "waypoints": 6427,
      "Ġcompleted": 6428,
      ".+": 6429,
      "sms": 6430,
      "Ġcontentin": 6431,
      "getclassname": 6432,
      "Ġinterruptedexception": 6433,
      "administrator": 6434,
      "jl": 6435,
      "nc": 6436,
      "sz": 6437,
      "uploaded": 6438,
      "Ġ---": 6439,
      "Ġgre": 6440,
      "Ġstrurl": 6441,
      "Ġmetri": 6442,
      "inc": 6443,
      "rote": 6444,
      "Ġsor": 6445,
      "readfile": 6446,
      "Ġconcept": 6447,
      "ctionary": 6448,
      "timeoutexception": 6449,
      "Ġdictionary": 6450,
      "Ġtranslation": 6451,
      "Ġsavetimer": 6452,
      "Ġworld": 6453,
      "ffected": 6454,
      "'>\\": 6455,
      "ajax": 6456,
      "terencoding": 6457,
      "getlast": 6458,
      "getcodigo": 6459,
      "Ġtool": 6460,
      "Ġmig": 6461,
      "35": 6462,
      "tiff": 6463,
      "Ġfilefilter": 6464,
      "via": 6465,
      "requestentity": 6466,
      "createelement": 6467,
      "bufsize": 6468,
      "sexceptiononclose": 6469,
      "currency": 6470,
      "diffstats": 6471,
      "Ġimportex": 6472,
      "pressexceptiononclose": 6473,
      "41": 6474,
      "shor": 6475,
      "======": 6476,
      "Ġyell": 6477,
      "Ġdatabaseexception": 6478,
      "siteurl": 6479,
      "Ġincor": 6480,
      "periment": 6481,
      "26": 6482,
      "acoes": 6483,
      "failedexception": 6484,
      "serviceexception": 6485,
      "Ġday": 6486,
      "Ġdifference": 6487,
      "Ġprice": 6488,
      "bout": 6489,
      "tiles": 6490,
      "setdouble": 6491,
      "Ġxmlfunctions": 6492,
      "rupted": 6493,
      "credential": 6494,
      "Ġskip": 6495,
      "flow": 6496,
      "ial": 6497,
      "qop": 6498,
      "adj": 6499,
      "Ġimagedata": 6500,
      "connecting": 6501,
      "portexception": 6502,
      "jobid": 6503,
      "Ġfailure": 6504,
      "provento": 6505,
      "Ġfatal": 6506,
      "pear": 6507,
      "prov": 6508,
      "menuitem": 6509,
      "ficulty": 6510,
      "((\"": 6511,
      "ules": 6512,
      "getin": 6513,
      "Ġnv": 6514,
      "facade": 6515,
      "quality": 6516,
      "finalprediction": 6517,
      "Ġmysql": 6518,
      "Ġborderlayout": 6519,
      "operations": 6520,
      "43": 6521,
      "linfo": 6522,
      "Ġtig": 6523,
      "infos": 6524,
      "Ġ\"?\"": 6525,
      "tm": 6526,
      "infor": 6527,
      "conformance": 6528,
      "Ġavals": 6529,
      "mapeo": 6530,
      "viceni": 6531,
      "Ġdig": 6532,
      "packed": 6533,
      "grammar": 6534,
      "nonconformance": 6535,
      "descriptorui": 6536,
      "Ġraised": 6537,
      "relativepath": 6538,
      "np": 6539,
      "schem": 6540,
      "Ġcat": 6541,
      "lativa": 6542,
      "tempty": 6543,
      "authentic": 6544,
      "arelativa": 6545,
      "crip": 6546,
      "Ġtrig": 6547,
      "Ġtreeset": 6548,
      "consume": 6549,
      "cene": 6550,
      "Ġfund": 6551,
      "))).": 6552,
      "verb": 6553,
      "Ġexievent": 6554,
      "Ġsoc": 6555,
      "101": 6556,
      "share": 6557,
      "tasks": 6558,
      "Ġgenericinstruction": 6559,
      "Ġfundview": 6560,
      "nat": 6561,
      "closestream": 6562,
      "Ġbytehash": 6563,
      "Ġbuffreader": 6564,
      "nom": 6565,
      "Ġmem": 6566,
      "ï¿½ï¿½ï¿½ï¿½ï¿½": 6567,
      "Ġgenerated": 6568,
      "Ġsslsocket": 6569,
      "Äį": 6570,
      "Ġmentor": 6571,
      "ufact": 6572,
      "canceled": 6573,
      "manufact": 6574,
      "Ġresourcepool": 6575,
      "Ġcrystal": 6576,
      "Ġoperands": 6577,
      "Ġvideo": 6578,
      "thelp": 6579,
      "${": 6580,
      "'\\\">\\": 6581,
      "._": 6582,
      "77": 6583,
      "ä»": 6584,
      "Ġct": 6585,
      "alt": 6586,
      "redline": 6587,
      "forweb": 6588,
      "testing": 6589,
      "defaultstatus": 6590,
      "='#": 6591,
      "Ġdownloadfile": 6592,
      "diffresults": 6593,
      "Ġdeletedtable": 6594,
      "Ġdisplaydiffresults": 6595,
      "Ġredlinesout": 6596,
      "communicationexception": 6597,
      "Ġonmouseover": 6598,
      "Ġdifferences": 6599,
      "redlinestempfile": 6600,
      "mas": 6601,
      "Ġ64": 6602,
      "Ġstn": 6603,
      "copyto": 6604,
      "Ġld": 6605,
      "resourceid": 6606,
      "Ġfinished": 6607,
      "getitem": 6608,
      "Ġuploadresponse": 6609,
      "updstr": 6610,
      "xcesssrc": 6611,
      "embed": 6612,
      "Ġkeywords": 6613,
      "Ġswapped": 6614,
      "įå": 6615,
      "Ġpv": 6616,
      "Ġow": 6617,
      "Ġ'.": 6618,
      "objectinputstream": 6619,
      "ndx": 6620,
      "Ġjarurlconnection": 6621,
      "Ġwritefile": 6622,
      "spector": 6623,
      "adaptor": 6624,
      "midlet": 6625,
      "Ġmultipartentity": 6626,
      "cml": 6627,
      "istream": 6628,
      "getexception": 6629,
      "iod": 6630,
      "bold": 6631,
      "(\".\"));": 6632,
      "Ġapply": 6633,
      "creation": 6634,
      "plier": 6635,
      "dll": 6636,
      "esommapper": 6637,
      "glish": 6638,
      "sg": 6639,
      "deno": 6640,
      "dic": 6641,
      "mostat": 6642,
      "submit": 6643,
      "Ġarmor": 6644,
      "Ġdia": 6645,
      "behome": 6646,
      "Ġsetstatus": 6647,
      "checkbox": 6648,
      "downloaded": 6649,
      "visitorexception": 6650,
      "Ġlang": 6651,
      "getoutputfilename": 6652,
      "Ġrsswriter": 6653,
      "connectexception": 6654,
      "æĸĩä»": 6655,
      "mostatnap": 6656,
      "æĸĩä»¶": 6657,
      "ncy": 6658,
      "tal": 6659,
      "alive": 6660,
      "ssign": 6661,
      "Ġ11": 6662,
      "localfile": 6663,
      "stderr": 6664,
      "Ġfollowing": 6665,
      "requency": 6666,
      "pr": 6667,
      "tc": 6668,
      "you": 6669,
      "zb": 6670,
      "getsql": 6671,
      "setype": 6672,
      "penden": 6673,
      "scrip": 6674,
      "Ġcurrentpilot": 6675,
      "ughtexception": 6676,
      "piece": 6677,
      "Ġimportexportexception": 6678,
      ",'": 6679,
      "gtools": 6680,
      "oper": 6681,
      "Ġ{}\",": 6682,
      "getmain": 6683,
      "Ġshel": 6684,
      "inputsource": 6685,
      "acgio": 6686,
      "parentdir": 6687,
      "docs": 6688,
      "Ġacgtools": 6689,
      "Ġadj": 6690,
      "Ġtimer": 6691,
      "getnodename": 6692,
      "Ġcalculate": 6693,
      "Ġshell": 6694,
      "nes": 6695,
      "ness": 6696,
      "rive": 6697,
      "Ġrepor": 6698,
      "todir": 6699,
      "proposal": 6700,
      "indexfile": 6701,
      "obex": 6702,
      "Ġxmlfile": 6703,
      "mc": 6704,
      "showname": 6705,
      "Ġactivator": 6706,
      "Ġlinkorig": 6707,
      "Ġpackagename": 6708,
      "characterencoding": 6709,
      "oaiexception": 6710,
      "lurl": 6711,
      "ov": 6712,
      "ound": 6713,
      "Ġquestion": 6714,
      "deregistro": 6715,
      "isinfo": 6716,
      "Ġhp": 6717,
      "classlist": 6718,
      "Ġxmldata": 6719,
      "boundary": 6720,
      "Ġprogressbar": 6721,
      "Ġoldfile": 6722,
      "isinfoenabled": 6723,
      "ejecut": 6724,
      "Ġipath": 6725,
      "Ġpas": 6726,
      "Ġplayer": 6727,
      "inputstreamreader": 6728,
      "reduce": 6729,
      "rentries": 6730,
      "tempfilename": 6731,
      "shape": 6732,
      "Ġmethodcall": 6733,
      "Ġemptysource": 6734,
      "places": 6735,
      "ejecutando": 6736,
      "'\");": 6737,
      "hu": 6738,
      "smsg": 6739,
      "Ġtreemap": 6740,
      "logerror": 6741,
      "Ġfilesto": 6742,
      "tovers": 6743,
      "procs": 6744,
      "notempty": 6745,
      "ambo": 6746,
      "ginspector": 6747,
      "getstringvalue": 6748,
      "Ġfosproperties": 6749,
      "Ġtaginspector": 6750,
      "defaultgraph": 6751,
      "alect": 6752,
      "Ġaudit": 6753,
      "tparameter": 6754,
      "ming": 6755,
      "getftp": 6756,
      "logexception": 6757,
      "mpal": 6758,
      "Ġrootdir": 6759,
      "Ġpiped": 6760,
      "Ġgregoriancalendar": 6761,
      "symbols": 6762,
      "til": 6763,
      "getworker": 6764,
      "ssp": 6765,
      "Ġdon": 6766,
      "Ġgethash": 6767,
      "presentation": 6768,
      "Ġstreamresult": 6769,
      "Ġdirectorypath": 6770,
      "Ġparentdir": 6771,
      "Ġencryption": 6772,
      "Ġround": 6773,
      "cionario": 6774,
      "padding": 6775,
      "Ġlinenumberreader": 6776,
      "/>\");": 6777,
      "ndi": 6778,
      "telefone": 6779,
      "fil": 6780,
      "Ġsxml": 6781,
      "fee": 6782,
      "Ġ500": 6783,
      "Ġship": 6784,
      "disciplin": 6785,
      "Ġencryptpassword": 6786,
      "':": 6787,
      "ium": 6788,
      "known": 6789,
      "setlength": 6790,
      "ctra": 6791,
      "Ġimagefile": 6792,
      "merge": 6793,
      "gentity": 6794,
      "vocationtarge": 6795,
      "vocationtargetexception": 6796,
      "season": 6797,
      "getstart": 6798,
      "Ġzin": 6799,
      "compati": 6800,
      "acle": 6801,
      "Ġtempzip": 6802,
      "Ġactive": 6803,
      "Ġargv": 6804,
      "iversity": 6805,
      "Ġcredit": 6806,
      "Ġspace": 6807,
      "@@": 6808,
      "crc": 6809,
      "getstacktrace": 6810,
      "codegen": 6811,
      "pow": 6812,
      "nerror": 6813,
      "Ġuploadfile": 6814,
      "177": 6815,
      "ak": 6816,
      "hambo": 6817,
      "Ġmen": 6818,
      "sect": 6819,
      "dim": 6820,
      "Ġrequestutils": 6821,
      "parsefloat": 6822,
      "pib": 6823,
      "Ġshare": 6824,
      "Ġrecor": 6825,
      "Ġhead": 6826,
      "depparser": 6827,
      "endofmethod": 6828,
      "hambouser": 6829,
      "getnumberof": 6830,
      "anim": 6831,
      "Ġoutdir": 6832,
      "Ġconv": 6833,
      "vali": 6834,
      "\")),": 6835,
      "Ġ\"'.\");": 6836,
      "sky": 6837,
      "Ġretrie": 6838,
      "Ġstock": 6839,
      "Ġldap": 6840,
      "getjarfile": 6841,
      "Ġ\"\").": 6842,
      "about": 6843,
      "javax": 6844,
      "modifier": 6845,
      "hashed": 6846,
      "Ġtransformerfactory": 6847,
      "Ġnotauthor": 6848,
      "Ġbookkeeprcommunicationexception": 6849,
      "sus": 6850,
      "xtext": 6851,
      "gement": 6852,
      "Ġistatus": 6853,
      "Ġpump": 6854,
      "raft": 6855,
      "zentry": 6856,
      "Ġpossible": 6857,
      "Ġaddr": 6858,
      "corpus": 6859,
      "Ġdatasourceexception": 6860,
      "getsystemresource": 6861,
      "javascript": 6862,
      "\"\".": 6863,
      "pas": 6864,
      "uted": 6865,
      "ames": 6866,
      "buser": 6867,
      "Ġrfileinputstream": 6868,
      "directorypath": 6869,
      "safe": 6870,
      "izar": 6871,
      "margin": 6872,
      "namevaluepairs": 6873,
      "titude": 6874,
      "lelement": 6875,
      "filewriter": 6876,
      "fileloader": 6877,
      "fileupload": 6878,
      "Ġ(-": 6879,
      "Ġoldpath": 6880,
      "Ġtrust": 6881,
      "basename": 6882,
      "Ġdist": 6883,
      "builders": 6884,
      "callback": 6885,
      "Ġbestinitpoints": 6886,
      "Ġpreferences": 6887,
      "Ġvueresources": 6888,
      "aip": 6889,
      "jp": 6890,
      "ux": 6891,
      "fileout": 6892,
      "anning": 6893,
      "ulate": 6894,
      "tof": 6895,
      "Ġwant": 6896,
      "pathname": 6897,
      "standar": 6898,
      "Ġgo": 6899,
      "contentlength": 6900,
      "zipfilename": 6901,
      "myfile": 6902,
      "Ġqname": 6903,
      "Ġ\"','\"": 6904,
      "footer": 6905,
      "phenotype": 6906,
      "Ġswingutilities": 6907,
      "ele": 6908,
      "ste": 6909,
      "getcause": 6910,
      "deleg": 6911,
      "Ġnewfilename": 6912,
      "idden": 6913,
      "Ġmdalgorithm": 6914,
      "Ġdigestbytes": 6915,
      "netmsg": 6916,
      "Ġformattachment": 6917,
      "Ġloop": 6918,
      "Ġdestdirstr": 6919,
      "frost": 6920,
      "Ġcofaxtoolsutil": 6921,
      "etag": 6922,
      "saving": 6923,
      "Ġanswer": 6924,
      "getinput": 6925,
      "dec": 6926,
      "Ġhh": 6927,
      "Ġformparams": 6928,
      "questao": 6929,
      "Ġmessagebox": 6930,
      "holding": 6931,
      "returncode": 6932,
      "Ġtigdatabase": 6933,
      "!\\": 6934,
      "%'": 6935,
      "border": 6936,
      "gl": 6937,
      "Ġcar": 6938,
      "Ġstep": 6939,
      "Ġgetresourceset": 6940,
      "Ġglobal": 6941,
      "rivile": 6942,
      "Ġchat": 6943,
      "Ġtargetresources": 6944,
      "(\".\"))": 6945,
      "Ġstartindex": 6946,
      "rank": 6947,
      "templateuri": 6948,
      "Ġtrimark": 6949,
      "Ġapplicationexception": 6950,
      "fecutils": 6951,
      "Ġincorrect": 6952,
      "ji": 6953,
      "Ġservletcontext": 6954,
      "setfollowredirects": 6955,
      "Ġjis": 6956,
      "doit": 6957,
      "amin": 6958,
      "mainframe": 6959,
      "topic": 6960,
      "cred": 6961,
      "getencoding": 6962,
      "env": 6963,
      "preferred": 6964,
      "Ġstreamioexception": 6965,
      "signed": 6966,
      "renderer": 6967,
      "Ġcert": 6968,
      "mstr": 6969,
      "Ġstringtoken": 6970,
      "setinstance": 6971,
      "setfilename": 6972,
      "ystemp": 6973,
      "dirpath": 6974,
      "iontologia": 6975,
      "tabledata": 6976,
      "Ġnamed": 6977,
      "Ġpsmt": 6978,
      "Ġverify": 6979,
      "Ġboard": 6980,
      "transpose": 6981,
      "documentelement": 6982,
      "Ġstringtokenv": 6983,
      "ios": 6984,
      "nam": 6985,
      "Ġtshor": 6986,
      "toobject": 6987,
      "Ġvec": 6988,
      "Ġjet": 6989,
      "jeto": 6990,
      "Ġgu": 6991,
      "Ġontology": 6992,
      "storefile": 6993,
      "replyto": 6994,
      "Ġspf": 6995,
      "routes": 6996,
      "translationcount": 6997,
      "Ġtshortobjecthashmap": 6998,
      "lc": 6999,
      "Ġ,": 7000,
      "Ġ{\"": 7001,
      "Ġisource": 7002,
      "Ġtreen": 7003,
      "decrypt": 7004,
      "putint": 7005,
      "Ġbf": 7006,
      "ytext": 7007,
      "Ġhand": 7008,
      "channels": 7009,
      "classfile": 7010,
      "maget": 7011,
      "Ġlists": 7012,
      "Ġallowed": 7013,
      "getvend": 7014,
      "roy": 7015,
      "Ġsuc": 7016,
      "pender": 7017,
      "[]>": 7018,
      "truncate": 7019,
      "sales": 7020,
      "midi": 7021,
      "currentdocroot": 7022,
      "Ġswhere": 7023,
      "gramjob": 7024,
      "callproc": 7025,
      "processelement": 7026,
      "tapdoc": 7027,
      "400": 7028,
      "wizard": 7029,
      "Ġï¿½ï¿½": 7030,
      "timpl": 7031,
      "getting": 7032,
      "newuser": 7033,
      "readlen": 7034,
      "Ġbytestring": 7035,
      "Ġol": 7036,
      "Ġlat": 7037,
      "serverurl": 7038,
      "Ġchecked": 7039,
      "getattributes": 7040,
      "/\"));": 7041,
      "ben": 7042,
      "nurl": 7043,
      "Ġcand": 7044,
      "Ġsf": 7045,
      "Ġcover": 7046,
      "stand": 7047,
      "Ġoutputlist": 7048,
      "chargement": 7049,
      "ymmetric": 7050,
      "bais": 7051,
      "Ġlocalfile": 7052,
      "native": 7053,
      "atividade": 7054,
      "medium": 7055,
      "protection": 7056,
      "ehive": 7057,
      "defined": 7058,
      "Ġftpfile": 7059,
      "icons": 7060,
      "Ġcodec": 7061,
      "packagename": 7062,
      "Ġattemp": 7063,
      "ispro": 7064,
      "migration": 7065,
      "500": 7066,
      "ii": 7067,
      "ito": 7068,
      "asy": 7069,
      "Ġwm": 7070,
      "Ġlogmanager": 7071,
      "())))": 7072,
      "Ġactionform": 7073,
      "Ġlaunch": 7074,
      "Ġtemporaryfile": 7075,
      "indb": 7076,
      "getxml": 7077,
      "Ġurlclassloader": 7078,
      "Ġwait": 7079,
      "(\"/\"": 7080,
      "commands": 7081,
      "replyworker": 7082,
      "ification": 7083,
      "smsgw": 7084,
      "inuse": 7085,
      "incre": 7086,
      "getlogin": 7087,
      "getautocommit": 7088,
      "Ġft": 7089,
      "Ġmt": 7090,
      "Ġdescri": 7091,
      "pachy": 7092,
      "Ġfactor": 7093,
      "adom": 7094,
      "graphview": 7095,
      "jampal": 7096,
      "Ġdefinitions": 7097,
      "Ġsvnworker": 7098,
      "'\",": 7099,
      "Ġnt": 7100,
      "Ġlevel": 7101,
      "tera": 7102,
      "Ġfilestream": 7103,
      "Ġinternal": 7104,
      "sourceutils": 7105,
      "amma": 7106,
      "pol": 7107,
      "strurl": 7108,
      "daily": 7109,
      "Ġupdater": 7110,
      "Ġ\"\\\"]": 7111,
      "Ġ?,\"": 7112,
      "sending": 7113,
      "Ġinitpoints": 7114,
      "Ġjcrnodesource": 7115,
      "getxinterface": 7116,
      "Ġgradientpoint": 7117,
      "Ġfmt": 7118,
      "limpl": 7119,
      "startarg": 7120,
      "Ġxmlquery": 7121,
      "Ġcurrentcoachstr": 7122,
      "Ġtranscode": 7123,
      "Ġimporting": 7124,
      "Ġopcode": 7125,
      "helloworld": 7126,
      "gettclass": 7127,
      "catch": 7128,
      "jlabel": 7129,
      "serror": 7130,
      "Ġconexionbd": 7131,
      "Ġhttpconnection": 7132,
      "diretor": 7133,
      "categor": 7134,
      "Ġstreamsource": 7135,
      "Ġmyurl": 7136,
      "jsonarray": 7137,
      "Ġchannelsrc": 7138,
      "gettimestamp": 7139,
      "Ġsaxbuilder": 7140,
      "Ġattachments": 7141,
      "Ġchangelog": 7142,
      ":\"))": 7143,
      "ite": 7144,
      "kind": 7145,
      "filedir": 7146,
      "getversion": 7147,
      "Ġevt": 7148,
      "Ġine": 7149,
      "toexport": 7150,
      "prot": 7151,
      "Ġgiversrcidx": 7152,
      "Ġtheme": 7153,
      "postfix": 7154,
      "critical": 7155,
      "Ġpasswd": 7156,
      "encryptedpassword": 7157,
      "soundbank": 7158,
      "compatible": 7159,
      "ave": 7160,
      "elem": 7161,
      "stringutil": 7162,
      "lickey": 7163,
      "ischema": 7164,
      "isclosed": 7165,
      "Ġfilenames": 7166,
      "ipexception": 7167,
      "Ġbufsize": 7168,
      "Ġdjatokaexception": 7169,
      "cto": 7170,
      "tered": 7171,
      "Ġslash": 7172,
      "cofaxtools": 7173,
      "Ġrecur": 7174,
      "uplic": 7175,
      "expect": 7176,
      "recor": 7177,
      "Ġmesh": 7178,
      "bits": 7179,
      "Ġcontrol": 7180,
      "Ġpages": 7181,
      "Ġlabe": 7182,
      "Ġwindows": 7183,
      "Ġbasichttp": 7184,
      "codegenplugin": 7185,
      "pad": 7186,
      "additional": 7187,
      "velope": 7188,
      "Ġgetdata": 7189,
      "Ġreadable": 7190,
      "servicefactory": 7191,
      "Ġupdates": 7192,
      "loade": 7193,
      "lobj": 7194,
      "migrator": 7195,
      "fon": 7196,
      "xc": 7197,
      "Ê§": 7198,
      "resentity": 7199,
      "Ġits": 7200,
      "getdocumentelement": 7201,
      "(\"@": 7202,
      "ntries": 7203,
      "Ġinp": 7204,
      "Ġsam": 7205,
      "readlength": 7206,
      "setoutput": 7207,
      "Ġurlpath": 7208,
      "Ġdeta": 7209,
      "bucket": 7210,
      "Ġ15": 7211,
      "movies": 7212,
      "caughtexception": 7213,
      "Ġdisk": 7214,
      "parentdirectory": 7215,
      "Ġgraphics": 7216,
      "returnval": 7217,
      "slo": 7218,
      "ceton": 7219,
      "digraph": 7220,
      "ups": 7221,
      "Ġgetpassword": 7222,
      "Ġlst": 7223,
      "atorio": 7224,
      "Ġzipfilename": 7225,
      "Ġ\"\\\"]/": 7226,
      "proxyport": 7227,
      "Ġprinceton": 7228,
      "Ġhibernate": 7229,
      "?,?)\");": 7230,
      "sage": 7231,
      "sand": 7232,
      "getprimarykey": 7233,
      "Ġ\"\".": 7234,
      "dialect": 7235,
      "Ġoutp": 7236,
      "mplementation": 7237,
      "Ġdstfile": 7238,
      "jsonstring": 7239,
      "Ġopenconnection": 7240,
      "Ġphd": 7241,
      "executionexception": 7242,
      "aminho": 7243,
      "har": 7244,
      "chk": 7245,
      "pex": 7246,
      "Ġdef": 7247,
      "datefrom": 7248,
      "binding": 7249,
      "sorted": 7250,
      "Ġeventtype": 7251,
      "getchildren": 7252,
      "plot": 7253,
      "zi": 7254,
      "Ġum": 7255,
      "fiscal": 7256,
      "Ġcislo": 7257,
      "dium": 7258,
      "umread": 7259,
      "pok": 7260,
      "Ġpreview": 7261,
      "Ġtempopenxmldocument": 7262,
      "Ġstatusline": 7263,
      "ifp": 7264,
      "getide": 7265,
      "fcp": 7266,
      "realmuser": 7267,
      "Ġalignsrccand": 7268,
      "Ġarguments": 7269,
      "Ġedge": 7270,
      "productivityrequirementdtos": 7271,
      "igen": 7272,
      "jcr": 7273,
      "tiationexception": 7274,
      "fileurl": 7275,
      "Ġfon": 7276,
      "cone": 7277,
      "setcharacterencoding": 7278,
      "Ġrv": 7279,
      "qualifi": 7280,
      "Ġgetresponse": 7281,
      "should": 7282,
      "deployment": 7283,
      "funcionario": 7284,
      "edi": 7285,
      "qt": 7286,
      "stringbuffer": 7287,
      "dioexception": 7288,
      "construct": 7289,
      "writeto": 7290,
      "logfile": 7291,
      "Ġrpc": 7292,
      "Ġzot": 7293,
      "Ġhashtext": 7294,
      "objectname": 7295,
      "finer": 7296,
      "referer": 7297,
      "Ġupdatestatus": 7298,
      "Ġvars": 7299,
      "setinstancefollowredirects": 7300,
      "ka": 7301,
      "vue": 7302,
      ");\"": 7303,
      "fimage": 7304,
      "ors": 7305,
      "Ġfiledest": 7306,
      "readsheet": 7307,
      "assertequals": 7308,
      "Ġfix": 7309,
      "sqle": 7310,
      "Ġnomb": 7311,
      "Ġacc": 7312,
      "getidentifier": 7313,
      "Ġrsettools": 7314,
      "gd": 7315,
      "mx": 7316,
      "rxml": 7317,
      "tint": 7318,
      "Ġ\"}": 7319,
      "Ġfilestringlist": 7320,
      "sparser": 7321,
      "proced": 7322,
      "Ġ:=": 7323,
      "resul": 7324,
      "authtoken": 7325,
      "Ġroo": 7326,
      "Ġtotalread": 7327,
      "Ġjetemitter": 7328,
      "stemplate": 7329,
      "Ġlatestversion": 7330,
      "Ġgeroni": 7331,
      "ofobs": 7332,
      "Ġfaulttype": 7333,
      "Ġjetcompiler": 7334,
      "nr": 7335,
      "pw": 7336,
      "tos": 7337,
      "proj": 7338,
      "mous": 7339,
      "Ġzer": 7340,
      "undles": 7341,
      "Ġvia": 7342,
      "123456": 7343,
      "getextension": 7344,
      "onymous": 7345,
      "Ġautocommit": 7346,
      "gn": 7347,
      "vv": 7348,
      "xa": 7349,
      "Ġroll": 7350,
      "inmillis": 7351,
      "exchange": 7352,
      "Ġcols": 7353,
      "itude": 7354,
      "Ġsourcefiles": 7355,
      "Ġmail": 7356,
      "getstringproperty": 7357,
      "Ġcurrentcolumn": 7358,
      "ymmdd": 7359,
      "Ġauthsession": 7360,
      "wsdl": 7361,
      "Ġneed": 7362,
      "Ġprincipal": 7363,
      "converged": 7364,
      "Ġmalformed": 7365,
      "Ġquantidadederegistro": 7366,
      "*\",": 7367,
      "getresult": 7368,
      "att": 7369,
      "readonly": 7370,
      "Ġrb": 7371,
      "Ġuniversity": 7372,
      "Ġstrline": 7373,
      "graphics": 7374,
      "Ġspanning": 7375,
      "hibernate": 7376,
      "Ġtid": 7377,
      "Ġfileentry": 7378,
      "Ġconsedout": 7379,
      "Ġintron": 7380,
      "istori": 7381,
      "dslocation": 7382,
      "indexcounter": 7383,
      "Ġsrcc": 7384,
      "Ġmethodname": 7385,
      "dating": 7386,
      "Ġlec": 7387,
      "organizationname": 7388,
      "lapsed": 7389,
      "executing": 7390,
      "birth": 7391,
      "newsaxparser": 7392,
      "connectionexception": 7393,
      "Ġzoom": 7394,
      "Ġgad": 7395,
      "httpconn": 7396,
      "mdp": 7397,
      "servation": 7398,
      "quivo": 7399,
      "Ġupdatesql": 7400,
      "definitions": 7401,
      "Ġfrm": 7402,
      "sive": 7403,
      "jection": 7404,
      "valuedecomposition": 7405,
      "../": 7406,
      "finance": 7407,
      "parentpath": 7408,
      "getis": 7409,
      "chemical": 7410,
      "setend": 7411,
      "self": 7412,
      "braille": 7413,
      "minutes": 7414,
      "ameterindex": 7415,
      "39": 7416,
      "xecution": 7417,
      "zy": 7418,
      "Ġcell": 7419,
      "Ġban": 7420,
      "Ġsong": 7421,
      "lists": 7422,
      "zipoutputstream": 7423,
      "targeturl": 7424,
      "showconfirm": 7425,
      "Ġcharac": 7426,
      "Ġendtime": 7427,
      "plat": 7428,
      "showconfirmdialog": 7429,
      "iny": 7430,
      "sthash": 7431,
      "taction": 7432,
      "dateto": 7433,
      "Ġseale": 7434,
      "colun": 7435,
      "Ġstreamblock": 7436,
      "Ġjaroutstream": 7437,
      "Ġcountry": 7438,
      "Ġrowobject": 7439,
      "Ġdatatable": 7440,
      "Ġmultipart": 7441,
      "limitsthash": 7442,
      "Ġmetadoc": 7443,
      "manufacturing": 7444,
      "zis": 7445,
      "cend": 7446,
      "getnome": 7447,
      "putshort": 7448,
      "Ġslave": 7449,
      "readbyte": 7450,
      "enumeration": 7451,
      "Ġ10000": 7452,
      "Ġtruncate": 7453,
      "Ġgate": 7454,
      "counts": 7455,
      "constantp": 7456,
      "Ġuserinfo": 7457,
      "compressor": 7458,
      "Ġpkg": 7459,
      "httpexception": 7460,
      "!!\");": 7461,
      "(\\\"": 7462,
      "Ġtermin": 7463,
      "getbody": 7464,
      "Ġclasses": 7465,
      "messageid": 7466,
      "Ġsent": 7467,
      "Ġoutputcreator": 7468,
      "Ġunique": 7469,
      "Ġclientprotocolexception": 7470,
      "taskname": 7471,
      "gettotal": 7472,
      "Ġbufferedinput": 7473,
      "virt": 7474,
      "Ġdocumen": 7475,
      "Ġdestoutfile": 7476,
      "Ġchk": 7477,
      "quick": 7478,
      "Ġprepare": 7479,
      "(\".\")": 7480,
      "getfilesize": 7481,
      "enclosing": 7482,
      "getcheckoutpath": 7483,
      "forwebchooser": 7484,
      "virtual": 7485,
      "Ġiv": 7486,
      "()/": 7487,
      "Ġbtn": 7488,
      "tau": 7489,
      "Ġwished": 7490,
      "submatrix": 7491,
      "colle": 7492,
      "actionrequest": 7493,
      "nodeid": 7494,
      "Ġregistered": 7495,
      "Ġrag": 7496,
      "teditem": 7497,
      "Ġuriontologia": 7498,
      "/*.": 7499,
      "arrayrightdivideequals": 7500,
      "selecteditem": 7501,
      "Ġtreenr": 7502,
      "*)": 7503,
      "lon": 7504,
      "municip": 7505,
      "getmax": 7506,
      "getamount": 7507,
      "urname": 7508,
      "anager": 7509,
      "Ġnm": 7510,
      "Ġurlin": 7511,
      "some": 7512,
      "asystem": 7513,
      "clientprotocolexception": 7514,
      "have": 7515,
      "Ġaccept": 7516,
      "baout": 7517,
      "sortie": 7518,
      "Ġcallback": 7519,
      "randomuuid": 7520,
      "trustmanager": 7521,
      "mis": 7522,
      "zin": 7523,
      "deser": 7524,
      "limage": 7525,
      "uevo": 7526,
      "uploadexception": 7527,
      "ilexception": 7528,
      "Ġoupd": 7529,
      "codprod": 7530,
      "Ġbasefont": 7531,
      "('\"": 7532,
      "Ġmyport": 7533,
      "Ġtexture": 7534,
      "booleanvalue": 7535,
      "Ġbasicprocessor": 7536,
      "Ġprepstatement": 7537,
      "standard": 7538,
      "deserr": 7539,
      "Ġoupdt": 7540,
      "Ġter": 7541,
      "Ġinser": 7542,
      "Ġsdf": 7543,
      "ues": 7544,
      "vest": 7545,
      "osw": 7546,
      "elater": 7547,
      "Ġxmloutput": 7548,
      "Ġpostdata": 7549,
      "Ġfee": 7550,
      "Ġconstraints": 7551,
      "invokelater": 7552,
      "iden": 7553,
      "dedobject": 7554,
      "Ġear": 7555,
      "lop": 7556,
      "pec": 7557,
      "listof": 7558,
      "addattribute": 7559,
      "directoryfolder": 7560,
      "shot": 7561,
      "Ġhashword": 7562,
      "Ġjobid": 7563,
      "Ġdatum": 7564,
      "spanel": 7565,
      "Ġbusiness": 7566,
      "Ġassoc": 7567,
      "seasonnum": 7568,
      "su": 7569,
      "scenario": 7570,
      "getd": 7571,
      "getdouble": 7572,
      "ingh": 7573,
      "direction": 7574,
      "getvalues": 7575,
      "packages": 7576,
      "Ġgeneral": 7577,
      "candidates": 7578,
      "procedure": 7579,
      "getreader": 7580,
      "isabsolute": 7581,
      "databuff": 7582,
      "android": 7583,
      "Ġresponseheader": 7584,
      "Ġuploading": 7585,
      "room": 7586,
      "Ġrenderer": 7587,
      "venda": 7588,
      "Ġbuttonimagen": 7589,
      "Ġauthenticator": 7590,
      "lv": 7591,
      "wh": 7592,
      "||": 7593,
      "uth": 7594,
      "geta": 7595,
      "Ġssep": 7596,
      "Ġcopyright": 7597,
      "Ġassertfalse": 7598,
      "graphic": 7599,
      "cyc": 7600,
      "Ġpersistenceexception": 7601,
      "Ġslashindex": 7602,
      "Ġ})": 7603,
      "rie": 7604,
      "Ġfann": 7605,
      "setlevel": 7606,
      "sobn": 7607,
      "Ġjwebdav": 7608,
      "Ġdeleting": 7609,
      "otmp": 7610,
      "userpassword": 7611,
      "outputformat": 7612,
      "Ġimagen": 7613,
      "Ġtempunit": 7614,
      "=\\\"**": 7615,
      "Ġjarpath": 7616,
      "sensitive": 7617,
      "Ġlocations": 7618,
      "contigs": 7619,
      "Ġpdfreader": 7620,
      "Ġamounttoread": 7621,
      "Ġsplitsize": 7622,
      "segments": 7623,
      "Ġsegmentheaders": 7624,
      "Ġsslcontext": 7625,
      "soffilename": 7626,
      "researching": 7627,
      "Ġfuncoes": 7628,
      "Ġbatnabuildingtime": 7629,
      "Ġproductivity": 7630,
      "yyyymmdd": 7631,
      "mostatnaprace": 7632,
      "corpusarray": 7633,
      "cofaxtoolsftp": 7634,
      "=\\\"**/*.": 7635,
      "orces": 7636,
      "Ġfileinput": 7637,
      "Ġredirect": 7638,
      "enable": 7639,
      "pathdst": 7640,
      "desttillcnt": 7641,
      "--\");": 7642,
      "icial": 7643,
      "Ġface": 7644,
      "resorces": 7645,
      "Ġstatements": 7646,
      "...\\": 7647,
      "(\"-\");": 7648,
      "Ġseatstart": 7649,
      "Ġartifact": 7650,
      "existing": 7651,
      "sff": 7652,
      "Ġ99": 7653,
      "Ġfileupload": 7654,
      "ulator": 7655,
      "Ġsig": 7656,
      "isblank": 7657,
      "fromfilename": 7658,
      "Ġdimension": 7659,
      "Ġappserviceimpl": 7660,
      "operationexception": 7661,
      "Ġallele": 7662,
      "frequency": 7663,
      "ide": 7664,
      "tribution": 7665,
      "acity": 7666,
      "notfound": 7667,
      "Ġ\")\"": 7668,
      "Ġaplic": 7669,
      "Ġpackageclasslist": 7670,
      "tprovider": 7671,
      "choice": 7672,
      "Ġgiven": 7673,
      "Ġrateuser": 7674,
      "Ġstringentity": 7675,
      "kup": 7676,
      "algo": 7677,
      "Ġinternalerror": 7678,
      "setbytes": 7679,
      "Ġstamp": 7680,
      "Ġgettext": 7681,
      "fld": 7682,
      "partamento": 7683,
      "Ġexecuteprocess": 7684,
      "gregoriancalendar": 7685,
      "Ġ2048": 7686,
      "ield": 7687,
      "ilab": 7688,
      "ssha": 7689,
      "Ġcoords": 7690,
      "connections": 7691,
      "tential": 7692,
      "Ġxade": 7693,
      "archiv": 7694,
      "aturefacet": 7695,
      "999": 7696,
      "ativo": 7697,
      "getchildnodes": 7698,
      "Ġsmall": 7699,
      "ssignaturefacet": 7700,
      "ilability": 7701,
      "pde": 7702,
      "getinode": 7703,
      "Ġcrc": 7704,
      "Ġjs": 7705,
      "\\\"\"": 7706,
      "Ġhashstring": 7707,
      "Ġalph": 7708,
      "encodebase": 7709,
      "isequal": 7710,
      "increment": 7711,
      "card": 7712,
      "jme": 7713,
      "Ġagent": 7714,
      "leto": 7715,
      "Ġepisode": 7716,
      "Ġbread": 7717,
      "tour": 7718,
      "Ġsystemid": 7719,
      "webxml": 7720,
      "Ġconfigurationexception": 7721,
      "Ġmerge": 7722,
      "Ġjcfs": 7723,
      "';": 7724,
      "+\");": 7725,
      "66": 7726,
      "dht": 7727,
      "tml": 7728,
      "Ġstringbody": 7729,
      "Ġmdigest": 7730,
      "Ġmgr": 7731,
      "copyandclose": 7732,
      "belement": 7733,
      "Ġmaps": 7734,
      "targetpath": 7735,
      "retina": 7736,
      "Ġhose": 7737,
      "cala": 7738,
      "floatvalue": 7739,
      "modules": 7740,
      "fichero": 7741,
      "Ġrelativepath": 7742,
      "Ġreceiver": 7743,
      "infoarray": 7744,
      "Ġsuccessful": 7745,
      "Ġcreatetable": 7746,
      "Ġtimeslot": 7747,
      "packagefragmentroot": 7748,
      "Ġroute": 7749,
      "visitor": 7750,
      "Ġtimeslottracker": 7751,
      "2000": 7752,
      "eval": 7753,
      "lg": 7754,
      "nump": 7755,
      "tcp": 7756,
      "Ġconti": 7757,
      "texture": 7758,
      "Ġxr": 7759,
      "Ġdisc": 7760,
      "sensus": 7761,
      "ecutable": 7762,
      "Ġhttpexception": 7763,
      "pipeline": 7764,
      "getmodel": 7765,
      "Ġcap": 7766,
      "anonymous": 7767,
      "Ġfd": 7768,
      "Ġdraw": 7769,
      "ctxt": 7770,
      "sit": 7771,
      "splugin": 7772,
      "Ġstand": 7773,
      "unavailable": 7774,
      "Ġgetvalue": 7775,
      "mething": 7776,
      "validating": 7777,
      "Ġcharacter": 7778,
      "troller": 7779,
      "xid": 7780,
      "filefrom": 7781,
      "getbinary": 7782,
      "alida": 7783,
      "rot": 7784,
      "Ġndx": 7785,
      "readint": 7786,
      "readbuffer": 7787,
      "valicon": 7788,
      "Ġofile": 7789,
      "oolinfo": 7790,
      "Ġprog": 7791,
      "\")[": 7792,
      "Ġthestring": 7793,
      "optionbuilder": 7794,
      "Ġalbu": 7795,
      "Ġexclu": 7796,
      "fixed": 7797,
      "Ġtestcopy": 7798,
      "Ġgetimage": 7799,
      "Ġiconfilename": 7800,
      "managesources": 7801,
      "Ġcommandlineoptionbuilder": 7802,
      "Ġclsname": 7803,
      "averages": 7804,
      "Ġpnid": 7805,
      "valicontroller": 7806,
      "76": 7807,
      "closing": 7808,
      "inhe": 7809,
      "getphone": 7810,
      "Ġnature": 7811,
      "simage": 7812,
      "dexecutor": 7813,
      "Ġjarout": 7814,
      "Ġvertex": 7815,
      "Ġendindex": 7816,
      "Ġgroups": 7817,
      "synchr": 7818,
      "Ġretrievecommand": 7819,
      "socketprovider": 7820,
      "Ġfriends": 7821,
      "Ġprincipleclass": 7822,
      "Ġearfile": 7823,
      "inheiro": 7824,
      "5000": 7825,
      ">\"));": 7826,
      ">\").": 7827,
      "Ġinclude": 7828,
      "Ġifolder": 7829,
      "span": 7830,
      "isnot": 7831,
      "Ġombox": 7832,
      "availability": 7833,
      "untar": 7834,
      "strline": 7835,
      "tente": 7836,
      "modificado": 7837,
      "lanil": 7838,
      "scriptfile": 7839,
      "Ġserverutils": 7840,
      "solr": 7841,
      "mimemessage": 7842,
      "Ġ\";\");": 7843,
      "Ġsubject": 7844,
      "ultiservicefactory": 7845,
      "setpropertyvalue": 7846,
      "blueprint": 7847,
      "setlayoutdata": 7848,
      "nnws": 7849,
      "onen": 7850,
      "ondisk": 7851,
      "merexception": 7852,
      "getcell": 7853,
      "putarchiveentry": 7854,
      "Ġeasy": 7855,
      "closearchiveentry": 7856,
      "Ġ==================================": 7857,
      "tempopenxmldocument": 7858,
      "Ġselection": 7859,
      "Ġll": 7860,
      "Ġtemppptx": 7861,
      "dbname": 7862,
      "autor": 7863,
      "picture": 7864,
      "bodypart": 7865,
      "ridge": 7866,
      "Ġbuilders": 7867,
      "Ġaddressbuffer": 7868,
      "trying": 7869,
      "Ġcoreproperties": 7870,
      "getnoof": 7871,
      "cotlibrary": 7872,
      "=======\");": 7873,
      "sortielog": 7874,
      "getnoofpersons": 7875,
      ".);": 7876,
      "inet": 7877,
      "neo": 7878,
      "getaudit": 7879,
      "Ġsurl": 7880,
      "Ġmue": 7881,
      "unmarsh": 7882,
      "pointer": 7883,
      "Ġresponsemodificationdefinition": 7884,
      "withou": 7885,
      "flushbuffer": 7886,
      "Ġkrb": 7887,
      "Ġcombine": 7888,
      "pilotdata": 7889,
      "clusion": 7890,
      "Ġ50": 7891,
      "Ġabsolute": 7892,
      "capital": 7893,
      "Ġ\"___": 7894,
      "___\",": 7895,
      "setimage": 7896,
      "campos": 7897,
      "getquerystring": 7898,
      "Ġstarted": 7899,
      "storedproc": 7900,
      "giveresourceset": 7901,
      "science": 7902,
      "Ġcompiler": 7903,
      "Ġassocview": 7904,
      "fw": 7905,
      "getblocksize": 7906,
      "Ġprequest": 7907,
      "Ġbs": 7908,
      "Ġgetdocument": 7909,
      "edor": 7910,
      "projects": 7911,
      "Ġtables": 7912,
      "Ġatta": 7913,
      "vocationsschemaandtablename": 7914,
      "mproperties": 7915,
      "Ġcfg": 7916,
      "Ġtrigger": 7917,
      "42": 7918,
      "ddy": 7919,
      "Ġï¿½": 7920,
      "residency": 7921,
      "getpre": 7922,
      "getstate": 7923,
      "Ġbra": 7924,
      "riel": 7925,
      "ulary": 7926,
      "Ġduration": 7927,
      "Ġvbolsa": 7928,
      "Ġdeadline": 7929,
      "fac": 7930,
      "writervisitorexception": 7931,
      "addcategory": 7932,
      "Ġhttpsession": 7933,
      "copyname": 7934,
      "strate": 7935,
      "Ġzipoutput": 7936,
      "Ġtmpdmsrelationalword": 7937,
      "special": 7938,
      "searchtype": 7939,
      "proxyhost": 7940,
      "Ġfeature": 7941,
      "getexternal": 7942,
      "Ġstopwritervisitorexception": 7943,
      "cabulary": 7944,
      "Ġvelocitycontext": 7945,
      "07": 7946,
      "nosuch": 7947,
      "pst": 7948,
      "Ġ\"))": 7949,
      "xmloutput": 7950,
      "machine": 7951,
      "httpmethod": 7952,
      "Ġtempdirectory": 7953,
      "bytearrayoutputstream": 7954,
      "Ġ128": 7955,
      "authorized": 7956,
      "getconexion": 7957,
      "tobj": 7958,
      "custom": 7959,
      "wrong": 7960,
      "inline": 7961,
      "tities": 7962,
      "orno": 7963,
      "dered": 7964,
      "Ġhalfbyte": 7965,
      "Ġjf": 7966,
      "Ġdesktop": 7967,
      "propri": 7968,
      "its": 7969,
      "Ġresultcount": 7970,
      "Ġclassstream": 7971,
      "clone": 7972,
      "installclass": 7973,
      "Ġquality": 7974,
      "'));": 7975,
      "'>\");": 7976,
      "?)": 7977,
      "lack": 7978,
      "rclass": 7979,
      "sqlite": 7980,
      "zipout": 7981,
      "Ġimagesize": 7982,
      "pivot": 7983,
      "bypath": 7984,
      "curr": 7985,
      "datat": 7986,
      "Ġopening": 7987,
      "instal": 7988,
      "cellvalue": 7989,
      "('/');": 7990,
      "depth": 7991,
      "Ġestimate": 7992,
      "nuevo": 7993,
      "Ġutility": 7994,
      "tevent": 7995,
      "already": 7996,
      "(\"==========": 7997,
      "const": 7998,
      "toinsert": 7999,
      "ket": 8000,
      "Ġlcontext": 8001,
      "nextbytes": 8002,
      "useda": 8003,
      "Ġunknown": 8004,
      "impor": 8005,
      "pluginversion": 8006,
      "Ġprogressdialog": 8007,
      "Ġdisconnect": 8008,
      "Ġconverter": 8009,
      "tauoverview": 8010,
      "Ġlcontextinfo": 8011,
      "usedarea": 8012,
      "tout": 8013,
      "fit": 8014,
      "Ġinvoke": 8015,
      "setso": 8016,
      "Ġconexao": 8017,
      "undefined": 8018,
      "responseheader": 8019,
      "createzip": 8020,
      "Ġcopyfiles": 8021,
      "parsed": 8022,
      "targetlocation": 8023,
      "Ġwriteto": 8024,
      "Ġgeo": 8025,
      "acecontig": 8026,
      "Ġwrtout": 8027,
      "++++++": 8028,
      "controler": 8029,
      "Ġdirectives": 8030,
      "setnamespace": 8031,
      "Ġurlstream": 8032,
      "example": 8033,
      "zelement": 8034,
      "Ġlogs": 8035,
      "vir": 8036,
      "srcpath": 8037,
      "composite": 8038,
      "hasher": 8039,
      "icislo": 8040,
      "Ġxmlutils": 8041,
      "Ġitk": 8042,
      "Ġdefaultudp": 8043,
      "Ġusefilename": 8044,
      "doneheader": 8045,
      "clearparameters": 8046,
      "Ġtrait": 8047,
      "pnid": 8048,
      "Ġ\")(": 8049,
      "conffile": 8050,
      "movietoprocess": 8051,
      "Ġmoviediffstats": 8052,
      "basedirstr": 8053,
      "Ġcustomerstoprocess": 8054,
      "Ġactualratings": 8055,
      "Ġmarkerssdf": 8056,
      "small": 8057,
      "?,?)\";": 8058,
      "zdano": 8059,
      "Ġharness": 8060,
      "getvendcontext": 8061,
      "pokus": 8062,
      "sobnicislo": 8063,
      "zelementu": 8064,
      "icodemp": 8065,
      "pho": 8066,
      "reur": 8067,
      "Ġfilestatus": 8068,
      "Ġnpe": 8069,
      "Ġsanger": 8070,
      "mpi": 8071,
      "datautils": 8072,
      "httpsession": 8073,
      "Ġcopyresource": 8074,
      "Ġbeehive": 8075,
      "ontus": 8076,
      "lationutility": 8077,
      "gethostname": 8078,
      "two": 8079,
      "Ġcompletepath": 8080,
      "ssource": 8081,
      "Ġfichero": 8082,
      "ranslationutility": 8083,
      "Ġaplicativo": 8084,
      "browser": 8085,
      "fered": 8086,
      "Ġlet": 8087,
      "tele": 8088,
      "Ġevalu": 8089,
      "Ġssource": 8090,
      "writeattribute": 8091,
      "digestalgorithm": 8092,
      "Ġ'_": 8093,
      "Ġcurrentrow": 8094,
      "Ġjasper": 8095,
      "authority": 8096,
      "diretorio": 8097,
      "37": 8098,
      "mnew": 8099,
      "Ð°": 8100,
      "Ġnet": 8101,
      "nentry": 8102,
      "latitude": 8103,
      "Ġcondition": 8104,
      "unsupported": 8105,
      "bytechannel": 8106,
      "Ġhttphost": 8107,
      "Ġresponsebody": 8108,
      "completed": 8109,
      "Ġtargetpath": 8110,
      "(\"/\"));": 8111,
      "getpathinfo": 8112,
      "datapro": 8113,
      "scafe": 8114,
      "aware": 8115,
      "Ġwritablechannel": 8116,
      "Ġnotauthorized": 8117,
      "!\";": 8118,
      "bility": 8119,
      "jdom": 8120,
      "nn": 8121,
      "seek": 8122,
      "fitem": 8123,
      "Ġsas": 8124,
      "Ġconsole": 8125,
      "isin": 8126,
      "expi": 8127,
      "cessor": 8128,
      "Ġcopymode": 8129,
      "imagenes": 8130,
      "mic": 8131,
      "=\\\"#": 8132,
      "Ġligne": 8133,
      "Ġserviceexception": 8134,
      "Ġ\")\";": 8135,
      "Ġargument": 8136,
      "wasnull": 8137,
      "reverselookupsite": 8138,
      "Ġhbsession": 8139,
      "withoutext": 8140,
      "Ġsaslexception": 8141,
      "cis": 8142,
      "please": 8143,
      "indata": 8144,
      "lesky": 8145,
      "readcount": 8146,
      "Ġdt": 8147,
      "english": 8148,
      "Ġreadsize": 8149,
      "filesdir": 8150,
      "Ġdocx": 8151,
      "throwing": 8152,
      "ventid": 8153,
      "Ġseatupdstr": 8154,
      "directorio": 8155,
      "getnextjarentry": 8156,
      "Ġsocketexception": 8157,
      "uplicate": 8158,
      "20000": 8159,
      "btn": 8160,
      "frome": 8161,
      "Ġcuri": 8162,
      "Ġctxt": 8163,
      "stringvalue": 8164,
      "Ġdfos": 8165,
      "Ġmaterial": 8166,
      "Ġconst": 8167,
      "dsmime": 8168,
      "postal": 8169,
      "replacefirst": 8170,
      "folderpath": 8171,
      "Ġcomposite": 8172,
      "Ġtablemetadata": 8173,
      "criteria": 8174,
      "Ġpilot": 8175,
      "****************": 8176,
      "cdk": 8177,
      "artifact": 8178,
      "Ġxslt": 8179,
      "attempted": 8180,
      "nservervo": 8181,
      "Ġctxtnode": 8182,
      "ĠÐ": 8183,
      "getactive": 8184,
      "orstream": 8185,
      "Ġact": 8186,
      "\\\";": 8187,
      "Ġdestfilename": 8188,
      "Ġzero": 8189,
      "xmlhandler": 8190,
      "activ": 8191,
      "havi": 8192,
      "setrequestentity": 8193,
      "Ġbinding": 8194,
      "Ġjsonstring": 8195,
      "Ġimplementation": 8196,
      "ugador": 8197,
      "Ġapiresponse": 8198,
      "Ġnormal": 8199,
      "ftovers": 8200,
      "rp": 8201,
      "sid": 8202,
      "tip": 8203,
      "getcity": 8204,
      "Ġcli": 8205,
      "Ġ\"*": 8206,
      "(\"?": 8207,
      "Ġbid": 8208,
      "channe": 8209,
      "dok": 8210,
      "Ġdatastore": 8211,
      "rivain": 8212,
      "Ġvals": 8213,
      "setrequestheader": 8214,
      "Ġprocessing": 8215,
      "Ġpagecontext": 8216,
      "Ġleftovers": 8217,
      "descriptorlocation": 8218,
      "Ġtintbytehashmap": 8219,
      "Ġplaylist": 8220,
      "Ġgestorcliente": 8221,
      "Ġlecrivain": 8222,
      "58": 8223,
      "az": 8224,
      "hand": 8225,
      "fileexception": 8226,
      "getattr": 8227,
      "Ġsni": 8228,
      "Ġoutfilename": 8229,
      "topi": 8230,
      "sible": 8231,
      "Ġvarchar": 8232,
      "Ġdoi": 8233,
      "Ġoutputs": 8234,
      "actionperformed": 8235,
      "moni": 8236,
      "nodeset": 8237,
      "implement": 8238,
      "Ġnumero": 8239,
      "bitmap": 8240,
      "remoteuser": 8241,
      "jective": 8242,
      "findforward": 8243,
      "Ġfontname": 8244,
      "('/')": 8245,
      "mediafile": 8246,
      "thumbnail": 8247,
      "addrequestheader": 8248,
      "bidden": 8249,
      "Ġhttpsurlconnection": 8250,
      "Ġsniff": 8251,
      "'\").": 8252,
      "cb": 8253,
      "(\"^": 8254,
      "Ġfco": 8255,
      "Ġdas": 8256,
      "Ġgetinputstream": 8257,
      "Ġgri": 8258,
      "docbook": 8259,
      "Ġdatetime": 8260,
      "doublevalue": 8261,
      "whitespace": 8262,
      "?)\";": 8263,
      "bpart": 8264,
      "lator": 8265,
      "pic": 8266,
      "rgb": 8267,
      "Ġutf": 8268,
      "online": 8269,
      "fice": 8270,
      "Ġfedora": 8271,
      "urlpath": 8272,
      "setsource": 8273,
      "setlocation": 8274,
      "lencoding": 8275,
      "aplanil": 8276,
      "uminstr": 8277,
      "moved": 8278,
      "edname": 8279,
      "odaplanil": 8280,
      "responsestate": 8281,
      "mdinheiro": 8282,
      "ventose": 8283,
      "Ġparsed": 8284,
      "Ġ\"':": 8285,
      "Ġwriteword": 8286,
      "Ġgeten": 8287,
      "Ġdownloadlink": 8288,
      "bak": 8289,
      "dstdir": 8290,
      "mmss": 8291,
      "initialization": 8292,
      "sproventose": 8293,
      "pkcs": 8294,
      "Ġcndef": 8295,
      "annotationrecord": 8296,
      "combinemode": 8297,
      "hadosproventose": 8298,
      "isnotblank": 8299,
      "bpartner": 8300,
      "odaplanilhadosproventose": 8301,
      "odaplanilhadosproventosemdinheiro": 8302,
      "glo": 8303,
      "hook": 8304,
      "qsim": 8305,
      "âĢ": 8306,
      "resho": 8307,
      "readed": 8308,
      "erreur": 8309,
      "Ġ(?,?,?,?,": 8310,
      "Ġimaget": 8311,
      "gettile": 8312,
      "newgen": 8313,
      "stringorstream": 8314,
      "Ġbytewriter": 8315,
      "keren": 8316,
      "Ġsourcedir": 8317,
      "chedocument": 8318,
      "Ġxos": 8319,
      "Ġftpdetails": 8320,
      "crystal": 8321,
      "Ġmybw": 8322,
      "Ġholding": 8323,
      "materialdtos": 8324,
      "nowled": 8325,
      "friend": 8326,
      "getvlr": 8327,
      "Ġjarnamewithoutext": 8328,
      "Ġcrit": 8329,
      "Ġbroker": 8330,
      "Ġretrieving": 8331,
      "oint": 8332,
      "indatabase": 8333,
      "second": 8334,
      "gety": 8335,
      "Ġvis": 8336,
      "Ġreturnvalue": 8337,
      "Ġ13": 8338,
      "Ġour": 8339,
      "Ġsection": 8340,
      "mentitem": 8341,
      "imagename": 8342,
      "Ġaddsignaturefacet": 8343,
      "callin": 8344,
      "Ġsense": 8345,
      "270": 8346,
      "sate": 8347,
      "Ġ\"################################": 8348,
      "Ġssql": 8349,
      "thandler": 8350,
      "Ġconversion": 8351,
      "isnull": 8352,
      "formatted": 8353,
      "encodehex": 8354,
      "Ġcompute": 8355,
      "transactions": 8356,
      "ugar": 8357,
      "Ġcnx": 8358,
      "Ġcontenu": 8359,
      "Ġgetvaluebypath": 8360,
      "setsotimeout": 8361,
      "iftp": 8362,
      "symmetric": 8363,
      "getno": 8364,
      "chil": 8365,
      "Ġlogout": 8366,
      "Ġomsg": 8367,
      "Ġdif": 8368,
      "Ġchars": 8369,
      "Ġdocbuilder": 8370,
      "socketaddress": 8371,
      "Ġconnecting": 8372,
      "sessid": 8373,
      "Ġallentries": 8374,
      "Ġmetric": 8375,
      "getoid": 8376,
      "spreadsheet": 8377,
      "Ġmessageformat": 8378,
      "Ġhttpcontext": 8379,
      "beros": 8380,
      "Ġbytesum": 8381,
      "Ġraf": 8382,
      "setbigdecimalatname": 8383,
      "consumecontent": 8384,
      "ngr": 8385,
      "Ġcess": 8386,
      "fileinto": 8387,
      "getstr": 8388,
      "getbuild": 8389,
      "getseq": 8390,
      "atur": 8391,
      "rinder": 8392,
      "Ġremaining": 8393,
      "racion": 8394,
      "licing": 8395,
      "Ġopt": 8396,
      "ofexception": 8397,
      "createnew": 8398,
      "Ġassertion": 8399,
      "cies": 8400,
      "Ġalbum": 8401,
      "Ġdownloading": 8402,
      "Ġunexpected": 8403,
      "Ġrawtabledata": 8404,
      "Ġjee": 8405,
      "publickey": 8406,
      "administracion": 8407,
      "%%%%": 8408,
      "shippingid": 8409,
      "Ġmigrate": 8410,
      "Ġshipping": 8411,
      "Ġcessystemexception": 8412,
      "administracionresorces": 8413,
      "?)\");": 8414,
      "iclasspathentry": 8415,
      "ossible": 8416,
      "setencoding": 8417,
      "Ġiden": 8418,
      "Ġtdatastreams": 8419,
      "Ġrespon": 8420,
      "setmin": 8421,
      "setattach": 8422,
      "sico": 8423,
      "loginfo": 8424,
      "Ġgzin": 8425,
      "Ġsrcdir": 8426,
      "Ġhashing": 8427,
      "Ġklucz": 8428,
      "refs": 8429,
      "Ġadress": 8430,
      "Ġtransforms": 8431,
      "Ġstrip": 8432,
      "pholog": 8433,
      "Ġnewversion": 8434,
      "Ġdml": 8435,
      "setprogress": 8436,
      "Ġhttpparams": 8437,
      "Ġtrx": 8438,
      "Ġfichan": 8439,
      "basepath": 8440,
      "startindex": 8441,
      "actionmapping": 8442,
      "transferred": 8443,
      "(\"./": 8444,
      "geticon": 8445,
      "endpoint": 8446,
      "socketfactory": 8447,
      "corre": 8448,
      "shellscript": 8449,
      "fetching": 8450,
      "Ġ==========================================": 8451,
      "virbo": 8452,
      "bkup": 8453,
      "restore": 8454,
      "fileitem": 8455,
      "getcomponent": 8456,
      "getcontroller": 8457,
      "getworkspace": 8458,
      "getpersistence": 8459,
      "getselecteditem": 8460,
      "Ġnullprogressmonitor": 8461,
      "Ġdms": 8462,
      "famal": 8463,
      "Ġlname": 8464,
      "Ġprimary": 8465,
      "Ġuploadedfilename": 8466,
      "17770": 8467,
      "Ġprogres": 8468,
      "famaly": 8469,
      "gh": 8470,
      "oracle": 8471,
      "Ġtsv": 8472,
      "Ġldst": 8473,
      "destroy": 8474,
      "Ġmak": 8475,
      "Ġ\",\");": 8476,
      "changes": 8477,
      "Ġcriteria": 8478,
      "----------------------------------------": 8479,
      "livery": 8480,
      "lated": 8481,
      "inner": 8482,
      "fid": 8483,
      "decl": 8484,
      "rocs": 8485,
      "Ġpb": 8486,
      "streamexception": 8487,
      "Ġinse": 8488,
      "lice": 8489,
      "unpack": 8490,
      "famil": 8491,
      "Ġati": 8492,
      "clientcheck": 8493,
      "complex": 8494,
      "Ġzipcode": 8495,
      "Ġzipoutstream": 8496,
      "Ġcast": 8497,
      "tectedvariable": 8498,
      "Ġparentdirectory": 8499,
      "variate": 8500,
      "Ġchanneldest": 8501,
      "facebook": 8502,
      "swt": 8503,
      "diagram": 8504,
      "Ġcacheoperationexception": 8505,
      "dimagefile": 8506,
      "Ġdeviceoutputfile": 8507,
      "registryexception": 8508,
      "allele": 8509,
      "estimate": 8510,
      "piedimagefile": 8511,
      "........": 8512,
      "getclientcontext": 8513,
      "isprotectedvariable": 8514,
      "Ġdocxoutfile": 8515,
      "family": 8516,
      "_);": 8517,
      "pf": 8518,
      "ught": 8519,
      "Ġdh": 8520,
      "iscanceled": 8521,
      "assertion": 8522,
      "parm": 8523,
      "texts": 8524,
      "getnameditem": 8525,
      "Ġcopyto": 8526,
      "models": 8527,
      "locations": 8528,
      "izing": 8529,
      "nodelist": 8530,
      "targetfilename": 8531,
      "Ġsample": 8532,
      "textpath": 8533,
      "Ġbind": 8534,
      "Ġclosequietly": 8535,
      "Ġnumberformat": 8536,
      "priority": 8537,
      "getbusinessdetail": 8538,
      "Ġtrainer": 8539,
      "Ġtracks": 8540,
      "/\";": 8541,
      "asouboru": 8542,
      "kson": 8543,
      "ëĭ": 8544,
      "inates": 8545,
      "fileset": 8546,
      "getdo": 8547,
      "getattach": 8548,
      "getmodules": 8549,
      "getpnid": 8550,
      "Ġbool": 8551,
      "rir": 8552,
      "logmessage": 8553,
      "Ġarecipient": 8554,
      "derm": 8555,
      "httprpc": 8556,
      "previ": 8557,
      "..\");": 8558,
      "Ġrequestentity": 8559,
      "dbf": 8560,
      "currentuser": 8561,
      "Ġpathsrc": 8562,
      "Ġdatefrom": 8563,
      "validsession": 8564,
      "Ġfcp": 8565,
      "Ġpostparameter": 8566,
      "Ġsuppressexceptiononclose": 8567,
      "odev": 8568,
      "keystr": 8569,
      "setcontents": 8570,
      "alignsrccand": 8571,
      "Ġreason": 8572,
      "segmentheader": 8573,
      "ulohy": 8574,
      "reasontype": 8575,
      "Ġprograms": 8576,
      "xivid": 8577,
      "Ġsealedobject": 8578,
      "walk": 8579,
      "getlabel": 8580,
      "Ġ\">": 8581,
      "streams": 8582,
      "cko": 8583,
      "paren": 8584,
      "keleton": 8585,
      "maporiginal": 8586,
      "Ġinputfilename": 8587,
      "canvas": 8588,
      "Ġbaseuri": 8589,
      "Ġtargetdir": 8590,
      "Ġactionresponse": 8591,
      "templates": 8592,
      "classpathentries": 8593,
      "accessor": 8594,
      "getcodebase": 8595,
      "Ġhibernateutil": 8596,
      "kk": 8597,
      "wrote": 8598,
      "xd": 8599,
      "åľ": 8600,
      "(\"++++++": 8601,
      "Ġdrop": 8602,
      "setcolor": 8603,
      "Ġmsec": 8604,
      "maj": 8605,
      "Ġnumwritten": 8606,
      "Ġ\"\\\"\";": 8607,
      "isopen": 8608,
      "forwarding": 8609,
      "messagesymbol": 8610,
      "Ġappendtolog": 8611,
      "Ġprevinitpoints": 8612,
      "Ġziparchiveentry": 8613,
      "åľ¨": 8614,
      "assword": 8615,
      "eq": 8616,
      "Ġlookup": 8617,
      "stit": 8618,
      "Ġregex": 8619,
      "rowset": 8620,
      "ticle": 8621,
      "formdata": 8622,
      "noun": 8623,
      "edges": 8624,
      "Ġsourcelocation": 8625,
      "lert": 8626,
      "groupid": 8627,
      "Ġfaces": 8628,
      "Ġapple": 8629,
      "111": 8630,
      "Ġcontained": 8631,
      "Ġproxypreferences": 8632,
      "Ġcompression": 8633,
      "clazz": 8634,
      "generic": 8635,
      "67": 8636,
      "fileobject": 8637,
      "Ġnewdirectoryfolder": 8638,
      "Ġreturncode": 8639,
      "Ġws": 8640,
      "vec": 8641,
      "verte": 8642,
      "ipc": 8643,
      "Ġtobehome": 8644,
      "tention": 8645,
      "ditdomain": 8646,
      "Ġactions": 8647,
      "gzipinputstream": 8648,
      "Ġzentry": 8649,
      "scores": 8650,
      "Ġprobemappedfile": 8651,
      "cending": 8652,
      "lw": 8653,
      "Ġgen": 8654,
      "Ġcgi": 8655,
      "Ġnoof": 8656,
      "Ġsame": 8657,
      "Ġsink": 8658,
      "todo": 8659,
      "Ġstrap": 8660,
      "Ġvdata": 8661,
      "Ġjsp": 8662,
      "Ġdeflate": 8663,
      "datain": 8664,
      "servle": 8665,
      "showerror": 8666,
      "Ġshape": 8667,
      "Ġproxyport": 8668,
      "gresql": 8669,
      "serializer": 8670,
      "Ġipaddr": 8671,
      "wik": 8672,
      "Ġstrappend": 8673,
      "nan": 8674,
      "ÄĽ": 8675,
      "terexception": 8676,
      "getservice": 8677,
      "Ġfileitem": 8678,
      "lider": 8679,
      "perty": 8680,
      "appendstatustext": 8681,
      "openinputstream": 8682,
      "shp": 8683,
      "sqrt": 8684,
      "Ġdistance": 8685,
      "('\\\\": 8686,
      "Ġanaly": 8687,
      "Ġmyxmlhandler": 8688,
      "rslt": 8689,
      "Ġlinkname": 8690,
      "capacity": 8691,
      "corr": 8692,
      "Ġrecordresponse": 8693,
      "getpid": 8694,
      "sposta": 8695,
      "courriel": 8696,
      "pomdirectory": 8697,
      "('\\\\',": 8698,
      "ofile": 8699,
      "zmi": 8700,
      "orset": 8701,
      "Ġcis": 8702,
      "Ġpin": 8703,
      "mport": 8704,
      "tac": 8705,
      "sock": 8706,
      "sonido": 8707,
      "currentdirectory": 8708,
      "cia": 8709,
      "Ġdocumentation": 8710,
      "initparameter": 8711,
      "Ġlastversion": 8712,
      "Ġextensions": 8713,
      "paddingexception": 8714,
      "Ġnextid": 8715,
      "Ġsensenumber": 8716,
      "zmiar": 8717,
      "iteration": 8718,
      "rsp": 8719,
      "uler": 8720,
      "Ġser": 8721,
      "Ġifile": 8722,
      "outgoing": 8723,
      "detal": 8724,
      "Ġstringutil": 8725,
      "uploader": 8726,
      "tposition": 8727,
      "Ġvolume": 8728,
      "Ġsqlimpl": 8729,
      "Ġunder": 8730,
      "protocols": 8731,
      "Ġskin": 8732,
      "savefileondisk": 8733,
      "ystempro": 8734,
      "savefileondiskhandler": 8735,
      "Ġclick": 8736,
      "decident": 8737,
      "lies": 8738,
      "setoption": 8739,
      "Ġstage": 8740,
      "Ġcoach": 8741,
      "Ġrfileoutputstream": 8742,
      "xmlftp": 8743,
      "Ġsrcpath": 8744,
      "resultcontent": 8745,
      "Ġsaveforwebchooser": 8746,
      "strac": 8747,
      "Ġparserfilereader": 8748,
      "primer": 8749,
      "Ġcipherinputstream": 8750,
      "delta": 8751,
      "violation": 8752,
      "summarysort": 8753,
      "setdateheader": 8754,
      "outagewriter": 8755,
      "instantiationexception": 8756,
      "Ġ=================================================\");": 8757,
      "300": 8758,
      "hm": 8759,
      "Ġot": 8760,
      "getrecord": 8761,
      "readbytes": 8762,
      "setresult": 8763,
      "setsystemid": 8764,
      "uper": 8765,
      "exievent": 8766,
      "destfilename": 8767,
      "Ġencript": 8768,
      "infofiles": 8769,
      "shader": 8770,
      "Ġasset": 8771,
      "imageurl": 8772,
      "interrupted": 8773,
      "opparser": 8774,
      "solve": 8775,
      "sumer": 8776,
      "Ġshiftp": 8777,
      "Ġpropfilename": 8778,
      "Ġsummer": 8779,
      "Ġsummar": 8780,
      "Ġmemberpar": 8781,
      "clsname": 8782,
      "reshold": 8783,
      "Ġshiftpopparser": 8784,
      "getdisplay": 8785,
      "rorexception": 8786,
      "Ġresize": 8787,
      "Ġrestart": 8788,
      "Ġreturnval": 8789,
      "Ġjpeg": 8790,
      "fasta": 8791,
      "tica": 8792,
      "lux": 8793,
      "Ġresultat": 8794,
      "Ġarq": 8795,
      "Ġ'/');": 8796,
      "gbk": 8797,
      "Ġtxtlist": 8798,
      "given": 8799,
      "Ġescookie": 8800,
      "255": 8801,
      "joptionpane": 8802,
      "Ġdirectories": 8803,
      "iname": 8804,
      "getfiles": 8805,
      "getauditschema": 8806,
      "Ġ\"\"),": 8807,
      "determin": 8808,
      "Ġejecut": 8809,
      "Ġfiledata": 8810,
      "ulated": 8811,
      "unix": 8812,
      "Ġdecoded": 8813,
      "Ġlogged": 8814,
      "arrayof": 8815,
      "Ġ((!": 8816,
      "Ġls": 8817,
      "resultstring": 8818,
      "super": 8819,
      "Ġservers": 8820,
      "Ġyahoo": 8821,
      "senabled": 8822,
      "jasper": 8823,
      "Ġsubmit": 8824,
      "returnpath": 8825,
      "Ġarchivefile": 8826,
      "Ġopti": 8827,
      "Ġobtainuserreputationresponse": 8828,
      "inodepath": 8829,
      "rextension": 8830,
      "789": 8831,
      "Ġeasymock": 8832,
      "<<": 8833,
[...]
