{
    "version": "1.0",
    "truncation": null,
    "padding": null,
    "added_tokens": [
      {
        "id": 0,
        "content": "<s>",
        "single_word": false,
        "lstrip": false,
        "rstrip": false,
        "normalized": false,
        "special": true
      },
      {
        "id": 1,
        "content": "<pad>",
        "single_word": false,
        "lstrip": false,
        "rstrip": false,
        "normalized": false,
        "special": true
      },
      {
        "id": 2,
        "content": "</s>",
        "single_word": false,
        "lstrip": false,
        "rstrip": false,
        "normalized": false,
        "special": true
      },
      {
        "id": 3,
        "content": "<unk>",
        "single_word": false,
        "lstrip": false,
        "rstrip": false,
        "normalized": false,
        "special": true
      }
    ],
    "normalizer": {
      "type": "Lowercase"
    },
    "pre_tokenizer": {
      "type": "ByteLevel",
      "add_prefix_space": true,
      "trim_offsets": true,
      "use_regex": true
    },
    "post_processor": {
      "type": "ByteLevel",
      "add_prefix_space": true,
      "trim_offsets": true,
      "use_regex": true
    },
    "decoder": {
      "type": "ByteLevel",
      "add_prefix_space": true,
      "trim_offsets": true,
      "use_regex": true
    },
    "model": {
      "type": "BPE",
      "dropout": null,
      "unk_token": "<unk>",
      "continuing_subword_prefix": null,
      "end_of_word_suffix": null,
      "fuse_unk": false,
      "vocab": {
        "<s>": 0,
        "<pad>": 1,
        "</s>": 2,
        "<unk>": 3,
        "!": 4,
        "\"": 5,
        "#": 6,
        "$": 7,
        "%": 8,
        "&": 9,
        "'": 10,
        "(": 11,
        ")": 12,
        "*": 13,
        "+": 14,
        ",": 15,
        "-": 16,
        ".": 17,
        "/": 18,
        "0": 19,
        "1": 20,
        "2": 21,
        "3": 22,
        "4": 23,
        "5": 24,
        "6": 25,
        "7": 26,
        "8": 27,
        "9": 28,
        ":": 29,
        ";": 30,
        "<": 31,
        "=": 32,
        ">": 33,
        "?": 34,
        "@": 35,
        "A": 36,
        "B": 37,
        "C": 38,
        "D": 39,
        "E": 40,
        "F": 41,
        "G": 42,
        "H": 43,
        "I": 44,
        "J": 45,
        "K": 46,
        "L": 47,
        "M": 48,
        "N": 49,
        "O": 50,
        "P": 51,
        "Q": 52,
        "R": 53,
        "S": 54,
        "T": 55,
        "U": 56,
        "V": 57,
        "W": 58,
        "X": 59,
        "Y": 60,
        "Z": 61,
        "[": 62,
        "\\": 63,
        "]": 64,
        "^": 65,
        "_": 66,
        "`": 67,
        "a": 68,
        "b": 69,
        "c": 70,
        "d": 71,
        "e": 72,
        "f": 73,
        "g": 74,
        "h": 75,
        "i": 76,
        "j": 77,
        "k": 78,
        "l": 79,
        "m": 80,
        "n": 81,
        "o": 82,
        "p": 83,
        "q": 84,
        "r": 85,
        "s": 86,
        "t": 87,
        "u": 88,
        "v": 89,
        "w": 90,
        "x": 91,
        "y": 92,
        "z": 93,
        "{": 94,
        "|": 95,
        "}": 96,
        "~": 97,
        "¡": 98,
        "¢": 99,
        "£": 100,
        "¤": 101,
        "¥": 102,
        "¦": 103,
        "§": 104,
        "¨": 105,
        "©": 106,
        "ª": 107,
        "«": 108,
        "¬": 109,
        "®": 110,
        "¯": 111,
        "°": 112,
        "±": 113,
        "²": 114,
        "³": 115,
        "´": 116,
        "µ": 117,
        "¶": 118,
        "·": 119,
        "¸": 120,
        "¹": 121,
        "º": 122,
        "»": 123,
        "¼": 124,
        "½": 125,
        "¾": 126,
        "¿": 127,
        "À": 128,
        "Á": 129,
        "Â": 130,
        "Ã": 131,
        "Ä": 132,
        "Å": 133,
        "Æ": 134,
        "Ç": 135,
        "È": 136,
        "É": 137,
        "Ê": 138,
        "Ë": 139,
        "Ì": 140,
        "Í": 141,
        "Î": 142,
        "Ï": 143,
        "Ð": 144,
        "Ñ": 145,
        "Ò": 146,
        "Ó": 147,
        "Ô": 148,
        "Õ": 149,
        "Ö": 150,
        "×": 151,
        "Ø": 152,
        "Ù": 153,
        "Ú": 154,
        "Û": 155,
        "Ü": 156,
        "Ý": 157,
        "Þ": 158,
        "ß": 159,
        "à": 160,
        "á": 161,
        "â": 162,
        "ã": 163,
        "ä": 164,
        "å": 165,
        "æ": 166,
        "ç": 167,
        "è": 168,
        "é": 169,
        "ê": 170,
        "ë": 171,
        "ì": 172,
        "í": 173,
        "î": 174,
        "ï": 175,
        "ð": 176,
        "ñ": 177,
        "ò": 178,
        "ó": 179,
        "ô": 180,
        "õ": 181,
        "ö": 182,
        "÷": 183,
        "ø": 184,
        "ù": 185,
        "ú": 186,
        "û": 187,
        "ü": 188,
        "ý": 189,
        "þ": 190,
        "ÿ": 191,
        "Ā": 192,
        "ā": 193,
        "Ă": 194,
        "ă": 195,
        "Ą": 196,
        "ą": 197,
        "Ć": 198,
        "ć": 199,
        "Ĉ": 200,
        "ĉ": 201,
        "Ċ": 202,
        "ċ": 203,
        "Č": 204,
        "č": 205,
        "Ď": 206,
        "ď": 207,
        "Đ": 208,
        "đ": 209,
        "Ē": 210,
        "ē": 211,
        "Ĕ": 212,
        "ĕ": 213,
        "Ė": 214,
        "ė": 215,
        "Ę": 216,
        "ę": 217,
        "Ě": 218,
        "ě": 219,
        "Ĝ": 220,
        "ĝ": 221,
        "Ğ": 222,
        "ğ": 223,
        "Ġ": 224,
        "ġ": 225,
        "Ģ": 226,
        "ģ": 227,
        "Ĥ": 228,
        "ĥ": 229,
        "Ħ": 230,
        "ħ": 231,
        "Ĩ": 232,
        "ĩ": 233,
        "Ī": 234,
        "ī": 235,
        "Ĭ": 236,
        "ĭ": 237,
        "Į": 238,
        "į": 239,
        "İ": 240,
        "ı": 241,
        "Ĳ": 242,
        "ĳ": 243,
        "Ĵ": 244,
        "ĵ": 245,
        "Ķ": 246,
        "ķ": 247,
        "ĸ": 248,
        "Ĺ": 249,
        "ĺ": 250,
        "Ļ": 251,
        "ļ": 252,
        "Ľ": 253,
        "ľ": 254,
        "Ŀ": 255,
        "ŀ": 256,
        "Ł": 257,
        "ł": 258,
        "Ń": 259,
        "Ġ;": 260,
        "Ġ(": 261,
        "Ġ)": 262,
        "Ġ,": 263,
        "Ġi": 264,
        "re": 265,
        "Ġs": 266,
        "Ġ-": 267,
        "Ġ=": 268,
        "Ġ->": 269,
        "Ġc": 270,
        "er": 271,
        "nt": 272,
        "st": 273,
        "le": 274,
        "se": 275,
        "Ġp": 276,
        "at": 277,
        "Ġ*": 278,
        "in": 279,
        "Ġt": 280,
        "de": 281,
        "Ġ{": 282,
        "Ġ}": 283,
        "on": 284,
        "Ġf": 285,
        "Ġm": 286,
        "Ġ[": 287,
        "or": 288,
        "Ġ]": 289,
        "Ġre": 290,
        "Ġif": 291,
        "Ġb": 292,
        "Ġ0": 293,
        "ar": 294,
        "ct": 295,
        "Ġn": 296,
        "Ġe": 297,
        "al": 298,
        "Ġst": 299,
        "Ġ&": 300,
        "me": 301,
        "Ġ1": 302,
        "Ġa": 303,
        "it": 304,
        "Ġd": 305,
        "Ġ+": 306,
        "Ġv": 307,
        "Ġg": 308,
        "co": 309,
        "ur": 310,
        "lo": 311,
        "ff": 312,
        "Ġ.": 313,
        "Ġ\"": 314,
        "ro": 315,
        "Ġo": 316,
        "Ġh": 317,
        "id": 318,
        "an": 319,
        "Ġu": 320,
        "Ġint": 321,
        "ad": 322,
        "len": 323,
        "si": 324,
        "Ġret": 325,
        "ul": 326,
        "int": 327,
        "et": 328,
        "pe": 329,
        "ut": 330,
        "ck": 331,
        "ame": 332,
        "set": 333,
        "ch": 334,
        "ze": 335,
        "err": 336,
        "urn": 337,
        "ic": 338,
        "Ġreturn": 339,
        "pt": 340,
        "Ġr": 341,
        "Ġ!": 342,
        "Ġco": 343,
        "ag": 344,
        "to": 345,
        "mp": 346,
        "ree": 347,
        "ue": 348,
        "Ġl": 349,
        "ex": 350,
        "ata": 351,
        "Ġch": 352,
        "ss": 353,
        "Ġ==": 354,
        "ed": 355,
        "Ġ:": 356,
        "ull": 357,
        "fi": 358,
        "Ġ<": 359,
        "nd": 360,
        "el": 361,
        "th": 362,
        "Ġav": 363,
        "fo": 364,
        "ase": 365,
        "Ġcon": 366,
        "ing": 367,
        "Ġw": 368,
        "rea": 369,
        "Ġnull": 370,
        "Ġstr": 371,
        "ion": 372,
        "Ġin": 373,
        "Ġde": 374,
        "ype": 375,
        "ffset": 376,
        "ate": 377,
        "um": 378,
        "ce": 379,
        "bu": 380,
        "Ġ2": 381,
        "str": 382,
        "Ġx": 383,
        "te": 384,
        "error": 385,
        "ab": 386,
        "pi": 387,
        "ke": 388,
        "Ġel": 389,
        "size": 390,
        "Ġsi": 391,
        "Ġelse": 392,
        "Ġbu": 393,
        "Ġstat": 394,
        "Ġconst": 395,
        "ext": 396,
        "info": 397,
        "Ġ++": 398,
        "as": 399,
        "em": 400,
        "type": 401,
        "val": 402,
        "Ġ>": 403,
        "Ġchar": 404,
        "ctx": 405,
        "Ġoffset": 406,
        "is": 407,
        "ve": 408,
        "un": 409,
        "ap": 410,
        "Ġcase": 411,
        "rame": 412,
        "oid": 413,
        "lock": 414,
        "get": 415,
        "con": 416,
        "data": 417,
        "Ġsize": 418,
        "Ġlen": 419,
        "tree": 420,
        "Ġfi": 421,
        "able": 422,
        "add": 423,
        "32": 424,
        "gth": 425,
        "Ġpro": 426,
        "Ġfor": 427,
        "Ġtv": 428,
        "Ġstatic": 429,
        "li": 430,
        "tr": 431,
        "reak": 432,
        "key": 433,
        "Ġ&&": 434,
        "Ġmy": 435,
        "Ġvoid": 436,
        "Ġbreak": 437,
        "up": 438,
        "Ġ|": 439,
        "Ġ!=": 440,
        "pa": 441,
        "code": 442,
        "pr": 443,
        "Ġq": 444,
        "Ġj": 445,
        "ig": 446,
        "no": 447,
        "us": 448,
        "00": 449,
        "and": 450,
        "Ġtvb": 451,
        "ver": 452,
        "nc": 453,
        "ub": 454,
        "Ġbuf": 455,
        "ms": 456,
        "ra": 457,
        "Ġ'": 458,
        "ip": 459,
        "ptr": 460,
        "Ġ_": 461,
        "Ġdata": 462,
        "ult": 463,
        "tx": 464,
        "Ġar": 465,
        "ffer": 466,
        "Ġproto": 467,
        "gn": 468,
        "Ġun": 469,
        "Ġ4": 470,
        "Ġval": 471,
        "unt": 472,
        "16": 473,
        "la": 474,
        "Ġ%": 475,
        "rc": 476,
        "Ġex": 477,
        "age": 478,
        "ine": 479,
        "ect": 480,
        "log": 481,
        "ot": 482,
        "uct": 483,
        "name": 484,
        "put": 485,
        "ax": 486,
        "ry": 487,
        "ob": 488,
        "Ġ#": 489,
        "ent": 490,
        "Ġ+=": 491,
        "il": 492,
        "Ġk": 493,
        "Ġctx": 494,
        "ter": 495,
        "di": 496,
        "tp": 497,
        "fa": 498,
        "Ġmb": 499,
        "ode": 500,
        "ca": 501,
        "lag": 502,
        "of": 503,
        "ort": 504,
        "frame": 505,
        "ht": 506,
        "mt": 507,
        "bit": 508,
        "if": 509,
        "yte": 510,
        "Ġres": 511,
        "pro": 512,
        "Ġout": 513,
        "art": 514,
        "ime": 515,
        "Ġuint": 516,
        "he": 517,
        "po": 518,
        "sign": 519,
        "cont": 520,
        "sl": 521,
        "Ġstruct": 522,
        "Ġ3": 523,
        "es": 524,
        "length": 525,
        "res": 526,
        "sion": 527,
        "Ġ8": 528,
        "64": 529,
        "loc": 530,
        "ql": 531,
        "Ġhf": 532,
        "file": 533,
        "Ġis": 534,
        "ide": 535,
        "Ġ||": 536,
        "dr": 537,
        "ser": 538,
        "Ġget": 539,
        "uint": 540,
        "num": 541,
        "ure": 542,
        "ew": 543,
        "dex": 544,
        "sql": 545,
        "Ġcur": 546,
        "ist": 547,
        "ream": 548,
        "print": 549,
        "mm": 550,
        "cp": 551,
        "Ġse": 552,
        "Ġrc": 553,
        "Ġpa": 554,
        "Ġtr": 555,
        "ile": 556,
        "Ġvp": 557,
        "mb": 558,
        "Ġsrc": 559,
        "signed": 560,
        "Ġmysql": 561,
        "ir": 562,
        "item": 563,
        "Ġunsigned": 564,
        "en": 565,
        "vp": 566,
        "Ġavctx": 567,
        "Ġpr": 568,
        "for": 569,
        "ind": 570,
        "Ġy": 571,
        "oo": 572,
        "che": 573,
        "Ġms": 574,
        "eld": 575,
        "Ġerr": 576,
        "Ġsizeof": 577,
        "Ġgb": 578,
        "count": 579,
        "ader": 580,
        "mat": 581,
        "string": 582,
        "stat": 583,
        "value": 584,
        "Ġcm": 585,
        "buffer": 586,
        "bits": 587,
        "Ġpar": 588,
        "buf": 589,
        "Ġcpi": 590,
        "Ġte": 591,
        "Ġend": 592,
        "Ġvalue": 593,
        "ment": 594,
        "Ġnum": 595,
        "gs": 596,
        "offset": 597,
        "que": 598,
        "Ġkey": 599,
        "cket": 600,
        "context": 601,
        "state": 602,
        "read": 603,
        "lags": 604,
        "end": 605,
        "ep": 606,
        "ow": 607,
        "Ġgo": 608,
        "list": 609,
        "Ġerror": 610,
        "ject": 611,
        "sh": 612,
        "im": 613,
        "Ġgoto": 614,
        "Ġname": 615,
        "ord": 616,
        "Ġcode": 617,
        "qu": 618,
        "op": 619,
        "rent": 620,
        "ction": 621,
        "pl": 622,
        "Ġpi": 623,
        "cs": 624,
        "mem": 625,
        "Ġlength": 626,
        "all": 627,
        "block": 628,
        "Ġssl": 629,
        "ice": 630,
        "ans": 631,
        "ma": 632,
        "col": 633,
        "free": 634,
        "Ġframe": 635,
        "Ġblock": 636,
        "Ġdst": 637,
        "pre": 638,
        "ert": 639,
        "rit": 640,
        "io": 641,
        "Ġtree": 642,
        "index": 643,
        "Ġenc": 644,
        "Ġmem": 645,
        "cess": 646,
        "Ġfile": 647,
        "cl": 648,
        "Ġdi": 649,
        "char": 650,
        "Ġref": 651,
        "alloc": 652,
        "Ġhe": 653,
        "am": 654,
        "par": 655,
        "ive": 656,
        "ci": 657,
        "ity": 658,
        "out": 659,
        "Ġ?": 660,
        "Ġmax": 661,
        "ation": 662,
        "ber": 663,
        "ac": 664,
        "ctor": 665,
        "ge": 666,
        "Ġpre": 667,
        "Ġid": 668,
        "alse": 669,
        "sc": 670,
        "Ġtype": 671,
        "Ġ16": 672,
        "table": 673,
        "Ġto": 674,
        "Ġad": 675,
        "ight": 676,
        "Ġ>>": 677,
        "Ġle": 678,
        "mode": 679,
        "row": 680,
        "Ġwh": 681,
        "bug": 682,
        "byte": 683,
        "dev": 684,
        "ask": 685,
        "Ġts": 686,
        "Ġ<<": 687,
        "od": 688,
        "idth": 689,
        "ong": 690,
        "stream": 691,
        "Ġdis": 692,
        "Ġcont": 693,
        "cm": 694,
        "Ġen": 695,
        "cod": 696,
        "comp": 697,
        "our": 698,
        "sub": 699,
        "Ġsub": 700,
        "init": 701,
        "Ġbyte": 702,
        "ref": 703,
        "sy": 704,
        "Ġat": 705,
        "cture": 706,
        "Ġla": 707,
        "Ġpo": 708,
        "Ġ>=": 709,
        "port": 710,
        "printf": 711,
        "be": 712,
        "und": 713,
        "Ġresult": 714,
        "nel": 715,
        "Ġbuffer": 716,
        "Ġfalse": 717,
        "Ġtmp": 718,
        "ls": 719,
        "iv": 720,
        "chan": 721,
        "kt": 722,
        "Ġopt": 723,
        "Ġstep": 724,
        "Ġsh": 725,
        "Ġnew": 726,
        "cip": 727,
        "Ġrec": 728,
        "Ġtrue": 729,
        "inter": 730,
        "max": 731,
        "Ġmv": 732,
        "header": 733,
        "object": 734,
        "fil": 735,
        "Ġdo": 736,
        "Ġwhile": 737,
        "mv": 738,
        "Ġstart": 739,
        "ack": 740,
        "ery": 741,
        "fault": 742,
        "per": 743,
        "Ġbase": 744,
        "line": 745,
        "Ġinfo": 746,
        "rom": 747,
        "pc": 748,
        "valid": 749,
        "rite": 750,
        "Ġcol": 751,
        "Ġff": 752,
        "Ġsk": 753,
        "her": 754,
        "quest": 755,
        "Ġcp": 756,
        "Ġarg": 757,
        "fig": 758,
        "Ġbit": 759,
        "ath": 760,
        "Ġht": 761,
        "msg": 762,
        "ft": 763,
        "ant": 764,
        "amp": 765,
        "Ġevp": 766,
        "one": 767,
        "field": 768,
        "Ġz": 769,
        "Ġflags": 770,
        "Ġth": 771,
        "ource": 772,
        "Ġtable": 773,
        "Ġmsg": 774,
        "ld": 775,
        "Ġnext": 776,
        "ta": 777,
        "andle": 778,
        "Ġim": 779,
        "12": 780,
        "def": 781,
        "Ġsy": 782,
        "Ġline": 783,
        "pos": 784,
        "cache": 785,
        "low": 786,
        "ray": 787,
        "lay": 788,
        "reg": 789,
        "Ġlast": 790,
        "Ġoutput": 791,
        "Ġ/": 792,
        "Ġsc": 793,
        "addr": 794,
        "picture": 795,
        "ssert": 796,
        "xel": 797,
        "vm": 798,
        "Ġ5": 799,
        "Ġpinfo": 800,
        "Ġhttp": 801,
        "Ġstmt": 802,
        "ok": 803,
        "wit": 804,
        "ash": 805,
        "http": 806,
        "Ġ6": 807,
        "time": 808,
        "Ġev": 809,
        "Ġcurrent": 810,
        "Ġendif": 811,
        "Ġinput": 812,
        "Ġob": 813,
        "Ġvir": 814,
        "map": 815,
        "stride": 816,
        "Ġqu": 817,
        "ian": 818,
        "Ġset": 819,
        "var": 820,
        "rypt": 821,
        "Ġcount": 822,
        "opt": 823,
        "Ġcomp": 824,
        "start": 825,
        "Ġfield": 826,
        "ly": 827,
        "mo": 828,
        "new": 829,
        "Ġcomm": 830,
        "roup": 831,
        "ory": 832,
        "ection": 833,
        "Ġtest": 834,
        "date": 835,
        "format": 836,
        "cipher": 837,
        "Ġimage": 838,
        "cale": 839,
        "Ġdisse": 840,
        "Ġ\"%": 841,
        "pend": 842,
        "Ġdev": 843,
        "Ġguint": 844,
        "vel": 845,
        "Ġal": 846,
        "packet": 847,
        "Ġstream": 848,
        "use": 849,
        "vent": 850,
        "ph": 851,
        "unk": 852,
        "Ġpos": 853,
        "Ġstate": 854,
        "Ġas": 855,
        "py": 856,
        "ress": 857,
        "number": 858,
        "Ġdest": 859,
        "ool": 860,
        "cf": 861,
        "Ġ<=": 862,
        "Ġlist": 863,
        "Ġtx": 864,
        "trans": 865,
        "ost": 866,
        "ns": 867,
        "ave": 868,
        "hdr": 869,
        "ri": 870,
        "Ġprint": 871,
        "cmp": 872,
        "Ġpl": 873,
        "aut": 874,
        "ten": 875,
        "dec": 876,
        "Ġhdr": 877,
        "000": 878,
        "big": 879,
        "Ġche": 880,
        "fix": 881,
        "check": 882,
        "ain": 883,
        "Ġcheck": 884,
        "cur": 885,
        "Ġfz": 886,
        "xy": 887,
        "min": 888,
        "Ġ--": 889,
        "dis": 890,
        "Ġmi": 891,
        "sp": 892,
        "spi": 893,
        "ml": 894,
        "pen": 895,
        "av": 896,
        "Ġdefault": 897,
        "Ġuser": 898,
        "Ġstatus": 899,
        "Ġsl": 900,
        "mbcs": 901,
        "Ġtemp": 902,
        "cpy": 903,
        "ample": 904,
        "enc": 905,
        "query": 906,
        "conn": 907,
        "db": 908,
        "Ġread": 909,
        "hci": 910,
        "rst": 911,
        "sb": 912,
        "bo": 913,
        "tag": 914,
        "do": 915,
        "cre": 916,
        "svp": 917,
        "Ġbe": 918,
        "Ġmode": 919,
        "witch": 920,
        "mask": 921,
        "chive": 922,
        "Ġstride": 923,
        "Ġcospi": 924,
        "process": 925,
        "base": 926,
        "loat": 927,
        "lean": 928,
        "Ġargs": 929,
        "ec": 930,
        "Ġptr": 931,
        "fs": 932,
        "Ġwidth": 933,
        "write": 934,
        "act": 935,
        "lass": 936,
        "Ġdissect": 937,
        "flags": 938,
        "lv": 939,
        "Ġdef": 940,
        "invalid": 941,
        "Ġswitch": 942,
        "config": 943,
        "endian": 944,
        "load": 945,
        "ane": 946,
        "ib": 947,
        "Ġjob": 948,
        "ux": 949,
        "flag": 950,
        "Ġvar": 951,
        "Ġheader": 952,
        "indow": 953,
        "Ġlog": 954,
        "Ġarchive": 955,
        "Ġap": 956,
        "text": 957,
        "Ġfa": 958,
        "pon": 959,
        "filter": 960,
        "status": 961,
        "path": 962,
        "lename": 963,
        "coding": 964,
        "Ġinit": 965,
        "ts": 966,
        "ken": 967,
        "Ġent": 968,
        "Ġqem": 969,
        "form": 970,
        "handle": 971,
        "idx": 972,
        "sk": 973,
        "Ġser": 974,
        "Ġsource": 975,
        "Ġcl": 976,
        "Ġindex": 977,
        "lient": 978,
        "ute": 979,
        "pass": 980,
        "Ġ10": 981,
        "Ġio": 982,
        "conver": 983,
        "ink": 984,
        "Ġtime": 985,
        "ud": 986,
        "Ġ__": 987,
        "Ġchan": 988,
        "fun": 989,
        "su": 990,
        "ssage": 991,
        "zcl": 992,
        "round": 993,
        "ps": 994,
        "Ġgp": 995,
        "Ġfree": 996,
        "Ġpb": 997,
        "action": 998,
        "rec": 999
      },
      "merges": [
        "Ġ ;",
        "Ġ (",
        "Ġ )",
        "Ġ ,",
        "Ġ i",
        "r e",
        "Ġ s",
        "Ġ -",
        "Ġ =",
        "Ġ- >",
        "Ġ c",
        "e r",
        "n t",
        "s t",
        "l e",
        "s e",
        "Ġ p",
        "a t",
        "Ġ *",
        "i n",
        "Ġ t",
        "d e",
        "Ġ {",
        "Ġ }",
        "o n",
        "Ġ f",
        "Ġ m",
        "Ġ [",
        "o r",
        "Ġ ]",
        "Ġ re",
        "Ġi f",
        "Ġ b",
        "Ġ 0",
        "a r",
        "c t",
        "Ġ n",
        "Ġ e",
        "a l",
        "Ġs t",
        "Ġ &",
        "m e",
        "Ġ 1",
        "Ġ a",
        "i t",
        "Ġ d",
        "Ġ +",
        "Ġ v",
        "Ġ g",
        "c o",
        "u r",
        "l o",
        "f f",
        "Ġ .",
        "Ġ \"",
        "r o",
        "Ġ o",
        "Ġ h",
        "i d",
        "a n",
        "Ġ u",
        "Ġi nt",
        "a d",
        "le n",
        "s i",
        "Ġre t",
        "u l",
        "i nt",
        "e t",
        "p e",
        "u t",
        "c k",
        "a me",
        "se t",
        "c h",
        "z e",
        "er r",
        "ur n",
        "i c",
        "Ġret urn",
        "p t",
        "Ġ r",
        "Ġ !",
        "Ġc o",
        "a g",
        "t o",
        "m p",
        "re e",
        "u e",
        "Ġ l",
        "e x",
        "at a",
        "Ġc h",
        "s s",
        "Ġ= =",
        "e d",
        "Ġ :",
        "ul l",
        "f i",
        "Ġ <",
        "n d",
        "e l",
        "t h",
        "Ġa v",
        "f o",
        "a se",
        "Ġc on",
        "in g",
        "Ġ w",
        "re a",
        "Ġn ull",
        "Ġst r",
        "i on",
        "Ġi n",
        "Ġ de",
        "y pe",
        "ff set",
        "at e",
        "u m",
        "c e",
        "b u",
        "Ġ 2",
        "st r",
        "Ġ x",
        "t e",
        "err or",
        "a b",
        "p i",
        "k e",
        "Ġe l",
        "si ze",
        "Ġs i",
        "Ġel se",
        "Ġb u",
        "Ġst at",
        "Ġcon st",
        "ex t",
        "in fo",
        "Ġ+ +",
        "a s",
        "e m",
        "t ype",
        "v al",
        "Ġ >",
        "Ġch ar",
        "ct x",
        "Ġo ffset",
        "i s",
        "v e",
        "u n",
        "a p",
        "Ġc ase",
        "r ame",
        "o id",
        "lo ck",
        "g et",
        "c on",
        "d ata",
        "Ġsi ze",
        "Ġ len",
        "t ree",
        "Ġf i",
        "ab le",
        "ad d",
        "3 2",
        "g th",
        "Ġp ro",
        "Ġf or",
        "Ġt v",
        "Ġstat ic",
        "l i",
        "t r",
        "rea k",
        "ke y",
        "Ġ& &",
        "Ġm y",
        "Ġv oid",
        "Ġb reak",
        "u p",
        "Ġ |",
        "Ġ! =",
        "p a",
        "co de",
        "p r",
        "Ġ q",
        "Ġ j",
        "i g",
        "n o",
        "u s",
        "0 0",
        "an d",
        "Ġtv b",
        "v er",
        "n c",
        "u b",
        "Ġbu f",
        "m s",
        "r a",
        "Ġ '",
        "i p",
        "pt r",
        "Ġ _",
        "Ġd ata",
        "ul t",
        "t x",
        "Ġ ar",
        "ff er",
        "Ġpro to",
        "g n",
        "Ġu n",
        "Ġ 4",
        "Ġv al",
        "u nt",
        "1 6",
        "l a",
        "Ġ %",
        "r c",
        "Ġe x",
        "ag e",
        "in e",
        "e ct",
        "lo g",
        "o t",
        "u ct",
        "n ame",
        "p ut",
        "a x",
        "r y",
        "o b",
        "Ġ #",
        "e nt",
        "Ġ+ =",
        "i l",
        "Ġ k",
        "Ġc tx",
        "t er",
        "d i",
        "t p",
        "f a",
        "Ġm b",
        "o de",
        "c a",
        "l ag",
        "o f",
        "or t",
        "f rame",
        "h t",
        "m t",
        "b it",
        "i f",
        "y te",
        "Ġre s",
        "p ro",
        "Ġo ut",
        "ar t",
        "i me",
        "Ġu int",
        "h e",
        "p o",
        "si gn",
        "co nt",
        "s l",
        "Ġstr uct",
        "Ġ 3",
        "e s",
        "len gth",
        "re s",
        "si on",
        "Ġ 8",
        "6 4",
        "lo c",
        "q l",
        "Ġh f",
        "fi le",
        "Ġi s",
        "i de",
        "Ġ| |",
        "d r",
        "s er",
        "Ġg et",
        "u int",
        "n um",
        "u re",
        "e w",
        "de x",
        "s ql",
        "Ġc ur",
        "i st",
        "rea m",
        "pr int",
        "m m",
        "c p",
        "Ġs e",
        "Ġr c",
        "Ġp a",
        "Ġt r",
        "i le",
        "Ġv p",
        "m b",
        "Ġs rc",
        "sign ed",
        "Ġmy sql",
        "i r",
        "it em",
        "Ġun signed",
        "e n",
        "v p",
        "Ġav ctx",
        "Ġp r",
        "f or",
        "in d",
        "Ġ y",
        "o o",
        "ch e",
        "Ġm s",
        "el d",
        "Ġ err",
        "Ġsize of",
        "Ġg b",
        "co unt",
        "ad er",
        "m at",
        "str ing",
        "st at",
        "val ue",
        "Ġc m",
        "bu ffer",
        "bit s",
        "Ġp ar",
        "bu f",
        "Ġc pi",
        "Ġt e",
        "Ġe nd",
        "Ġval ue",
        "me nt",
        "Ġn um",
        "g s",
        "o ffset",
        "q ue",
        "Ġ key",
        "ck et",
        "cont ext",
        "st ate",
        "re ad",
        "lag s",
        "e nd",
        "e p",
        "o w",
        "Ġg o",
        "li st",
        "Ġ error",
        "j ect",
        "s h",
        "i m",
        "Ġgo to",
        "Ġn ame",
        "or d",
        "Ġco de",
        "q u",
        "o p",
        "re nt",
        "ct ion",
        "p l",
        "Ġp i",
        "c s",
        "me m",
        "Ġlen gth",
        "al l",
        "b lock",
        "Ġs sl",
        "ic e",
        "an s",
        "m a",
        "co l",
        "f ree",
        "Ġf rame",
        "Ġb lock",
        "Ġd st",
        "p re",
        "er t",
        "r it",
        "i o",
        "Ġt ree",
        "in dex",
        "Ġe nc",
        "Ġm em",
        "ce ss",
        "Ġfi le",
        "c l",
        "Ġd i",
        "ch ar",
        "Ġre f",
        "al loc",
        "Ġh e",
        "a m",
        "p ar",
        "i ve",
        "c i",
        "it y",
        "o ut",
        "Ġ ?",
        "Ġm ax",
        "at ion",
        "b er",
        "a c",
        "ct or",
        "g e",
        "Ġp re",
        "Ġi d",
        "al se",
        "s c",
        "Ġt ype",
        "Ġ1 6",
        "t able",
        "Ġt o",
        "Ġa d",
        "ig ht",
        "Ġ> >",
        "Ġ le",
        "m ode",
        "ro w",
        "Ġw h",
        "bu g",
        "b yte",
        "de v",
        "as k",
        "Ġt s",
        "Ġ< <",
        "o d",
        "id th",
        "on g",
        "st ream",
        "Ġd is",
        "Ġco nt",
        "c m",
        "Ġe n",
        "co d",
        "co mp",
        "o ur",
        "s ub",
        "Ġs ub",
        "in it",
        "Ġb yte",
        "re f",
        "s y",
        "Ġ at",
        "ct ure",
        "Ġl a",
        "Ġp o",
        "Ġ> =",
        "p ort",
        "print f",
        "b e",
        "u nd",
        "Ġres ult",
        "n el",
        "Ġbu ffer",
        "Ġf alse",
        "Ġt mp",
        "l s",
        "i v",
        "ch an",
        "k t",
        "Ġo pt",
        "Ġst ep",
        "Ġs h",
        "Ġn ew",
        "c ip",
        "Ġre c",
        "Ġtr ue",
        "int er",
        "m ax",
        "Ġm v",
        "he ader",
        "ob ject",
        "fi l",
        "Ġd o",
        "Ġwh ile",
        "m v",
        "Ġst art",
        "a ck",
        "er y",
        "fa ult",
        "p er",
        "Ġb ase",
        "l ine",
        "Ġin fo",
        "ro m",
        "p c",
        "val id",
        "rit e",
        "Ġco l",
        "Ġf f",
        "Ġs k",
        "h er",
        "que st",
        "Ġc p",
        "Ġar g",
        "fi g",
        "Ġb it",
        "at h",
        "Ġh t",
        "ms g",
        "f t",
        "a nt",
        "a mp",
        "Ġe vp",
        "on e",
        "fi eld",
        "Ġ z",
        "Ġf lags",
        "Ġt h",
        "our ce",
        "Ġt able",
        "Ġms g",
        "l d",
        "Ġn ext",
        "t a",
        "and le",
        "Ġi m",
        "1 2",
        "de f",
        "Ġs y",
        "Ġl ine",
        "po s",
        "ca che",
        "lo w",
        "ra y",
        "la y",
        "re g",
        "Ġla st",
        "Ġout put",
        "Ġ /",
        "Ġs c",
        "add r",
        "pi cture",
        "ss ert",
        "x el",
        "v m",
        "Ġ 5",
        "Ġp info",
        "Ġht tp",
        "Ġst mt",
        "o k",
        "w it",
        "as h",
        "ht tp",
        "Ġ 6",
        "t ime",
        "Ġe v",
        "Ġcur rent",
        "Ġend if",
        "Ġin put",
        "Ġo b",
        "Ġv ir",
        "m ap",
        "str ide",
        "Ġq u",
        "i an",
        "Ġs et",
        "v ar",
        "ry pt",
        "Ġco unt",
        "o pt",
        "Ġco mp",
        "st art",
        "Ġfi eld",
        "l y",
        "m o",
        "n ew",
        "Ġco mm",
        "ro up",
        "or y",
        "ect ion",
        "Ġte st",
        "d ate",
        "for mat",
        "cip her",
        "Ġim age",
        "ca le",
        "Ġdis se",
        "Ġ\" %",
        "pe nd",
        "Ġde v",
        "Ġg uint",
        "v el",
        "Ġ al",
        "pa cket",
        "Ġst ream",
        "u se",
        "ve nt",
        "p h",
        "un k",
        "Ġpo s",
        "Ġst ate",
        "Ġa s",
        "p y",
        "re ss",
        "num ber",
        "Ġde st",
        "oo l",
        "c f",
        "Ġ< =",
        "Ġl ist",
        "Ġt x",
        "tr ans",
        "o st",
        "n s",
        "a ve",
        "h dr",
        "r i",
        "Ġpr int",
        "c mp",
        "Ġp l",
        "a ut",
        "te n",
        "de c",
        "Ġh dr",
        "00 0",
        "b ig",
        "Ġch e",
        "fi x",
        "che ck",
        "a in",
        "Ġche ck",
        "c ur",
        "Ġf z",
        "x y",
        "m in",
        "Ġ- -",
        "d is",
        "Ġm i",
        "s p",
        "s pi",
        "m l",
        "pe n",
        "a v",
        "Ġde fault",
        "Ġu ser",
        "Ġstat us",
        "Ġs l",
        "mb cs",
        "Ġte mp",
        "cp y",
        "amp le",
        "e nc",
        "qu ery",
        "con n",
        "d b",
        "Ġre ad",
        "h ci",
        "r st",
        "s b",
        "b o",
        "t ag",
        "d o",
        "c re",
        "s vp",
        "Ġb e",
        "Ġm ode",
        "wit ch",
        "m ask",
        "ch ive",
        "Ġstr ide",
        "Ġco spi",
        "pro cess",
        "b ase",
        "lo at",
        "le an",
        "Ġar gs",
        "e c",
        "Ġp tr",
        "f s",
        "Ġw idth",
        "w rite",
        "a ct",
        "la ss",
        "Ġdisse ct",
        "f lags",
        "l v",
        "Ġde f",
        "in valid",
        "Ġs witch",
        "con fig",
        "end ian",
        "lo ad",
        "an e",
        "i b",
        "Ġj ob",
        "u x",
        "f lag",
        "Ġv ar",
        "Ġhe ader",
        "ind ow",
        "Ġ log",
        "Ġar chive",
        "Ġa p",
        "t ext",
        "Ġf a",
        "p on",
        "fil ter",
        "stat us",
        "p ath",
        "len ame",
        "cod ing",
        "Ġin it",
        "t s",
        "ke n",
        "Ġe nt",
        "Ġq em",
        "for m",
        "h andle",
        "id x",
        "s k",
        "Ġs er",
        "Ġs ource",
        "Ġc l",
        "Ġin dex",
        "li ent",
        "ut e",
        "pa ss",
        "Ġ1 0",
        "Ġi o",
        "con ver",
        "in k",
        "Ġt ime",
        "u d",
        "Ġ_ _",
        "Ġch an",
        "f un",
        "s u",
        "ss age",
        "z cl",
        "ro und",
        "p s",
        "Ġg p",
        "Ġf ree",
        "Ġp b",
        "a ction",
        "re c"
      ]
    }
  }