{
  "version": "1.0",
  "truncation": null,
  "padding": null,
  "added_tokens": [
    {
      "id": 0,
      "content": "<s>",
      "single_word": false,
      "lstrip": false,
      "rstrip": false,
      "normalized": false,
      "special": true
    },
    {
      "id": 1,
      "content": "<pad>",
      "single_word": false,
      "lstrip": false,
      "rstrip": false,
      "normalized": false,
      "special": true
    },
    {
      "id": 2,
      "content": "</s>",
      "single_word": false,
      "lstrip": false,
      "rstrip": false,
      "normalized": false,
      "special": true
    },
    {
      "id": 3,
      "content": "<unk>",
      "single_word": false,
      "lstrip": false,
      "rstrip": false,
      "normalized": false,
      "special": true
    }
  ],
  "normalizer": {
    "type": "Lowercase"
  },
  "pre_tokenizer": {
    "type": "ByteLevel",
    "add_prefix_space": true,
    "trim_offsets": true,
    "use_regex": true
  },
  "post_processor": {
    "type": "ByteLevel",
    "add_prefix_space": true,
    "trim_offsets": true,
    "use_regex": true
  },
  "decoder": {
    "type": "ByteLevel",
    "add_prefix_space": true,
    "trim_offsets": true,
    "use_regex": true
  },
  "model": {
    "type": "BPE",
    "dropout": null,
    "unk_token": "<unk>",
    "continuing_subword_prefix": null,
    "end_of_word_suffix": null,
    "fuse_unk": false,
    "vocab": {
      "<s>": 0,
      "<pad>": 1,
      "</s>": 2,
      "<unk>": 3,
      "!": 4,
      "\"": 5,
      "#": 6,
      "$": 7,
      "%": 8,
      "&": 9,
      "'": 10,
      "(": 11,
      ")": 12,
      "*": 13,
      "+": 14,
      ",": 15,
      "-": 16,
      ".": 17,
      "/": 18,
      "0": 19,
      "1": 20,
      "2": 21,
      "3": 22,
      "4": 23,
      "5": 24,
      "6": 25,
      "7": 26,
      "8": 27,
      "9": 28,
      ":": 29,
      ";": 30,
      "<": 31,
      "=": 32,
      ">": 33,
      "?": 34,
      "@": 35,
      "A": 36,
      "B": 37,
      "C": 38,
      "D": 39,
      "E": 40,
      "F": 41,
      "G": 42,
      "H": 43,
      "I": 44,
      "J": 45,
      "K": 46,
      "L": 47,
      "M": 48,
      "N": 49,
      "O": 50,
      "P": 51,
      "Q": 52,
      "R": 53,
      "S": 54,
      "T": 55,
      "U": 56,
      "V": 57,
      "W": 58,
      "X": 59,
      "Y": 60,
      "Z": 61,
      "[": 62,
      "\\": 63,
      "]": 64,
      "^": 65,
      "_": 66,
      "`": 67,
      "a": 68,
      "b": 69,
      "c": 70,
      "d": 71,
      "e": 72,
      "f": 73,
      "g": 74,
      "h": 75,
      "i": 76,
      "j": 77,
      "k": 78,
      "l": 79,
      "m": 80,
      "n": 81,
      "o": 82,
      "p": 83,
      "q": 84,
      "r": 85,
      "s": 86,
      "t": 87,
      "u": 88,
      "v": 89,
      "w": 90,
      "x": 91,
      "y": 92,
      "z": 93,
      "{": 94,
      "|": 95,
      "}": 96,
      "~": 97,
      "¡": 98,
      "¢": 99,
      "£": 100,
      "¤": 101,
      "¥": 102,
      "¦": 103,
      "§": 104,
      "¨": 105,
      "©": 106,
      "ª": 107,
      "«": 108,
      "¬": 109,
      "®": 110,
      "¯": 111,
      "°": 112,
      "±": 113,
      "²": 114,
      "³": 115,
      "´": 116,
      "µ": 117,
      "¶": 118,
      "·": 119,
      "¸": 120,
      "¹": 121,
      "º": 122,
      "»": 123,
      "¼": 124,
      "½": 125,
      "¾": 126,
      "¿": 127,
      "À": 128,
      "Á": 129,
      "Â": 130,
      "Ã": 131,
      "Ä": 132,
      "Å": 133,
      "Æ": 134,
      "Ç": 135,
      "È": 136,
      "É": 137,
      "Ê": 138,
      "Ë": 139,
      "Ì": 140,
      "Í": 141,
      "Î": 142,
      "Ï": 143,
      "Ð": 144,
      "Ñ": 145,
      "Ò": 146,
      "Ó": 147,
      "Ô": 148,
      "Õ": 149,
      "Ö": 150,
      "×": 151,
      "Ø": 152,
      "Ù": 153,
      "Ú": 154,
      "Û": 155,
      "Ü": 156,
      "Ý": 157,
      "Þ": 158,
      "ß": 159,
      "à": 160,
      "á": 161,
      "â": 162,
      "ã": 163,
      "ä": 164,
      "å": 165,
      "æ": 166,
      "ç": 167,
      "è": 168,
      "é": 169,
      "ê": 170,
      "ë": 171,
      "ì": 172,
      "í": 173,
      "î": 174,
      "ï": 175,
      "ð": 176,
      "ñ": 177,
      "ò": 178,
      "ó": 179,
      "ô": 180,
      "õ": 181,
      "ö": 182,
      "÷": 183,
      "ø": 184,
      "ù": 185,
      "ú": 186,
      "û": 187,
      "ü": 188,
      "ý": 189,
      "þ": 190,
      "ÿ": 191,
      "Ā": 192,
      "ā": 193,
      "Ă": 194,
      "ă": 195,
      "Ą": 196,
      "ą": 197,
      "Ć": 198,
      "ć": 199,
      "Ĉ": 200,
      "ĉ": 201,
      "Ċ": 202,
      "ċ": 203,
      "Č": 204,
      "č": 205,
      "Ď": 206,
      "ď": 207,
      "Đ": 208,
      "đ": 209,
      "Ē": 210,
      "ē": 211,
      "Ĕ": 212,
      "ĕ": 213,
      "Ė": 214,
      "ė": 215,
      "Ę": 216,
      "ę": 217,
      "Ě": 218,
      "ě": 219,
      "Ĝ": 220,
      "ĝ": 221,
      "Ğ": 222,
      "ğ": 223,
      "Ġ": 224,
      "ġ": 225,
      "Ģ": 226,
      "ģ": 227,
      "Ĥ": 228,
      "ĥ": 229,
      "Ħ": 230,
      "ħ": 231,
      "Ĩ": 232,
      "ĩ": 233,
      "Ī": 234,
      "ī": 235,
      "Ĭ": 236,
      "ĭ": 237,
      "Į": 238,
      "į": 239,
      "İ": 240,
      "ı": 241,
      "Ĳ": 242,
      "ĳ": 243,
      "Ĵ": 244,
      "ĵ": 245,
      "Ķ": 246,
      "ķ": 247,
      "ĸ": 248,
      "Ĺ": 249,
      "ĺ": 250,
      "Ļ": 251,
      "ļ": 252,
      "Ľ": 253,
      "ľ": 254,
      "Ŀ": 255,
      "ŀ": 256,
      "Ł": 257,
      "ł": 258,
      "Ń": 259,
      "Ġ;": 260,
      "Ġ(": 261,
      "Ġ)": 262,
      "Ġ,": 263,
      "Ġi": 264,
      "re": 265,
      "Ġs": 266,
      "Ġ-": 267,
      "Ġ=": 268,
      "Ġ->": 269,
      "Ġc": 270,
      "er": 271,
      "nt": 272,
      "st": 273,
      "le": 274,
      "se": 275,
      "Ġp": 276,
      "at": 277,
      "Ġ*": 278,
      "in": 279,
      "Ġt": 280,
      "de": 281,
      "Ġ{": 282,
      "Ġ}": 283,
      "on": 284,
      "Ġf": 285,
      "Ġm": 286,
      "Ġ[": 287,
      "or": 288,
      "Ġ]": 289,
      "Ġre": 290,
      "Ġif": 291,
      "Ġb": 292,
      "Ġ0": 293,
      "ar": 294,
      "ct": 295,
      "Ġn": 296,
      "Ġe": 297,
      "al": 298,
      "Ġst": 299,
      "Ġ&": 300,
      "me": 301,
      "Ġ1": 302,
      "Ġa": 303,
      "it": 304,
      "Ġd": 305,
      "Ġ+": 306,
      "Ġv": 307,
      "Ġg": 308,
      "co": 309,
      "ur": 310,
      "lo": 311,
      "ff": 312,
      "Ġ.": 313,
      "Ġ\"": 314,
      "ro": 315,
      "Ġo": 316,
      "Ġh": 317,
      "id": 318,
      "an": 319,
      "Ġu": 320,
      "Ġint": 321,
      "ad": 322,
      "len": 323,
      "si": 324,
      "Ġret": 325,
      "ul": 326,
      "int": 327,
      "et": 328,
      "pe": 329,
      "ut": 330,
      "ck": 331,
      "ame": 332,
      "set": 333,
      "ch": 334,
      "ze": 335,
      "err": 336,
      "urn": 337,
      "ic": 338,
      "Ġreturn": 339,
      "pt": 340,
      "Ġr": 341,
      "Ġ!": 342,
      "Ġco": 343,
      "ag": 344,
      "to": 345,
      "mp": 346,
      "ree": 347,
      "ue": 348,
      "Ġl": 349,
      "ex": 350,
      "ata": 351,
      "Ġch": 352,
      "ss": 353,
      "Ġ==": 354,
      "ed": 355,
      "Ġ:": 356,
      "ull": 357,
      "fi": 358,
      "Ġ<": 359,
      "nd": 360,
      "el": 361,
      "th": 362,
      "Ġav": 363,
      "fo": 364,
      "ase": 365,
      "Ġcon": 366,
      "ing": 367,
      "Ġw": 368,
      "rea": 369,
      "Ġnull": 370,
      "Ġstr": 371,
      "ion": 372,
      "Ġin": 373,
      "Ġde": 374,
      "ype": 375,
      "ffset": 376,
      "ate": 377,
      "um": 378,
      "ce": 379,
      "bu": 380,
      "Ġ2": 381,
      "str": 382,
      "Ġx": 383,
      "te": 384,
      "error": 385,
      "ab": 386,
      "pi": 387,
      "ke": 388,
      "Ġel": 389,
      "size": 390,
      "Ġsi": 391,
      "Ġelse": 392,
      "Ġbu": 393,
      "Ġstat": 394,
      "Ġconst": 395,
      "ext": 396,
      "info": 397,
      "Ġ++": 398,
      "as": 399,
      "em": 400,
      "type": 401,
      "val": 402,
      "Ġ>": 403,
      "Ġchar": 404,
      "ctx": 405,
      "Ġoffset": 406,
      "is": 407,
      "ve": 408,
      "un": 409,
      "ap": 410,
      "Ġcase": 411,
      "rame": 412,
      "oid": 413,
      "lock": 414,
      "get": 415,
      "con": 416,
      "data": 417,
      "Ġsize": 418,
      "Ġlen": 419,
      "tree": 420,
      "Ġfi": 421,
      "able": 422,
      "add": 423,
      "32": 424,
      "gth": 425,
      "Ġpro": 426,
      "Ġfor": 427,
      "Ġtv": 428,
      "Ġstatic": 429,
      "li": 430,
      "tr": 431,
      "reak": 432,
      "key": 433,
      "Ġ&&": 434,
      "Ġmy": 435,
      "Ġvoid": 436,
      "Ġbreak": 437,
      "up": 438,
      "Ġ|": 439,
      "Ġ!=": 440,
      "pa": 441,
      "code": 442,
      "pr": 443,
      "Ġq": 444,
      "Ġj": 445,
      "ig": 446,
      "no": 447,
      "us": 448,
      "00": 449,
      "and": 450,
      "Ġtvb": 451,
      "ver": 452,
      "nc": 453,
      "ub": 454,
      "Ġbuf": 455,
      "ms": 456,
      "ra": 457,
      "Ġ'": 458,
      "ip": 459,
      "ptr": 460,
      "Ġ_": 461,
      "Ġdata": 462,
      "ult": 463,
      "tx": 464,
      "Ġar": 465,
      "ffer": 466,
      "Ġproto": 467,
      "gn": 468,
      "Ġun": 469,
      "Ġ4": 470,
      "Ġval": 471,
      "unt": 472,
      "16": 473,
      "la": 474,
      "Ġ%": 475,
      "rc": 476,
      "Ġex": 477,
      "age": 478,
      "ine": 479,
      "ect": 480,
      "log": 481,
      "ot": 482,
      "uct": 483,
      "name": 484,
      "put": 485,
      "ax": 486,
      "ry": 487,
      "ob": 488,
      "Ġ#": 489,
      "ent": 490,
      "Ġ+=": 491,
      "il": 492,
      "Ġk": 493,
      "Ġctx": 494,
      "ter": 495,
      "di": 496,
      "tp": 497,
      "fa": 498,
      "Ġmb": 499,
      "ode": 500,
      "ca": 501,
      "lag": 502,
      "of": 503,
      "ort": 504,
      "frame": 505,
      "ht": 506,
      "mt": 507,
      "bit": 508,
      "if": 509,
      "yte": 510,
      "Ġres": 511,
      "pro": 512,
      "Ġout": 513,
      "art": 514,
      "ime": 515,
      "Ġuint": 516,
      "he": 517,
      "po": 518,
      "sign": 519,
      "cont": 520,
      "sl": 521,
      "Ġstruct": 522,
      "Ġ3": 523,
      "es": 524,
      "length": 525,
      "res": 526,
      "sion": 527,
      "Ġ8": 528,
      "64": 529,
      "loc": 530,
      "ql": 531,
      "Ġhf": 532,
      "file": 533,
      "Ġis": 534,
      "ide": 535,
      "Ġ||": 536,
      "dr": 537,
      "ser": 538,
      "Ġget": 539,
      "uint": 540,
      "num": 541,
      "ure": 542,
      "ew": 543,
      "dex": 544,
      "sql": 545,
      "Ġcur": 546,
      "ist": 547,
      "ream": 548,
      "print": 549,
      "mm": 550,
      "cp": 551,
      "Ġse": 552,
      "Ġrc": 553,
      "Ġpa": 554,
      "Ġtr": 555,
      "ile": 556,
      "Ġvp": 557,
      "mb": 558,
      "Ġsrc": 559,
      "signed": 560,
      "Ġmysql": 561,
      "ir": 562,
      "item": 563,
      "Ġunsigned": 564,
      "en": 565,
      "vp": 566,
      "Ġavctx": 567,
      "Ġpr": 568,
      "for": 569,
      "ind": 570,
      "Ġy": 571,
      "oo": 572,
      "che": 573,
      "Ġms": 574,
      "eld": 575,
      "Ġerr": 576,
      "Ġsizeof": 577,
      "Ġgb": 578,
      "count": 579,
      "ader": 580,
      "mat": 581,
      "string": 582,
      "stat": 583,
      "value": 584,
      "Ġcm": 585,
      "buffer": 586,
      "bits": 587,
      "Ġpar": 588,
      "buf": 589,
      "Ġcpi": 590,
      "Ġte": 591,
      "Ġend": 592,
      "Ġvalue": 593,
      "ment": 594,
      "Ġnum": 595,
      "gs": 596,
      "offset": 597,
      "que": 598,
      "Ġkey": 599,
      "cket": 600,
      "context": 601,
      "state": 602,
      "read": 603,
      "lags": 604,
      "end": 605,
      "ep": 606,
      "ow": 607,
      "Ġgo": 608,
      "list": 609,
      "Ġerror": 610,
      "ject": 611,
      "sh": 612,
      "im": 613,
      "Ġgoto": 614,
      "Ġname": 615,
      "ord": 616,
      "Ġcode": 617,
      "qu": 618,
      "op": 619,
      "rent": 620,
      "ction": 621,
      "pl": 622,
      "Ġpi": 623,
      "cs": 624,
      "mem": 625,
      "Ġlength": 626,
      "all": 627,
      "block": 628,
      "Ġssl": 629,
      "ice": 630,
      "ans": 631,
      "ma": 632,
      "col": 633,
      "free": 634,
      "Ġframe": 635,
      "Ġblock": 636,
      "Ġdst": 637,
      "pre": 638,
      "ert": 639,
      "rit": 640,
      "io": 641,
      "Ġtree": 642,
      "index": 643,
      "Ġenc": 644,
      "Ġmem": 645,
      "cess": 646,
      "Ġfile": 647,
      "cl": 648,
      "Ġdi": 649,
      "char": 650,
      "Ġref": 651,
      "alloc": 652,
      "Ġhe": 653,
      "am": 654,
      "par": 655,
      "ive": 656,
      "ci": 657,
      "ity": 658,
      "out": 659,
      "Ġ?": 660,
      "Ġmax": 661,
      "ation": 662,
      "ber": 663,
      "ac": 664,
      "ctor": 665,
      "ge": 666,
      "Ġpre": 667,
      "Ġid": 668,
      "alse": 669,
      "sc": 670,
      "Ġtype": 671,
      "Ġ16": 672,
      "table": 673,
      "Ġto": 674,
      "Ġad": 675,
      "ight": 676,
      "Ġ>>": 677,
      "Ġle": 678,
      "mode": 679,
      "row": 680,
      "Ġwh": 681,
      "bug": 682,
      "byte": 683,
      "dev": 684,
      "ask": 685,
      "Ġts": 686,
      "Ġ<<": 687,
      "od": 688,
      "idth": 689,
      "ong": 690,
      "stream": 691,
      "Ġdis": 692,
      "Ġcont": 693,
      "cm": 694,
      "Ġen": 695,
      "cod": 696,
      "comp": 697,
      "our": 698,
      "sub": 699,
      "Ġsub": 700,
      "init": 701,
      "Ġbyte": 702,
      "ref": 703,
      "sy": 704,
      "Ġat": 705,
      "cture": 706,
      "Ġla": 707,
      "Ġpo": 708,
      "Ġ>=": 709,
      "port": 710,
      "printf": 711,
      "be": 712,
      "und": 713,
      "Ġresult": 714,
      "nel": 715,
      "Ġbuffer": 716,
      "Ġfalse": 717,
      "Ġtmp": 718,
      "ls": 719,
      "iv": 720,
      "chan": 721,
      "kt": 722,
      "Ġopt": 723,
      "Ġstep": 724,
      "Ġsh": 725,
      "Ġnew": 726,
      "cip": 727,
      "Ġrec": 728,
      "Ġtrue": 729,
      "inter": 730,
      "max": 731,
      "Ġmv": 732,
      "header": 733,
      "object": 734,
      "fil": 735,
      "Ġdo": 736,
      "Ġwhile": 737,
      "mv": 738,
      "Ġstart": 739,
      "ack": 740,
      "ery": 741,
      "fault": 742,
      "per": 743,
      "Ġbase": 744,
      "line": 745,
      "Ġinfo": 746,
      "rom": 747,
      "pc": 748,
      "valid": 749,
      "rite": 750,
      "Ġcol": 751,
      "Ġff": 752,
      "Ġsk": 753,
      "her": 754,
      "quest": 755,
      "Ġcp": 756,
      "Ġarg": 757,
      "fig": 758,
      "Ġbit": 759,
      "ath": 760,
      "Ġht": 761,
      "msg": 762,
      "ft": 763,
      "ant": 764,
      "amp": 765,
      "Ġevp": 766,
      "one": 767,
      "field": 768,
      "Ġz": 769,
      "Ġflags": 770,
      "Ġth": 771,
      "ource": 772,
      "Ġtable": 773,
      "Ġmsg": 774,
      "ld": 775,
      "Ġnext": 776,
      "ta": 777,
      "andle": 778,
      "Ġim": 779,
      "12": 780,
      "def": 781,
      "Ġsy": 782,
      "Ġline": 783,
      "pos": 784,
      "cache": 785,
      "low": 786,
      "ray": 787,
      "lay": 788,
      "reg": 789,
      "Ġlast": 790,
      "Ġoutput": 791,
      "Ġ/": 792,
      "Ġsc": 793,
      "addr": 794,
      "picture": 795,
      "ssert": 796,
      "xel": 797,
      "vm": 798,
      "Ġ5": 799,
      "Ġpinfo": 800,
      "Ġhttp": 801,
      "Ġstmt": 802,
      "ok": 803,
      "wit": 804,
      "ash": 805,
      "http": 806,
      "Ġ6": 807,
      "time": 808,
      "Ġev": 809,
      "Ġcurrent": 810,
      "Ġendif": 811,
      "Ġinput": 812,
      "Ġob": 813,
      "Ġvir": 814,
      "map": 815,
      "stride": 816,
      "Ġqu": 817,
      "ian": 818,
      "Ġset": 819,
      "var": 820,
      "rypt": 821,
      "Ġcount": 822,
      "opt": 823,
      "Ġcomp": 824,
      "start": 825,
      "Ġfield": 826,
      "ly": 827,
      "mo": 828,
      "new": 829,
      "Ġcomm": 830,
      "roup": 831,
      "ory": 832,
      "ection": 833,
      "Ġtest": 834,
      "date": 835,
      "format": 836,
      "cipher": 837,
      "Ġimage": 838,
      "cale": 839,
      "Ġdisse": 840,
      "Ġ\"%": 841,
      "pend": 842,
      "Ġdev": 843,
      "Ġguint": 844,
      "vel": 845,
      "Ġal": 846,
      "packet": 847,
      "Ġstream": 848,
      "use": 849,
      "vent": 850,
      "ph": 851,
      "unk": 852,
      "Ġpos": 853,
      "Ġstate": 854,
      "Ġas": 855,
      "py": 856,
      "ress": 857,
      "number": 858,
      "Ġdest": 859,
      "ool": 860,
      "cf": 861,
      "Ġ<=": 862,
      "Ġlist": 863,
      "Ġtx": 864,
      "trans": 865,
      "ost": 866,
      "ns": 867,
      "ave": 868,
      "hdr": 869,
      "ri": 870,
      "Ġprint": 871,
      "cmp": 872,
      "Ġpl": 873,
      "aut": 874,
      "ten": 875,
      "dec": 876,
      "Ġhdr": 877,
      "000": 878,
      "big": 879,
      "Ġche": 880,
      "fix": 881,
      "check": 882,
      "ain": 883,
      "Ġcheck": 884,
      "cur": 885,
      "Ġfz": 886,
      "xy": 887,
      "min": 888,
      "Ġ--": 889,
      "dis": 890,
      "Ġmi": 891,
      "sp": 892,
      "spi": 893,
      "ml": 894,
      "pen": 895,
      "av": 896,
      "Ġdefault": 897,
      "Ġuser": 898,
      "Ġstatus": 899,
      "Ġsl": 900,
      "mbcs": 901,
      "Ġtemp": 902,
      "cpy": 903,
      "ample": 904,
      "enc": 905,
      "query": 906,
      "conn": 907,
      "db": 908,
      "Ġread": 909,
      "hci": 910,
      "rst": 911,
      "sb": 912,
      "bo": 913,
      "tag": 914,
      "do": 915,
      "cre": 916,
      "svp": 917,
      "Ġbe": 918,
      "Ġmode": 919,
      "witch": 920,
      "mask": 921,
      "chive": 922,
      "Ġstride": 923,
      "Ġcospi": 924,
      "process": 925,
      "base": 926,
      "loat": 927,
      "lean": 928,
      "Ġargs": 929,
      "ec": 930,
      "Ġptr": 931,
      "fs": 932,
      "Ġwidth": 933,
      "write": 934,
      "act": 935,
      "lass": 936,
      "Ġdissect": 937,
      "flags": 938,
      "lv": 939,
      "Ġdef": 940,
      "invalid": 941,
      "Ġswitch": 942,
      "config": 943,
      "endian": 944,
      "load": 945,
      "ane": 946,
      "ib": 947,
      "Ġjob": 948,
      "ux": 949,
      "flag": 950,
      "Ġvar": 951,
      "Ġheader": 952,
      "indow": 953,
      "Ġlog": 954,
      "Ġarchive": 955,
      "Ġap": 956,
      "text": 957,
      "Ġfa": 958,
      "pon": 959,
      "filter": 960,
      "status": 961,
      "path": 962,
      "lename": 963,
      "coding": 964,
      "Ġinit": 965,
      "ts": 966,
      "ken": 967,
      "Ġent": 968,
      "Ġqem": 969,
      "form": 970,
      "handle": 971,
      "idx": 972,
      "sk": 973,
      "Ġser": 974,
      "Ġsource": 975,
      "Ġcl": 976,
      "Ġindex": 977,
      "lient": 978,
      "ute": 979,
      "pass": 980,
      "Ġ10": 981,
      "Ġio": 982,
      "conver": 983,
      "ink": 984,
      "Ġtime": 985,
      "ud": 986,
      "Ġ__": 987,
      "Ġchan": 988,
      "fun": 989,
      "su": 990,
      "ssage": 991,
      "zcl": 992,
      "round": 993,
      "ps": 994,
      "Ġgp": 995,
      "Ġfree": 996,
      "Ġpb": 997,
      "action": 998,
      "rec": 999,
      "Ġcmd": 1000,
      "lc": 1001,
      "mi": 1002,
      "Ġpd": 1003,
      "long": 1004,
      "codec": 1005,
      "Ġhb": 1006,
      "array": 1007,
      "Ġfrom": 1008,
      "Ġconn": 1009,
      "entry": 1010,
      "Ġ'\\": 1011,
      "ponse": 1012,
      "Ġpy": 1013,
      "ift": 1014,
      "Ġskip": 1015,
      "bytes": 1016,
      "arget": 1017,
      "not": 1018,
      "channel": 1019,
      "Ġnot": 1020,
      "Ġ7": 1021,
      "Ġver": 1022,
      "tem": 1023,
      "wn": 1024,
      "width": 1025,
      "ameter": 1026,
      "stmt": 1027,
      "Ġsf": 1028,
      "eff": 1029,
      "Ġcpu": 1030,
      "coder": 1031,
      "ust": 1032,
      "Ġgt": 1033,
      "Ġfil": 1034,
      "group": 1035,
      "arg": 1036,
      "Ġ|=": 1037,
      "Ġft": 1038,
      "off": 1039,
      "Ġup": 1040,
      "ccess": 1041,
      "Ġpacket": 1042,
      "bee": 1043,
      "Ġtag": 1044,
      "lob": 1045,
      "urm": 1046,
      "pkt": 1047,
      "Ġgtk": 1048,
      "gment": 1049,
      "ere": 1050,
      "version": 1051,
      "Ġ-=": 1052,
      "Ġuse": 1053,
      "Ġtrans": 1054,
      "Ġheight": 1055,
      "Ġitem": 1056,
      "tra": 1057,
      "Ġfd": 1058,
      "user": 1059,
      "dir": 1060,
      "so": 1061,
      "buff": 1062,
      "Ġop": 1063,
      "pace": 1064,
      "Ġvpx": 1065,
      "iled": 1066,
      "main": 1067,
      "bind": 1068,
      "lose": 1069,
      "Ġpkt": 1070,
      "gen": 1071,
      "Ġsd": 1072,
      "pixel": 1073,
      "Ġstrlen": 1074,
      "tension": 1075,
      "Ġstd": 1076,
      "request": 1077,
      "Ġmime": 1078,
      "color": 1079,
      "call": 1080,
      "ator": 1081,
      "Ġlong": 1082,
      "Ġassert": 1083,
      "rag": 1084,
      "Ġno": 1085,
      "Ġleft": 1086,
      "decode": 1087,
      "tm": 1088,
      "Ġsig": 1089,
      "server": 1090,
      "debug": 1091,
      "Ġbytes": 1092,
      "comm": 1093,
      "back": 1094,
      "fe": 1095,
      "ition": 1096,
      "\\\"": 1097,
      "Ġgs": 1098,
      "cb": 1099,
      "Ġxd": 1100,
      "Ġformat": 1101,
      "memory": 1102,
      "Ġmemcpy": 1103,
      "war": 1104,
      "Ġloc": 1105,
      "Ġtm": 1106,
      "Ġbytestream": 1107,
      "rol": 1108,
      "Ġrow": 1109,
      "Ġrequest": 1110,
      "Ġ12": 1111,
      "ol": 1112,
      "ero": 1113,
      "class": 1114,
      "fd": 1115,
      "uble": 1116,
      "Ġentry": 1117,
      "ams": 1118,
      "cel": 1119,
      "ssl": 1120,
      "fl": 1121,
      "ret": 1122,
      "Ġaddr": 1123,
      "Ġreg": 1124,
      "Ġnode": 1125,
      "Ġfirst": 1126,
      "ump": 1127,
      "Ġobj": 1128,
      "Ġpic": 1129,
      "Ġgctx": 1130,
      "tv": 1131,
      "nown": 1132,
      "mit": 1133,
      "nce": 1134,
      "req": 1135,
      "Ġ##": 1136,
      "Ġfloat": 1137,
      "hash": 1138,
      "Ġdat": 1139,
      "Ġgc": 1140,
      "pack": 1141,
      "igh": 1142,
      "128": 1143,
      "ick": 1144,
      "Ġca": 1145,
      "pec": 1146,
      "Ġbs": 1147,
      "tls": 1148,
      "image": 1149,
      "Ġdire": 1150,
      "Ġmin": 1151,
      "Ġreq": 1152,
      "Ġmsr": 1153,
      "ks": 1154,
      "Ġcms": 1155,
      "null": 1156,
      "yn": 1157,
      "regist": 1158,
      "fb": 1159,
      "ule": 1160,
      "epi": 1161,
      "Ġsb": 1162,
      "Ġgst": 1163,
      "ial": 1164,
      "Ġcommand": 1165,
      "Ġplane": 1166,
      "Ġlinesize": 1167,
      "conv": 1168,
      "ctory": 1169,
      "Ġfprintf": 1170,
      "attr": 1171,
      "Ġcb": 1172,
      "result": 1173,
      "shift": 1174,
      "pred": 1175,
      "red": 1176,
      "Ġinter": 1177,
      "--": 1178,
      "Ġcs": 1179,
      "append": 1180,
      "lic": 1181,
      "Ġtarget": 1182,
      "ize": 1183,
      "const": 1184,
      "ush": 1185,
      "own": 1186,
      "otion": 1187,
      ")\"": 1188,
      "son": 1189,
      "Ġme": 1190,
      "Ġso": 1191,
      "Ġsel": 1192,
      "update": 1193,
      "device": 1194,
      "Ġserver": 1195,
      "Ġ32": 1196,
      "Ġadd": 1197,
      "stats": 1198,
      "order": 1199,
      "10": 1200,
      "inue": 1201,
      "Ġstrcmp": 1202,
      "24": 1203,
      "Ġfo": 1204,
      "Ġpriv": 1205,
      "tt": 1206,
      "Ġstring": 1207,
      "raw": 1208,
      "Ġ25": 1209,
      "copy": 1210,
      "Ġlevel": 1211,
      "fmt": 1212,
      "__": 1213,
      "Ġiso": 1214,
      "cfg": 1215,
      "Ġxml": 1216,
      "success": 1217,
      "Ġah": 1218,
      "window": 1219,
      "Ġpk": 1220,
      "Ġfmt": 1221,
      "Ġchannel": 1222,
      "Ġold": 1223,
      "space": 1224,
      "Ġmac": 1225,
      "Ġaut": 1226,
      "from": 1227,
      "Ġparent": 1228,
      "xff": 1229,
      "Ġsection": 1230,
      "Ġparse": 1231,
      "lta": 1232,
      "mux": 1233,
      "ga": 1234,
      "node": 1235,
      "Ġaverror": 1236,
      "abel": 1237,
      "sec": 1238,
      "Ġbool": 1239,
      "fill": 1240,
      "Ġcontext": 1241,
      "Ġversion": 1242,
      "ore": 1243,
      "scale": 1244,
      "Ġprev": 1245,
      "struct": 1246,
      "gr": 1247,
      "Ġifdef": 1248,
      "ning": 1249,
      "Ġmap": 1250,
      "Ġhost": 1251,
      "ions": 1252,
      "Ġgcry": 1253,
      "assert": 1254,
      "Ġab": 1255,
      "Ġbl": 1256,
      "=%": 1257,
      "rl": 1258,
      "ary": 1259,
      "Ġgint": 1260,
      "Ġro": 1261,
      "ail": 1262,
      "Ġdecode": 1263,
      "Ġthis": 1264,
      "Ġsdk": 1265,
      "dup": 1266,
      "Ġenv": 1267,
      "att": 1268,
      "token": 1269,
      "Ġgpg": 1270,
      "lmbcs": 1271,
      "pect": 1272,
      "Ġevent": 1273,
      "Ġpixel": 1274,
      "unknown": 1275,
      "Ġmask": 1276,
      "Ġlo": 1277,
      "job": 1278,
      "arch": 1279,
      "adm": 1280,
      "word": 1281,
      "Ġber": 1282,
      "cond": 1283,
      "sha": 1284,
      "ange": 1285,
      "Ġput": 1286,
      "let": 1287,
      "Ġ\"\"": 1288,
      "limit": 1289,
      "Ġobject": 1290,
      "func": 1291,
      "Ġparam": 1292,
      "ild": 1293,
      "Ġbits": 1294,
      "layer": 1295,
      "Ġqemu": 1296,
      "create": 1297,
      "wo": 1298,
      "Ġ\"\\": 1299,
      "aw": 1300,
      "Ġdb": 1301,
      "test": 1302,
      "tl": 1303,
      "Ġidx": 1304,
      "Ġpath": 1305,
      "0000": 1306,
      "Ġps": 1307,
      "Ġrsvp": 1308,
      "Ġcontinue": 1309,
      "amples": 1310,
      "Ġti": 1311,
      "lyph": 1312,
      "Ġjpc": 1313,
      "skip": 1314,
      "Ġohci": 1315,
      "fail": 1316,
      "net": 1317,
      "Ġconfig": 1318,
      "Ġwrite": 1319,
      "close": 1320,
      "Ġsha": 1321,
      "level": 1322,
      "zbee": 1323,
      "Ġfilter": 1324,
      "lect": 1325,
      "Ġjbig": 1326,
      "Ġquery": 1327,
      "rtp": 1328,
      "left": 1329,
      "ched": 1330,
      "lit": 1331,
      "desc": 1332,
      "Ġwctx": 1333,
      "sys": 1334,
      "wa": 1335,
      "coeff": 1336,
      "exec": 1337,
      "uni": 1338,
      "Ġopen": 1339,
      "pic": 1340,
      "client": 1341,
      "send": 1342,
      "ideo": 1343,
      "Ġusb": 1344,
      "Ġdie": 1345,
      "est": 1346,
      "Ġextra": 1347,
      "serv": 1348,
      "hs": 1349,
      "ported": 1350,
      "Ġdouble": 1351,
      "sync": 1352,
      "converter": 1353,
      "nv": 1354,
      "Ġrd": 1355,
      "auth": 1356,
      "encrypt": 1357,
      "height": 1358,
      "Ġext": 1359,
      "ply": 1360,
      "malloc": 1361,
      "boo": 1362,
      "ated": 1363,
      "Ġgot": 1364,
      "ument": 1365,
      "Ġauth": 1366,
      "cap": 1367,
      "Ġtp": 1368,
      "Ġwmem": 1369,
      "resh": 1370,
      "Ġprintf": 1371,
      "return": 1372,
      "atch": 1373,
      "message": 1374,
      "Ġdebug": 1375,
      "Ġsign": 1376,
      "Ġmemset": 1377,
      "Ġip": 1378,
      "change": 1379,
      "quant": 1380,
      "Ġdec": 1381,
      "Ġexit": 1382,
      "Ġsv": 1383,
      "Ġstp": 1384,
      "ify": 1385,
      "ger": 1386,
      "Ġdct": 1387,
      "yload": 1388,
      "alt": 1389,
      "exp": 1390,
      "Ġds": 1391,
      "Ġdbug": 1392,
      "Ġhandle": 1393,
      "proxy": 1394,
      "udvm": 1395,
      "Ġiv": 1396,
      "Ġtot": 1397,
      "Ġfilename": 1398,
      "default": 1399,
      "Ġbp": 1400,
      "1000": 1401,
      "rd": 1402,
      "parse": 1403,
      "Ġma": 1404,
      "event": 1405,
      "rate": 1406,
      "ature": 1407,
      "nal": 1408,
      "wks": 1409,
      "asn": 1410,
      "face": 1411,
      "tvb": 1412,
      "cost": 1413,
      "next": 1414,
      "om": 1415,
      "Ġsum": 1416,
      "Ġtt": 1417,
      "rsvp": 1418,
      "uff": 1419,
      "Ġself": 1420,
      "host": 1421,
      "pth": 1422,
      "gener": 1423,
      "Ġ9": 1424,
      "Ġaes": 1425,
      "subtree": 1426,
      "hand": 1427,
      "wr": 1428,
      "Ġsys": 1429,
      "ript": 1430,
      "Ġdirectory": 1431,
      "Ġpc": 1432,
      "nth": 1433,
      "Ġuni": 1434,
      "Ġslurm": 1435,
      "Ġavpkt": 1436,
      "peg": 1437,
      "diff": 1438,
      "tap": 1439,
      "Ġbn": 1440,
      "cc": 1441,
      "mod": 1442,
      "tle": 1443,
      "Ġthe": 1444,
      "response": 1445,
      "na": 1446,
      "rb": 1447,
      "Ġextension": 1448,
      "point": 1449,
      "Ġpdf": 1450,
      "erence": 1451,
      "Ġtotal": 1452,
      "cms": 1453,
      "lete": 1454,
      "ody": 1455,
      "md": 1456,
      "Ġett": 1457,
      "dat": 1458,
      "run": 1459,
      "Ġ\\": 1460,
      "Ġtra": 1461,
      "little": 1462,
      "rect": 1463,
      "Ġva": 1464,
      "Ġnumber": 1465,
      "input": 1466,
      "zero": 1467,
      "leanup": 1468,
      "Ġsegment": 1469,
      "Ġbest": 1470,
      "bl": 1471,
      "Ġtvbuff": 1472,
      "Ġjas": 1473,
      "src": 1474,
      "move": 1475,
      "invaliddata": 1476,
      "Ġulmbcs": 1477,
      "pix": 1478,
      "Ġact": 1479,
      "record": 1480,
      "cept": 1481,
      "mult": 1482,
      "Ġhash": 1483,
      "transaction": 1484,
      "ded": 1485,
      "execute": 1486,
      "chro": 1487,
      "ram": 1488,
      "obj": 1489,
      "ilus": 1490,
      "autilus": 1491,
      "ang": 1492,
      "ific": 1493,
      "okup": 1494,
      "Ġstderr": 1495,
      "fer": 1496,
      "Ġencoding": 1497,
      "dc": 1498,
      "spec": 1499,
      "dp": 1500,
      "Ġnautilus": 1501,
      "inc": 1502,
      "ith": 1503,
      "imit": 1504,
      "Ġsock": 1505,
      "uri": 1506,
      "imer": 1507,
      "Ġpass": 1508,
      "play": 1509,
      "stem": 1510,
      "Ġcolor": 1511,
      "ler": 1512,
      "store": 1513,
      "Ġdir": 1514,
      "intra": 1515,
      "param": 1516,
      "Ġcrypt": 1517,
      "select": 1518,
      "Ġdemux": 1519,
      "Ġcodec": 1520,
      "cpu": 1521,
      "args": 1522,
      "Ġmo": 1523,
      "curity": 1524,
      "Ġnb": 1525,
      "ne": 1526,
      "dest": 1527,
      "Ġmotion": 1528,
      "ork": 1529,
      "abled": 1530,
      "connection": 1531,
      "sup": 1532,
      "Ġfailed": 1533,
      "Ġsse": 1534,
      "thread": 1535,
      "Ġhas": 1536,
      "avg": 1537,
      "96": 1538,
      "cmd": 1539,
      "Ġlib": 1540,
      "Ġarray": 1541,
      "Ġresponse": 1542,
      "sert": 1543,
      "60": 1544,
      "fet": 1545,
      "Ġmet": 1546,
      "Ġvc": 1547,
      "vi": 1548,
      "Ġdc": 1549,
      "Ġcpio": 1550,
      "bool": 1551,
      "mut": 1552,
      "Ġor": 1553,
      "Ġtext": 1554,
      "Ġquant": 1555,
      "frag": 1556,
      "xn": 1557,
      "Ġalloc": 1558,
      "ession": 1559,
      "Ġsession": 1560,
      "onit": 1561,
      "Ġinline": 1562,
      "Ġcommon": 1563,
      "meth": 1564,
      "proto": 1565,
      "Ġgr": 1566,
      "Ġhave": 1567,
      "filename": 1568,
      "lib": 1569,
      "last": 1570,
      "vlc": 1571,
      "Ġrb": 1572,
      "short": 1573,
      "Ġrecord": 1574,
      "Ġmessage": 1575,
      "can": 1576,
      "sum": 1577,
      "Ġparams": 1578,
      "Ġ64": 1579,
      "ined": 1580,
      "cnt": 1581,
      "Ġport": 1582,
      "20": 1583,
      "Ġbo": 1584,
      "Ġrun": 1585,
      "Ġasn": 1586,
      "bin": 1587,
      "Ġpart": 1588,
      "high": 1589,
      "ameters": 1590,
      "Ġscale": 1591,
      "lement": 1592,
      "gcm": 1593,
      "rm": 1594,
      "Ġgroup": 1595,
      "Ġseq": 1596,
      "Ġupdate": 1597,
      "fc": 1598,
      "Ġoff": 1599,
      "gsm": 1600,
      "Ġscan": 1601,
      "utt": 1602,
      "Ġslice": 1603,
      "has": 1604,
      "method": 1605,
      "Ġne": 1606,
      "roy": 1607,
      "Ġexp": 1608,
      "json": 1609,
      "link": 1610,
      "Ġkadm": 1611,
      "band": 1612,
      "Ġhfill": 1613,
      "Ġcore": 1614,
      "head": 1615,
      "fin": 1616,
      "Ġhfinfo": 1617,
      "Ġattr": 1618,
      "uid": 1619,
      "Ġ(%": 1620,
      "seq": 1621,
      "Ġpicture": 1622,
      "Ġcre": 1623,
      "Ġmbfl": 1624,
      "Ġ15": 1625,
      "Ġdecoder": 1626,
      "Ġrtp": 1627,
      "address": 1628,
      "Ġpred": 1629,
      "queue": 1630,
      "Ġcall": 1631,
      "lease": 1632,
      "Ġopa": 1633,
      "Ġcrypto": 1634,
      "Ġnt": 1635,
      "Ġcopy": 1636,
      "Ġpict": 1637,
      ".\"": 1638,
      "Ġac": 1639,
      "Ġof": 1640,
      "ped": 1641,
      "lette": 1642,
      "segment": 1643,
      "tmpt": 1644,
      "Ġ'%": 1645,
      "failed": 1646,
      "pty": 1647,
      "top": 1648,
      "tail": 1649,
      "sad": 1650,
      "lot": 1651,
      "rop": 1652,
      "9660": 1653,
      "11": 1654,
      "Ġvi": 1655,
      "Ġseg": 1656,
      "Ġmag": 1657,
      "Ġvlc": 1658,
      "ssh": 1659,
      "Ġdelta": 1660,
      "used": 1661,
      "lvl": 1662,
      "Ġlock": 1663,
      "ign": 1664,
      "ies": 1665,
      "sed": 1666,
      "Ġep": 1667,
      "internal": 1668,
      "Ġhdrtoken": 1669,
      "step": 1670,
      "command": 1671,
      "cr": 1672,
      "mis": 1673,
      "source": 1674,
      "Ġpg": 1675,
      "uple": 1676,
      "uster": 1677,
      "body": 1678,
      "fp": 1679,
      "Ġuv": 1680,
      "onitor": 1681,
      "Ġmain": 1682,
      "Ġband": 1683,
      "Ġuchar": 1684,
      "register": 1685,
      "Ġreal": 1686,
      "strdup": 1687,
      "encoding": 1688,
      "maining": 1689,
      "priv": 1690,
      "Ġctl": 1691,
      "Ġfrag": 1692,
      "slurm": 1693,
      "Ġ~": 1694,
      "50": 1695,
      "Ġreply": 1696,
      "none": 1697,
      "Ġrfb": 1698,
      "Ġuid": 1699,
      "content": 1700,
      "13": 1701,
      "lear": 1702,
      "Ġtwo": 1703,
      "ices": 1704,
      "Ġtransform": 1705,
      "blob": 1706,
      "gin": 1707,
      "tab": 1708,
      "usb": 1709,
      "licy": 1710,
      "nr": 1711,
      "section": 1712,
      "sex": 1713,
      "Ġtop": 1714,
      "Ġxhci": 1715,
      "Ġcleanup": 1716,
      "led": 1717,
      "Ġwindow": 1718,
      "proc": 1719,
      "Ġdefine": 1720,
      "sg": 1721,
      "Ġkvm": 1722,
      "warning": 1723,
      "ie": 1724,
      "control": 1725,
      "mutex": 1726,
      "bad": 1727,
      "Ġstats": 1728,
      "callback": 1729,
      "ua": 1730,
      "only": 1731,
      "cover": 1732,
      "lookup": 1733,
      "Ġmyquery": 1734,
      ":%": 1735,
      "Ġctr": 1736,
      "ctrl": 1737,
      "iz": 1738,
      "reset": 1739,
      "part": 1740,
      "udi": 1741,
      "Ġcnv": 1742,
      "dict": 1743,
      "ek": 1744,
      "Ġcurr": 1745,
      "Ġrect": 1746,
      "Ġmbmi": 1747,
      "Ġdoc": 1748,
      "02": 1749,
      "by": 1750,
      "ish": 1751,
      "Ġbio": 1752,
      "we": 1753,
      "xcf": 1754,
      "Ġpub": 1755,
      "sist": 1756,
      "core": 1757,
      "Ġud": 1758,
      "Ġwr": 1759,
      "lace": 1760,
      "Ġvirt": 1761,
      "Ġlptr": 1762,
      "Ġlabel": 1763,
      "Ġbuff": 1764,
      "udio": 1765,
      "Ġcan": 1766,
      "Ġoxcf": 1767,
      "oolean": 1768,
      "sz": 1769,
      "qual": 1770,
      "blocks": 1771,
      "owner": 1772,
      "rr": 1773,
      "Ġconver": 1774,
      "Ġpe": 1775,
      "Ġdyn": 1776,
      "unc": 1777,
      "Ġgboolean": 1778,
      "25": 1779,
      "ark": 1780,
      "Ġdtls": 1781,
      "Ġdcfg": 1782,
      "my": 1783,
      "Ġshort": 1784,
      "less": 1785,
      "system": 1786,
      "Ġclient": 1787,
      "uld": 1788,
      "Ġfind": 1789,
      "Ġmat": 1790,
      "pointer": 1791,
      "params": 1792,
      "video": 1793,
      "Ġintra": 1794,
      "Ġavio": 1795,
      "with": 1796,
      "wd": 1797,
      "security": 1798,
      "Ġrv": 1799,
      "sgi": 1800,
      "find": 1801,
      "open": 1802,
      "Ġdump": 1803,
      "Ġbitmap": 1804,
      "guint": 1805,
      "range": 1806,
      "sa": 1807,
      "Ġsp": 1808,
      "pts": 1809,
      "Ġsup": 1810,
      "Ġ256": 1811,
      "sr": 1812,
      "hel": 1813,
      "writ": 1814,
      "Ġgcm": 1815,
      "setup": 1816,
      "connect": 1817,
      "Ġlocal": 1818,
      "Ġiter": 1819,
      "Ġhptr": 1820,
      "Ġdesc": 1821,
      "match": 1822,
      "oper": 1823,
      "position": 1824,
      "box": 1825,
      "reen": 1826,
      "first": 1827,
      "tcp": 1828,
      "Ġwrit": 1829,
      "sock": 1830,
      "Ġsamples": 1831,
      "Ġfp": 1832,
      "Ġrel": 1833,
      "ard": 1834,
      "Ġnet": 1835,
      "ite": 1836,
      "output": 1837,
      "Ġ11": 1838,
      "igit": 1839,
      "Ġsynth": 1840,
      "Ġsigcomp": 1841,
      "ses": 1842,
      "Ġec": 1843,
      "Ġdefined": 1844,
      "search": 1845,
      "Ġcurl": 1846,
      "15": 1847,
      "Ġpack": 1848,
      "san": 1849,
      "Ġmod": 1850,
      "Ġrate": 1851,
      "Ġgpgsm": 1852,
      "old": 1853,
      "rpc": 1854,
      "wer": 1855,
      "work": 1856,
      "ance": 1857,
      "mpl": 1858,
      "factor": 1859,
      "Ġmemory": 1860,
      "Ġglyph": 1861,
      "Ġdevice": 1862,
      "Ġtwopass": 1863,
      "Ġlow": 1864,
      "Ġtile": 1865,
      "Ġflag": 1866,
      "Ġmutt": 1867,
      "Ġpq": 1868,
      "region": 1869,
      "uv": 1870,
      "Ġfl": 1871,
      "Ġshow": 1872,
      ".\\": 1873,
      "float": 1874,
      "fetch": 1875,
      "Ġmx": 1876,
      "transform": 1877,
      "destroy": 1878,
      "Ġudvm": 1879,
      "man": 1880,
      "signal": 1881,
      "Ġroot": 1882,
      "Ġextrainfo": 1883,
      "case": 1884,
      "Ġoid": 1885,
      "Ġtoken": 1886,
      "rows": 1887,
      "Ġspl": 1888,
      "Ġpp": 1889,
      "Ġmon": 1890,
      "ell": 1891,
      "lobal": 1892,
      "Ġopaque": 1893,
      "hex": 1894,
      "np": 1895,
      "rus": 1896,
      "vd": 1897,
      "irrus": 1898,
      "rep": 1899,
      "abac": 1900,
      "depth": 1901,
      "Ġnd": 1902,
      "Ġgx": 1903,
      "chunk": 1904,
      "mpi": 1905,
      "Ġaddress": 1906,
      "gb": 1907,
      "insert": 1908,
      "Ġtl": 1909,
      "url": 1910,
      "unless": 1911,
      "Ġexpect": 1912,
      "iance": 1913,
      "tails": 1914,
      "Ġ&=": 1915,
      "itch": 1916,
      "Ġevhttp": 1917,
      "socket": 1918,
      "Ġfound": 1919,
      "flow": 1920,
      "atal": 1921,
      "Ġesi": 1922,
      "lip": 1923,
      "ipc": 1924,
      "cape": 1925,
      "Ġappend": 1926,
      "go": 1927,
      "Ġind": 1928,
      "Ġsa": 1929,
      "Ġtlv": 1930,
      "Ġsubtree": 1931,
      "Ġsbr": 1932,
      "scan": 1933,
      "Ġcontent": 1934,
      "Ġfail": 1935,
      "Ġsql": 1936,
      "Ġmp": 1937,
      "aes": 1938,
      "bus": 1939,
      "Ġxy": 1940,
      "tpt": 1941,
      "Ġsave": 1942,
      "Ġrep": 1943,
      "Ġks": 1944,
      "sanity": 1945,
      "80": 1946,
      "gain": 1947,
      "Ġtls": 1948,
      "ulk": 1949,
      "persist": 1950,
      "opts": 1951,
      "rix": 1952,
      "channels": 1953,
      "done": 1954,
      "nprintf": 1955,
      "com": 1956,
      "Ġraw": 1957,
      "this": 1958,
      "Ġpt": 1959,
      "httpt": 1960,
      "Ġcompact": 1961,
      "ay": 1962,
      "clear": 1963,
      "eam": 1964,
      "seg": 1965,
      "eger": 1966,
      "Ġdone": 1967,
      "appl": 1968,
      "Ġargv": 1969,
      "xffff": 1970,
      "Ġtipc": 1971,
      "Ġcoeff": 1972,
      "pare": 1973,
      "Ġexpr": 1974,
      "Ġactive": 1975,
      "sw": 1976,
      "Ġavcodec": 1977,
      "Ġsync": 1978,
      "discover": 1979,
      "handler": 1980,
      "Ġtc": 1981,
      "Ġtab": 1982,
      "Ġossl": 1983,
      "Ġinvalid": 1984,
      "Ġ20": 1985,
      "Ġmagick": 1986,
      "26": 1987,
      "function": 1988,
      "ression": 1989,
      "options": 1990,
      "convert": 1991,
      "flush": 1992,
      "extension": 1993,
      "glyph": 1994,
      "label": 1995,
      "plane": 1996,
      "prefix": 1997,
      "amic": 1998,
      "Ġzbee": 1999,
      "Ġused": 2000,
      "names": 2001,
      "Ġstrnc": 2002,
      "Ġsecond": 2003,
      "plan": 2004,
      "define": 2005,
      "Ġss": 2006,
      "stack": 2007,
      "Ġrecp": 2008,
      "Ġdetails": 2009,
      "frames": 2010,
      "cert": 2011,
      "td": 2012,
      "Ġdns": 2013,
      "roblock": 2014,
      "irq": 2015,
      "env": 2016,
      "Ġqemum": 2017,
      "Ġcmsuint": 2018,
      "sexp": 2019,
      "34": 2020,
      "rsb": 2021,
      "Ġcirrus": 2022,
      "stamp": 2023,
      "encode": 2024,
      "Ġfont": 2025,
      "rt": 2026,
      "lem": 2027,
      "Ġbsize": 2028,
      "Ġng": 2029,
      "cope": 2030,
      "disse": 2031,
      "\\\"%": 2032,
      "Ġviff": 2033,
      "Ġer": 2034,
      "dent": 2035,
      "Ġcreate": 2036,
      "persistent": 2037,
      "os": 2038,
      "delta": 2039,
      "Ġfn": 2040,
      "root": 2041,
      "vice": 2042,
      "Ġchunk": 2043,
      "vars": 2044,
      "nto": 2045,
      "Ġskb": 2046,
      "Ġfill": 2047,
      "Ġregist": 2048,
      "rawstat": 2049,
      "shake": 2050,
      "Ġopenssl": 2051,
      "',": 2052,
      "Ġsort": 2053,
      "conf": 2054,
      "Ġpayload": 2055,
      "Ġrecrawstat": 2056,
      "ries": 2057,
      "attrib": 2058,
      "unicode": 2059,
      "Ġunichar": 2060,
      "Ġorig": 2061,
      "sm": 2062,
      "timer": 2063,
      "Ġmpi": 2064,
      "Ġby": 2065,
      "ctet": 2066,
      "common": 2067,
      "failure": 2068,
      "generic": 2069,
      "Ġrecrawstatsync": 2070,
      "xf": 2071,
      "Ġndo": 2072,
      "font": 2073,
      "Ġrecd": 2074,
      "Ġregister": 2075,
      "br": 2076,
      "Ġfin": 2077,
      "Ġkrb": 2078,
      "slt": 2079,
      "mbd": 2080,
      "Ġparser": 2081,
      "Ġpargs": 2082,
      "Ġdiff": 2083,
      "509": 2084,
      "jo": 2085,
      "erraw": 2086,
      "Ġsec": 2087,
      "cmpt": 2088,
      "Ġrecregist": 2089,
      "errawstat": 2090,
      "Ġrecregisterrawstat": 2091,
      "erator": 2092,
      "adata": 2093,
      "reams": 2094,
      "mote": 2095,
      "Ġmacroblock": 2096,
      "ias": 2097,
      "samples": 2098,
      "Ġpx": 2099,
      "den": 2100,
      "Ġback": 2101,
      "utf": 2102,
      "unref": 2103,
      "payload": 2104,
      "cols": 2105,
      "Ġblk": 2106,
      "Ġcc": 2107,
      "Ġchro": 2108,
      "Ġ24": 2109,
      "Ġextr": 2110,
      "Ġsm": 2111,
      "Ġbulk": 2112,
      "Ġapr": 2113,
      "14": 2114,
      "Ġpw": 2115,
      "Ġabo": 2116,
      "enabled": 2117,
      "Ġtransaction": 2118,
      "Ġchroma": 2119,
      "Ġabove": 2120,
      "Ġdsp": 2121,
      "Ġhigh": 2122,
      "Ġsvc": 2123,
      "yp": 2124,
      "Ġ13": 2125,
      "ster": 2126,
      "cook": 2127,
      "slice": 2128,
      "ual": 2129,
      "Ġit": 2130,
      "Ġivalue": 2131,
      "release": 2132,
      "sent": 2133,
      "counter": 2134,
      "Ġpci": 2135,
      "Ġos": 2136,
      "errno": 2137,
      "Ġwe": 2138,
      "vector": 2139,
      "Ġlink": 2140,
      "Ġchr": 2141,
      "diameter": 2142,
      "protocol": 2143,
      "are": 2144,
      "over": 2145,
      "rx": 2146,
      "Ġwith": 2147,
      "iser": 2148,
      "rror": 2149,
      "hello": 2150,
      "Ġngx": 2151,
      "Ġavail": 2152,
      "Ġzero": 2153,
      "drop": 2154,
      "mpeg": 2155,
      "page": 2156,
      "Ġsample": 2157,
      "chr": 2158,
      "umn": 2159,
      "cent": 2160,
      "power": 2161,
      "Ġerrno": 2162,
      "reference": 2163,
      "fixed": 2164,
      "Ġsid": 2165,
      "Ġcip": 2166,
      "inst": 2167,
      "fied": 2168,
      "Ġpalette": 2169,
      "Ġabs": 2170,
      "motion": 2171,
      "upt": 2172,
      "vfs": 2173,
      "Ġ14": 2174,
      "expr": 2175,
      "errorcode": 2176,
      "ized": 2177,
      "down": 2178,
      "ple": 2179,
      "Ġtf": 2180,
      "Ġan": 2181,
      "Ġfix": 2182,
      "Ġtsm": 2183,
      "31": 2184,
      "Ġclose": 2185,
      "Ġuc": 2186,
      "Ġrr": 2187,
      "Ġqscale": 2188,
      "tern": 2189,
      "264": 2190,
      "sing": 2191,
      "prob": 2192,
      "policy": 2193,
      "qui": 2194,
      "active": 2195,
      "stri": 2196,
      "Ġvirjson": 2197,
      "Ġcaf": 2198,
      "grp": 2199,
      "vc": 2200,
      "Ġeno": 2201,
      "Ġhand": 2202,
      "Ġproc": 2203,
      "Ġprefix": 2204,
      "Ġoption": 2205,
      "Ġthd": 2206,
      "Ġvirjsonvalue": 2207,
      "ise": 2208,
      "tmp": 2209,
      "remaining": 2210,
      "Ġsad": 2211,
      "Ġslot": 2212,
      "sel": 2213,
      "Ġpad": 2214,
      "ative": 2215,
      "Ġuconverter": 2216,
      "ssing": 2217,
      "adding": 2218,
      "ident": 2219,
      "supported": 2220,
      "Ġoffsets": 2221,
      "Ġform": 2222,
      "files": 2223,
      "Ġssize": 2224,
      "mple": 2225,
      "msr": 2226,
      "dire": 2227,
      "lsp": 2228,
      "Ġtxnp": 2229,
      "----": 2230,
      "ved": 2231,
      "local": 2232,
      "Ġuserid": 2233,
      "finish": 2234,
      "scope": 2235,
      "Ġeob": 2236,
      "cii": 2237,
      "38": 2238,
      "Ġmpe": 2239,
      "Ġretval": 2240,
      "decrypt": 2241,
      "service": 2242,
      "Ġwriter": 2243,
      "Ġenum": 2244,
      "Ġgf": 2245,
      "uration": 2246,
      "Ġrange": 2247,
      "08": 2248,
      "gress": 2249,
      "vid": 2250,
      "Ġes": 2251,
      "Ġavcodeccontext": 2252,
      "false": 2253,
      "ior": 2254,
      "sample": 2255,
      "real": 2256,
      "Ġns": 2257,
      "align": 2258,
      "Ġdissector": 2259,
      "sig": 2260,
      "Ġmeth": 2261,
      "Ġqemumonitor": 2262,
      "delete": 2263,
      "keys": 2264,
      "rant": 2265,
      "prof": 2266,
      "Ġcluster": 2267,
      "leg": 2268,
      "Ġservice": 2269,
      "cell": 2270,
      "Ġlibssh": 2271,
      "Ġstrncmp": 2272,
      "xml": 2273,
      "Ġed": 2274,
      "Ġvideo": 2275,
      "tot": 2276,
      "show": 2277,
      "ception": 2278,
      "Ġgi": 2279,
      "integer": 2280,
      "Ġwin": 2281,
      "22": 2282,
      "bmp": 2283,
      "Ġsr": 2284,
      "Ġvga": 2285,
      "Ġprotocol": 2286,
      "Ġvalues": 2287,
      "Ġsend": 2288,
      "ourcel": 2289,
      "chang": 2290,
      "Ġoptions": 2291,
      "aved": 2292,
      "fragment": 2293,
      "ourcelimit": 2294,
      "huff": 2295,
      "mul": 2296,
      "Ġconnection": 2297,
      "Ġsignal": 2298,
      "httptxn": 2299,
      "anch": 2300,
      "Ġavframe": 2301,
      "ll": 2302,
      "Ġ^": 2303,
      "Ġvirtio": 2304,
      "cat": 2305,
      "ling": 2306,
      "oc": 2307,
      "report": 2308,
      "Ġpf": 2309,
      "Ġam": 2310,
      "Ġprofile": 2311,
      "Ġparameters": 2312,
      "Ġindic": 2313,
      "Ġcipher": 2314,
      "pg": 2315,
      "qcoeff": 2316,
      "Ġ\\\"%": 2317,
      "Ġupr": 2318,
      "Ġlp": 2319,
      "ener": 2320,
      "dissector": 2321,
      "Ġuprv": 2322,
      "ia": 2323,
      "two": 2324,
      "ys": 2325,
      "loop": 2326,
      "here": 2327,
      "Ġtran": 2328,
      "Ġsslerr": 2329,
      "fields": 2330,
      "pha": 2331,
      "Ġmethod": 2332,
      "gf": 2333,
      "Ġblocks": 2334,
      "Ġdisplay": 2335,
      "module": 2336,
      "Ġneed": 2337,
      "med": 2338,
      "Ġhuff": 2339,
      "values": 2340,
      "Ġpyobject": 2341,
      "01": 2342,
      "sep": 2343,
      "Ġhex": 2344,
      "Ġhwa": 2345,
      "coded": 2346,
      "dictor": 2347,
      "Ġtrace": 2348,
      "Ġhwaes": 2349,
      "dyn": 2350,
      "iable": 2351,
      "Ġdist": 2352,
      "build": 2353,
      "extra": 2354,
      "lowed": 2355,
      "enum": 2356,
      "target": 2357,
      "Ġcnt": 2358,
      "ernel": 2359,
      "Ġper": 2360,
      "Ġpdev": 2361,
      "Ġgstate": 2362,
      "loor": 2363,
      "Ġlsp": 2364,
      "heap": 2365,
      "matrix": 2366,
      "uet": 2367,
      "Ġacl": 2368,
      "Ġrlvl": 2369,
      "ascii": 2370,
      "Ġexchange": 2371,
      "Ġmake": 2372,
      "chroma": 2373,
      "bta": 2374,
      "vs": 2375,
      "Ġright": 2376,
      "Ġlz": 2377,
      "Ġwsgi": 2378,
      "prepare": 2379,
      "Ġabort": 2380,
      "rq": 2381,
      "win": 2382,
      "Ġpur": 2383,
      "Ġtb": 2384,
      "demux": 2385,
      "Ġmd": 2386,
      "Ġbink": 2387,
      "ctld": 2388,
      "Ġactx": 2389,
      "Ġdp": 2390,
      "fier": 2391,
      "ateg": 2392,
      "ooth": 2393,
      "Ġ128": 2394,
      "discovery": 2395,
      "total": 2396,
      "dump": 2397,
      "full": 2398,
      "pwr": 2399,
      "ures": 2400,
      "Ġsnprintf": 2401,
      "Ġcli": 2402,
      "pel": 2403,
      "ical": 2404,
      "try": 2405,
      "cast": 2406,
      "Ġ1024": 2407,
      "),": 2408,
      "40": 2409,
      "hl": 2410,
      "Ġha": 2411,
      "Ġrtmpt": 2412,
      "Ġopp": 2413,
      "book": 2414,
      "sid": 2415,
      "Ġsadm": 2416,
      "steam": 2417,
      "expect": 2418,
      "initial": 2419,
      "Ġcbp": 2420,
      "Ġputshort": 2421,
      "Ġsadmxn": 2422,
      "'\"": 2423,
      "'t": 2424,
      "remove": 2425,
      "del": 2426,
      "Ġinst": 2427,
      "view": 2428,
      "gine": 2429,
      "vt": 2430,
      "Ġon": 2431,
      "Ġcf": 2432,
      "ther": 2433,
      "unlock": 2434,
      "reser": 2435,
      "variance": 2436,
      "avail": 2437,
      "fatal": 2438,
      "pvfs": 2439,
      "ntp": 2440,
      "attern": 2441,
      "Ġem": 2442,
      "Ġhw": 2443,
      "Ġcache": 2444,
      "vga": 2445,
      "Ġcla": 2446,
      "inval": 2447,
      "Ġvff": 2448,
      "nder": 2449,
      "enter": 2450,
      "Ġplmbcs": 2451,
      "Ġshare": 2452,
      "dns": 2453,
      "non": 2454,
      "rtmpt": 2455,
      "sor": 2456,
      "asf": 2457,
      "post": 2458,
      "option": 2459,
      "bprint": 2460,
      "ihs": 2461,
      "mal": 2462,
      "og": 2463,
      "simple": 2464,
      "empty": 2465,
      "Ġevcon": 2466,
      "notify": 2467,
      "Ġstdout": 2468,
      "colorspace": 2469,
      "Ġinterface": 2470,
      "lu": 2471,
      "mark": 2472,
      "Ġremote": 2473,
      "Ġxslt": 2474,
      "Ġpurple": 2475,
      "23": 2476,
      "Ġsz": 2477,
      "Ġtry": 2478,
      "Ġeinval": 2479,
      "Ġwant": 2480,
      "genc": 2481,
      "double": 2482,
      "Ġiov": 2483,
      "feature": 2484,
      "Ġhostname": 2485,
      "Ġgchar": 2486,
      "fff": 2487,
      "ely": 2488,
      "Ġhead": 2489,
      "directory": 2490,
      "Ġall": 2491,
      "Ġmt": 2492,
      "Ġkdb": 2493,
      "Ġsubpix": 2494,
      "mission": 2495,
      "dm": 2496,
      "ug": 2497,
      "Ġnp": 2498,
      "Ġlimit": 2499,
      "parameters": 2500,
      "layout": 2501,
      "Ġfdct": 2502,
      "written": 2503,
      "Ġfinal": 2504,
      "strict": 2505,
      "pad": 2506,
      "sf": 2507,
      "ui": 2508,
      "rel": 2509,
      "Ġmatch": 2510,
      "Ġnow": 2511,
      "Ġmyf": 2512,
      "Ġ255": 2513,
      "..": 2514,
      "Ġsaved": 2515,
      "Ġclass": 2516,
      "Ġpage": 2517,
      "Ġulong": 2518,
      "Ġprocess": 2519,
      "mac": 2520,
      "linesize": 2521,
      "28": 2522,
      "spe": 2523,
      "Ġnntp": 2524,
      "quence": 2525,
      "Ġreference": 2526,
      "current": 2527,
      "Ġcsr": 2528,
      "Ġwrap": 2529,
      "ting": 2530,
      "stop": 2531,
      "second": 2532,
      "Ġifn": 2533,
      "true": 2534,
      "Ġmspack": 2535,
      "Ġpix": 2536,
      "parser": 2537,
      "Ġadj": 2538,
      "audio": 2539,
      "bn": 2540,
      "Ġcal": 2541,
      "Ġph": 2542,
      "Ġpid": 2543,
      "utes": 2544,
      "found": 2545,
      "Ġlay": 2546,
      "pixels": 2547,
      "attribute": 2548,
      "uetooth": 2549,
      "Ġspe": 2550,
      "Ġsrtp": 2551,
      "ers": 2552,
      "Ġword": 2553,
      "Ġdisable": 2554,
      "Ġdynamic": 2555,
      "bmpdm": 2556,
      "fn": 2557,
      "types": 2558,
      "Ġtables": 2559,
      "expbuffer": 2560,
      "digit": 2561,
      "Ġload": 2562,
      "ctype": 2563,
      "Ġei": 2564,
      "Ġover": 2565,
      "chat": 2566,
      "andom": 2567,
      "Ġ>>=": 2568,
      "interval": 2569,
      "bound": 2570,
      "handshake": 2571,
      "Ġivalueoffset": 2572,
      "Ġifndef": 2573,
      "()": 2574,
      "931": 2575,
      "ping": 2576,
      "ugin": 2577,
      "Ġbad": 2578,
      "ctr": 2579,
      "Ġ18": 2580,
      "Ġaction": 2581,
      "Ġsep": 2582,
      "Ġtshttptxn": 2583,
      "rounding": 2584,
      "Ġregion": 2585,
      "Ġchannels": 2586,
      "Ġpassword": 2587,
      "vdtp": 2588,
      "Ġmpegenc": 2589,
      "Ġmpegenccontext": 2590,
      "bt": 2591,
      "clip": 2592,
      "save": 2593,
      "seek": 2594,
      "Ġpch": 2595,
      "inv": 2596,
      "Ġ19": 2597,
      "Ġdepth": 2598,
      "dist": 2599,
      "processor": 2600,
      "rerror": 2601,
      "Ġrecon": 2602,
      "direct": 2603,
      "Ġshift": 2604,
      "ciph": 2605,
      "Ġfixed": 2606,
      ")\\": 2607,
      "ble": 2608,
      "element": 2609,
      "Ġpitch": 2610,
      "Ġvm": 2611,
      "ill": 2612,
      "Ġpair": 2613,
      "30": 2614,
      "apt": 2615,
      "hlen": 2616,
      "ti": 2617,
      "Ġcap": 2618,
      "Ġtoo": 2619,
      "resource": 2620,
      "ward": 2621,
      "Ġcinfo": 2622,
      "incip": 2623,
      "Ġ100": 2624,
      "Ġand": 2625,
      "its": 2626,
      "Ġusers": 2627,
      "Ġinitial": 2628,
      "btavdtp": 2629,
      "incipal": 2630,
      "pd": 2631,
      "xc": 2632,
      "leto": 2633,
      "orr": 2634,
      "Ġba": 2635,
      "Ġnn": 2636,
      "Ġnon": 2637,
      "parent": 2638,
      "ook": 2639,
      "web": 2640,
      "ef": 2641,
      "Ġsourcelimit": 2642,
      "atures": 2643,
      "Ġll": 2644,
      "pending": 2645,
      "Ġenomem": 2646,
      "ctl": 2647,
      "Ġcom": 2648,
      "datum": 2649,
      "ifics": 2650,
      "samp": 2651,
      "Ġround": 2652,
      "Ġioffset": 2653,
      "streams": 2654,
      "Ġfunc": 2655,
      "plic": 2656,
      "Ġevbuffer": 2657,
      "curve": 2658,
      "Ġttf": 2659,
      "Ġglyphs": 2660,
      "Ġrecrawstatsynccount": 2661,
      "iority": 2662,
      "86": 2663,
      "kely": 2664,
      "inux": 2665,
      "Ġglobal": 2666,
      "temp": 2667,
      "Ġbufp": 2668,
      "prop": 2669,
      "bands": 2670,
      "cookie": 2671,
      "roke": 2672,
      "thresh": 2673,
      "fast": 2674,
      "Ġargument": 2675,
      "doc": 2676,
      "bio": 2677,
      "Ġfloor": 2678,
      "Ġass": 2679,
      "entries": 2680,
      "Ġdict": 2681,
      "Ġadb": 2682,
      "Ġargc": 2683,
      "argument": 2684,
      "wrap": 2685,
      "iables": 2686,
      "ced": 2687,
      "any": 2688,
      "kens": 2689,
      "accept": 2690,
      "Ġdatum": 2691,
      "operand": 2692,
      "cust": 2693,
      "Ġcn": 2694,
      "Ġ17": 2695,
      "complete": 2696,
      "Ġcompress": 2697,
      "expected": 2698,
      "freq": 2699,
      "reported": 2700,
      "Ġfull": 2701,
      "Ġaudio": 2702,
      "pipe": 2703,
      "ptran": 2704,
      "bitcontext": 2705,
      "progress": 2706,
      "tmx": 2707,
      "boolean": 2708,
      "costs": 2709,
      "ix": 2710,
      "sse": 2711,
      "Ġirq": 2712,
      "Ġblob": 2713,
      "Ġrmd": 2714,
      "Ġlmbcs": 2715,
      "Ġposition": 2716,
      "password": 2717,
      "udit": 2718,
      "lent": 2719,
      "noconst": 2720,
      "enable": 2721,
      "Ġcmpt": 2722,
      "opc": 2723,
      "script": 2724,
      "Ġcontain": 2725,
      "pq": 2726,
      "Ġuri": 2727,
      "Ġiax": 2728,
      "Ġcert": 2729,
      "Ġbind": 2730,
      "Ġstop": 2731,
      "ummy": 2732,
      "compress": 2733,
      "Ġsetup": 2734,
      "quality": 2735,
      "Ġlzw": 2736,
      "opcua": 2737,
      "orage": 2738,
      "Ġ28": 2739,
      "resp": 2740,
      "Ġcodebook": 2741,
      "make": 2742,
      "ear": 2743,
      "yle": 2744,
      "Ġcabac": 2745,
      "Ġtimer": 2746,
      "Ġnv": 2747,
      "Ġnserv": 2748,
      "Ġdn": 2749,
      "Ġdate": 2750,
      "column": 2751,
      "Ġframes": 2752,
      "cluster": 2753,
      "general": 2754,
      "04": 2755,
      "nl": 2756,
      "ould": 2757,
      "edge": 2758,
      "Ġavpacket": 2759,
      "likely": 2760,
      "Ġqio": 2761,
      "ipv": 2762,
      "Ġfilegen": 2763,
      "interface": 2764,
      "Ġthresh": 2765,
      "packets": 2766,
      "structure": 2767,
      "Ġconverter": 2768,
      "met": 2769,
      "Ġvdev": 2770,
      "sic": 2771,
      "igest": 2772,
      "Ġexist": 2773,
      "ily": 2774,
      "Ġkf": 2775,
      "Ġ31": 2776,
      "Ġgetbitcontext": 2777,
      "timeout": 2778,
      "cbc": 2779,
      "descript": 2780,
      "Ġuvlinesize": 2781,
      "izer": 2782,
      "tuple": 2783,
      "va": 2784,
      "xd": 2785,
      "Ġ*=": 2786,
      "ces": 2787,
      "palette": 2788,
      "counts": 2789,
      "Ġencoder": 2790,
      "gg": 2791,
      "pub": 2792,
      "sce": 2793,
      "Ġxps": 2794,
      "keep": 2795,
      "Ġprim": 2796,
      "Ġcontrol": 2797,
      "mount": 2798,
      "pqexpbuffer": 2799,
      "ifier": 2800,
      "mag": 2801,
      "nla": 2802,
      "Ġpool": 2803,
      "delay": 2804,
      "Ġbr": 2805,
      "medi": 2806,
      "Ġrgb": 2807,
      "exit": 2808,
      "Ġchild": 2809,
      "ndle": 2810,
      "Ġctxt": 2811,
      "angu": 2812,
      "Ġattrib": 2813,
      "Ġsuper": 2814,
      "iserver": 2815,
      "dst": 2816,
      "sort": 2817,
      "decoder": 2818,
      "Ġdrep": 2819,
      "etime": 2820,
      "uma": 2821,
      "abs": 2822,
      "bitmap": 2823,
      "pool": 2824,
      "Ġcmap": 2825,
      "chars": 2826,
      "acity": 2827,
      "headers": 2828,
      "display": 2829,
      "cabac": 2830,
      "dct": 2831,
      "ync": 2832,
      "Ġssh": 2833,
      "Ġmalloc": 2834,
      "Ġstack": 2835,
      "rosk": 2836,
      "Ġrlayer": 2837,
      "olve": 2838,
      "Ġfragment": 2839,
      "Ġpubkey": 2840,
      "Ġdynstr": 2841,
      "Ġmatrosk": 2842,
      "Ġreplace": 2843,
      "Ġprc": 2844,
      "Ġudev": 2845,
      "Ġrule": 2846,
      "permission": 2847,
      "Ġscreen": 2848,
      "Ġvirlog": 2849,
      "Ġapp": 2850,
      "coeffs": 2851,
      "mplate": 2852,
      "legal": 2853,
      "fname": 2854,
      "Ġ\",": 2855,
      "Ġlf": 2856,
      "reason": 2857,
      "Ġalpha": 2858,
      "Ġextensions": 2859,
      "Ġescape": 2860,
      "Ġrender": 2861,
      "Ġ\"(": 2862,
      "Ġrpc": 2863,
      "uest": 2864,
      "Ġwtap": 2865,
      "Ġisa": 2866,
      "Ġparity": 2867,
      "perm": 2868,
      "features": 2869,
      "Ġquantum": 2870,
      "srv": 2871,
      "Ġmacroblockd": 2872,
      "dl": 2873,
      "late": 2874,
      "ner": 2875,
      "octet": 2876,
      "Ġspec": 2877,
      "Ġmm": 2878,
      "fore": 2879,
      "usage": 2880,
      "predictor": 2881,
      "finished": 2882,
      "Ġschro": 2883,
      "Ġtask": 2884,
      "Ġbd": 2885,
      "Ġafs": 2886,
      "vals": 2887,
      "Ġseek": 2888,
      "Ġcoded": 2889,
      "Ġtok": 2890,
      "Ġengine": 2891,
      "Ġpystring": 2892,
      "==": 2893,
      "iant": 2894,
      "Ġremaining": 2895,
      "Ġdqcoeff": 2896,
      "six": 2897,
      "elist": 2898,
      "Ġavg": 2899,
      "tect": 2900,
      "aph": 2901,
      "life": 2902,
      "verse": 2903,
      "Ġbitstream": 2904,
      "bose": 2905,
      "ificate": 2906,
      "dg": 2907,
      "sequence": 2908,
      "Ġfe": 2909,
      "Ġmc": 2910,
      "ormal": 2911,
      "entic": 2912,
      "items": 2913,
      "Ġleave": 2914,
      "Ġmatroska": 2915,
      "city": 2916,
      "global": 2917,
      "ov": 2918,
      "Ġcgroup": 2919,
      "Ġfc": 2920,
      "Ġgpointer": 2921,
      "Ġuiserver": 2922,
      "rai": 2923,
      "cmswrite": 2924,
      "263": 2925,
      "19": 2926,
      "ire": 2927,
      "srai": 2928,
      "xx": 2929,
      "atio": 2930,
      "Ġmult": 2931,
      "sizes": 2932,
      "unused": 2933,
      "ncy": 2934,
      "Ġfiles": 2935,
      "Ġsocket": 2936,
      "session": 2937,
      "btatt": 2938,
      "Ġimp": 2939,
      "Ġpal": 2940,
      "onent": 2941,
      "Ġgif": 2942,
      "Ġinsert": 2943,
      "pair": 2944,
      "warn": 2945,
      "Ġdirect": 2946,
      "Ġgpgme": 2947,
      "libssh": 2948,
      "100": 2949,
      "af": 2950,
      "ote": 2951,
      "roid": 2952,
      "Ġxpr": 2953,
      "Ġvalid": 2954,
      "escape": 2955,
      "ending": 2956,
      "pret": 2957,
      "tables": 2958,
      "Ġisoent": 2959,
      "misc": 2960,
      "Ġsadmxnx": 2961,
      "eb": 2962,
      "Ġtcp": 2963,
      "Ġelement": 2964,
      "alf": 2965,
      "agent": 2966,
      "cursor": 2967,
      "Ġtransfer": 2968,
      "Ġrunning": 2969,
      "Ġexpert": 2970,
      "Ġextract": 2971,
      "Ġnvram": 2972,
      "padding": 2973,
      "Ġmark": 2974,
      "Ġrelease": 2975,
      "Ġnl": 2976,
      "ulate": 2977,
      "sslv": 2978,
      "Ġbus": 2979,
      "illegal": 2980,
      "profile": 2981,
      "charset": 2982,
      "Ġenable": 2983,
      "Ġplan": 2984,
      "ered": 2985,
      "55": 2986,
      "90": 2987,
      "could": 2988,
      "ics": 2989,
      "div": 2990,
      "Ġopts": 2991,
      "missing": 2992,
      "capable": 2993,
      "anguage": 2994,
      "44": 2995,
      "frm": 2996,
      "ring": 2997,
      "vir": 2998,
      "atial": 2999,
      "orig": 3000,
      "Ġeof": 3001,
      "Ġrp": 3002,
      "template": 3003,
      "Ġgetvalue": 3004,
      "cision": 3005,
      "auto": 3006,
      "Ġreadblob": 3007,
      "converterindex": 3008,
      "final": 3009,
      "reserved": 3010,
      "Ġlayer": 3011,
      "orrupt": 3012,
      "Ġnnz": 3013,
      "mc": 3014,
      "Ġperrorcode": 3015,
      "inf": 3016,
      "Ġnmv": 3017,
      "Ġrbuf": 3018,
      "Ġqindex": 3019,
      "cified": 3020,
      "Ġipv": 3021,
      "private": 3022,
      "ategory": 3023,
      "ugh": 3024,
      "websock": 3025,
      "='": 3026,
      "impl": 3027,
      "wh": 3028,
      "wsgi": 3029,
      "Ġpending": 3030,
      "Ġbig": 3031,
      "Ġaf": 3032,
      "iterator": 3033,
      "ids": 3034,
      "Ġlpc": 3035,
      "umns": 3036,
      "Ġ22": 3037,
      "app": 3038,
      "lain": 3039,
      "mma": 3040,
      "ood": 3041,
      "tach": 3042,
      "domain": 3043,
      "Ġconvert": 3044,
      "worker": 3045,
      "Ġqemumonitorjson": 3046,
      "cla": 3047,
      "dlog": 3048,
      "imp": 3049,
      "push": 3050,
      "Ġdigit": 3051,
      "txn": 3052,
      "Ġvals": 3053,
      "Ġpolicy": 3054,
      "Ġvariables": 3055,
      "layers": 3056,
      "sampling": 3057,
      "Ġcnf": 3058,
      "Ġbranch": 3059,
      "nb": 3060,
      "oi": 3061,
      "spl": 3062,
      "Ġsame": 3063,
      "Ġcfff": 3064,
      "Ġelem": 3065,
      "Ġdmv": 3066,
      "Ġinode": 3067,
      "Ġproxy": 3068,
      "Ġkernel": 3069,
      "ations": 3070,
      "Ġface": 3071,
      "Ġsignature": 3072,
      "Ġsvga": 3073,
      "bs": 3074,
      "gc": 3075,
      "known": 3076,
      "lbmpdm": 3077,
      "sct": 3078,
      "udo": 3079,
      "ren": 3080,
      "seudo": 3081,
      "arm": 3082,
      "arr": 3083,
      "Ġlsf": 3084,
      "unction": 3085,
      "Ġsrcptr": 3086,
      "imum": 3087,
      "Ġopcode": 3088,
      "Ġprimary": 3089,
      "avp": 3090,
      "dh": 3091,
      "jpeg": 3092,
      "lems": 3093,
      "Ġmh": 3094,
      "Ġrx": 3095,
      "vert": 3096,
      "Ġmemcmp": 3097,
      "Ġencode": 3098,
      "interpret": 3099,
      "boot": 3100,
      "limiter": 3101,
      "wksidx": 3102,
      "weight": 3103,
      "Ġcfg": 3104,
      "Ġempty": 3105,
      "jor": 3106,
      "pitch": 3107,
      "Ġuwsgi": 3108,
      "Ġinto": 3109,
      "adv": 3110,
      "Ġxdev": 3111,
      "puts": 3112,
      "contain": 3113,
      "compat": 3114,
      "Ġbluetooth": 3115,
      "boost": 3116,
      "lk": 3117,
      "lut": 3118,
      "pk": 3119,
      "wid": 3120,
      "storage": 3121,
      "Ġmed": 3122,
      "cts": 3123,
      "Ġut": 3124,
      "Ġrt": 3125,
      "Ġbuflen": 3126,
      "Ġerrcode": 3127,
      "Ġ<<=": 3128,
      "Ġsubframe": 3129,
      "Ġcommit": 3130,
      "commit": 3131,
      "Ġrows": 3132,
      "Ġslurmctld": 3133,
      "Ġexpected": 3134,
      "comment": 3135,
      "pdu": 3136,
      "document": 3137,
      "clock": 3138,
      "calloc": 3139,
      "got": 3140,
      "Ġsin": 3141,
      "Ġnla": 3142,
      "Ġstore": 3143,
      "Ġdl": 3144,
      "Ġ\"<": 3145,
      "Ġdeno": 3146,
      "codes": 3147,
      "Ġ30": 3148,
      "Ġsearch": 3149,
      "access": 3150,
      "udp": 3151,
      "Ġcbc": 3152,
      "Ġcontextid": 3153,
      "Ġbound": 3154,
      "Ġsupported": 3155,
      "Ġiterator": 3156,
      "single": 3157,
      "virt": 3158,
      "git": 3159,
      "pp": 3160,
      "Ġcd": 3161,
      "Ġcmp": 3162,
      "Ġpts": 3163,
      "Ġmul": 3164,
      "oriz": 3165,
      "Ġaccess": 3166,
      "Ġgfile": 3167,
      "Ġ...": 3168,
      "too": 3169,
      "gname": 3170,
      "Ġexception": 3171,
      "csu": 3172,
      "parameter": 3173,
      "acc": 3174,
      "Ġheaders": 3175,
      "multip": 3176,
      "specifics": 3177,
      "cancel": 3178,
      "cleanup": 3179,
      "grant": 3180,
      "pbuf": 3181,
      "ras": 3182,
      "random": 3183,
      "ude": 3184,
      "Ġcin": 3185,
      "allowed": 3186,
      "ager": 3187,
      "Ġwhere": 3188,
      "Ġdequant": 3189,
      "Ġ26": 3190,
      "Ġisnull": 3191,
      "Ġidct": 3192,
      "Ġscript": 3193,
      "timestamp": 3194,
      "Ġslices": 3195,
      "groups": 3196,
      "Ġsynthl": 3197,
      "Ġucnv": 3198,
      "(%": 3199,
      "echat": 3200,
      "hf": 3201,
      "hook": 3202,
      "ient": 3203,
      "sched": 3204,
      "slot": 3205,
      "Ġcpl": 3206,
      "Ġ1000": 3207,
      "Ġoctet": 3208,
      "adr": 3209,
      "Ġcod": 3210,
      "master": 3211,
      "Ġweechat": 3212,
      "/'": 3213,
      "ni": 3214,
      "void": 3215,
      "Ġsu": 3216,
      "atype": 3217,
      "Ġfname": 3218,
      "Ġest": 3219,
      "Ġlc": 3220,
      "Ġdel": 3221,
      "Ġ21": 3222,
      "Ġxfer": 3223,
      "getdatum": 3224,
      "nore": 3225,
      "Ġ'/'": 3226,
      "signature": 3227,
      "Ġsecurity": 3228,
      "Ġpipe": 3229,
      "ivity": 3230,
      "Ġthread": 3231,
      "Ġmagickfalse": 3232,
      "split": 3233,
      "48": 3234,
      ":\"": 3235,
      "hc": 3236,
      "schro": 3237,
      "lex": 3238,
      "Ġpkey": 3239,
      "Ġfclose": 3240,
      "alog": 3241,
      "Ġuerrorcode": 3242,
      "sible": 3243,
      "silent": 3244,
      "Ġrl": 3245,
      "Ġ27": 3246,
      "unsupported": 3247,
      "Ġpost": 3248,
      "transfer": 3249,
      "card": 3250,
      "lf": 3251,
      "ratio": 3252,
      "Ġurl": 3253,
      "Ġsps": 3254,
      "ntax": 3255,
      "Ġrs": 3256,
      "Ġexec": 3257,
      "memcpy": 3258,
      "Ġalt": 3259,
      "Ġasf": 3260,
      "Ġsourceindex": 3261,
      "Ġpixels": 3262,
      "changed": 3263,
      "=\"": 3264,
      "sure": 3265,
      "sation": 3266,
      "Ġimem": 3267,
      "Ġptv": 3268,
      "Ġtyp": 3269,
      "Ġstg": 3270,
      "Ġaux": 3271,
      "Ġdr": 3272,
      "Ġvms": 3273,
      "Ġvend": 3274,
      "Ġhi": 3275,
      "fifo": 3276,
      "Ġxfree": 3277,
      "ured": 3278,
      "Ġtokens": 3279,
      "Ġalias": 3280,
      "cret": 3281,
      "Ġlogger": 3282,
      "Ġscaled": 3283,
      "mysql": 3284,
      "Ġflush": 3285,
      "huffman": 3286,
      "sctp": 3287,
      "uchar": 3288,
      "Ġmpeg": 3289,
      "Ġdx": 3290,
      "side": 3291,
      "asl": 3292,
      "princ": 3293,
      "Ġjo": 3294,
      "ofs": 3295,
      "amf": 3296,
      "Ġimg": 3297,
      "Ġ60": 3298,
      "php": 3299,
      "filters": 3300,
      "Ġselinux": 3301,
      "Ġnto": 3302,
      "origin": 3303,
      "iss": 3304,
      "wap": 3305,
      "Ġpattern": 3306,
      "Ġtd": 3307,
      "Ġrevs": 3308,
      "sive": 3309,
      "Ġwork": 3310,
      "present": 3311,
      "subframe": 3312,
      "Ġzbin": 3313,
      "Ġthr": 3314,
      "Ġropt": 3315,
      "normal": 3316,
      "svc": 3317,
      "Ġpseudo": 3318,
      "Ġnid": 3319,
      "Ġnick": 3320,
      "Ġub": 3321,
      "child": 3322,
      "Ġli": 3323,
      "Ġnullptr": 3324,
      "slices": 3325,
      "encoder": 3326,
      "Ġdstptr": 3327,
      "Ġatt": 3328,
      "Ġminst": 3329,
      "Ġblue": 3330,
      "datal": 3331,
      "connections": 3332,
      "super": 3333,
      "Ġpxa": 3334,
      "probs": 3335,
      "cellable": 3336,
      "Ġvendor": 3337,
      "cal": 3338,
      "hist": 3339,
      "oice": 3340,
      "rw": 3341,
      "typ": 3342,
      "Ġbody": 3343,
      "principal": 3344,
      "verify": 3345,
      "Ġunlikely": 3346,
      "clut": 3347,
      "Ġmvd": 3348,
      "Ġdecoded": 3349,
      "capacity": 3350,
      "quired": 3351,
      "225": 3352,
      "realloc": 3353,
      "Ġskey": 3354,
      "Ġreas": 3355,
      "Ġgic": 3356,
      "errors": 3357,
      "fam": 3358,
      "Ġselect": 3359,
      "Ġblocksize": 3360,
      "begin": 3361,
      "Ġcompression": 3362,
      "modi": 3363,
      "disable": 3364,
      "Ġverify": 3365,
      "Ġlookup": 3366,
      "Ġdbg": 3367,
      "wait": 3368,
      "Ġpartition": 3369,
      "Ġbinkb": 3370,
      "ass": 3371,
      "nes": 3372,
      "rfc": 3373,
      "rece": 3374,
      "Ġscsu": 3375,
      "Ġesc": 3376,
      "Ġstroke": 3377,
      "Ġgrant": 3378,
      "role": 3379,
      "Ġoper": 3380,
      "Ġudp": 3381,
      "Ġstrchr": 3382,
      "Ġresid": 3383,
      "force": 3384,
      "ready": 3385,
      "Ġrefresh": 3386,
      "Ġenabled": 3387,
      "Ġcounts": 3388,
      "graph": 3389,
      "Ġloop": 3390,
      "blk": 3391,
      "accum": 3392,
      "hi": 3393,
      "pf": 3394,
      "rule": 3395,
      "Ġig": 3396,
      "Ġcred": 3397,
      "Ġfh": 3398,
      "Ġfunction": 3399,
      "Ġmis": 3400,
      "Ġrestrict": 3401,
      "Ġbin": 3402,
      "ints": 3403,
      "exist": 3404,
      "Ġwas": 3405,
      "Ġ29": 3406,
      "Ġresp": 3407,
      "prom": 3408,
      "Ġerrmsg": 3409,
      "plugin": 3410,
      "Ġatm": 3411,
      "objects": 3412,
      "crx": 3413,
      "Ġmodule": 3414,
      "mbda": 3415,
      "Ġedge": 3416,
      "propert": 3417,
      "family": 3418,
      "digest": 3419,
      "fstr": 3420,
      "vout": 3421,
      "Ġcat": 3422,
      "std": 3423,
      "Ġpush": 3424,
      "Ġpthis": 3425,
      "Ġfts": 3426,
      "Ġdummy": 3427,
      "locale": 3428,
      "Ġuuid": 3429,
      "Ġunknown": 3430,
      "cay": 3431,
      "ressed": 3432,
      "accel": 3433,
      "porterror": 3434,
      "Ġallow": 3435,
      "Ġdestroy": 3436,
      "trace": 3437,
      "Ġpsnr": 3438,
      "Ġopenpic": 3439,
      "Ġepctx": 3440,
      "Ġclause": 3441,
      "Ġspeed": 3442,
      "Ġexists": 3443,
      "17": 3444,
      "mime": 3445,
      "ose": 3446,
      "alg": 3447,
      "Ġstl": 3448,
      "Ġogg": 3449,
      "chem": 3450,
      "Ġwar": 3451,
      "Ġstrbuf": 3452,
      "model": 3453,
      "Ġshould": 3454,
      "Ġ512": 3455,
      "Ġhttpsm": 3456,
      "Ġqual": 3457,
      "Ġvariance": 3458,
      "Ġcached": 3459,
      "0000000": 3460,
      "messages": 3461,
      "binary": 3462,
      "utton": 3463,
      "Ġappendpqexpbuffer": 3464,
      "overflow": 3465,
      "390": 3466,
      "erge": 3467,
      "ntry": 3468,
      "Ġfet": 3469,
      "alle": 3470,
      "Ġown": 3471,
      "Ġhel": 3472,
      "asses": 3473,
      "Ġqdev": 3474,
      "ureporterror": 3475,
      "major": 3476,
      "Ġatom": 3477,
      "Ġtestflag": 3478,
      "formation": 3479,
      "Ġqemureporterror": 3480,
      "Ġchang": 3481,
      "Ġauto": 3482,
      "Ġlocale": 3483,
      "angle": 3484,
      "Ġsplit": 3485,
      "05": 3486,
      "lation": 3487,
      "tor": 3488,
      "Ġone": 3489,
      "itle": 3490,
      "Ġgfc": 3491,
      "ffff": 3492,
      "Ġubool": 3493,
      "icc": 3494,
      "Ġram": 3495,
      "Ġlut": 3496,
      "Ġ23": 3497,
      "abort": 3498,
      "mtu": 3499,
      "location": 3500,
      "Ġnumcols": 3501,
      "Ġerrors": 3502,
      "Ġtxt": 3503,
      "colors": 3504,
      "blt": 3505,
      "Ġsockaddr": 3506,
      "137": 3507,
      "Ġpublic": 3508,
      "Ġflat": 3509,
      "install": 3510,
      "hb": 3511,
      "istr": 3512,
      "pb": 3513,
      "pkey": 3514,
      "rgb": 3515,
      "wsp": 3516,
      "Ġident": 3517,
      "rev": 3518,
      "Ġsconv": 3519,
      "Ġcell": 3520,
      "Ġpcp": 3521,
      "Ġpop": 3522,
      "Ġpadding": 3523,
      "deno": 3524,
      "Ġother": 3525,
      "Ġhd": 3526,
      "Ġcharset": 3527,
      "database": 3528,
      "Ġqp": 3529,
      "Ġerrp": 3530,
      "Ġcolumns": 3531,
      "Ġcblk": 3532,
      "Ġintern": 3533,
      "Ġparsed": 3534,
      "Ġpcnet": 3535,
      "Ġpeer": 3536,
      "scanf": 3537,
      "Ġtsmloc": 3538,
      "--------": 3539,
      "available": 3540,
      "Ġcomment": 3541,
      "scenes": 3542,
      "**": 3543,
      "dk": 3544,
      "vno": 3545,
      "Ġspace": 3546,
      "algo": 3547,
      "errupt": 3548,
      "ops": 3549,
      "Ġsystem": 3550,
      "Ġskipped": 3551,
      "Ġevents": 3552,
      "words": 3553,
      "joyn": 3554,
      "Ġhwaddr": 3555,
      "Ġdynamicwindow": 3556,
      "acl": 3557,
      "dd": 3558,
      "ied": 3559,
      "opa": 3560,
      "Ġisec": 3561,
      "Ġtcmpt": 3562,
      "Ġbt": 3563,
      "Ġnitems": 3564,
      "Ġgid": 3565,
      "asm": 3566,
      "diction": 3567,
      "cpar": 3568,
      "compression": 3569,
      "Ġffmin": 3570,
      "Ġlocation": 3571,
      "Ġbpp": 3572,
      "Ġallocate": 3573,
      "osite": 3574,
      "Ġbasic": 3575,
      "Ġcoding": 3576,
      "]\"": 3577,
      "language": 3578,
      "tlv": 3579,
      "reader": 3580,
      "Ġai": 3581,
      "ities": 3582,
      "Ġgener": 3583,
      "Ġ\"--": 3584,
      "Ġwth": 3585,
      "trunc": 3586,
      "Ġmyheader": 3587,
      "Ġunum": 3588,
      "bufsize": 3589,
      "Ġdoes": 3590,
      "Ġpsz": 3591,
      "cmsread": 3592,
      "Ġopacity": 3593,
      "Ġcalc": 3594,
      "custom": 3595,
      "Ġmedia": 3596,
      "border": 3597,
      "gy": 3598,
      "pci": 3599,
      "ulength": 3600,
      "Ġdown": 3601,
      "coef": 3602,
      "adj": 3603,
      "Ġstrstr": 3604,
      "continue": 3605,
      "Ġcurbyte": 3606,
      "imal": 3607,
      "sym": 3608,
      "acter": 3609,
      "leted": 3610,
      "Ġcallback": 3611,
      "ntohl": 3612,
      "aptuple": 3613,
      "niffer": 3614,
      "Ġfetch": 3615,
      "draw": 3616,
      "qp": 3617,
      "rans": 3618,
      "task": 3619,
      "Ġrol": 3620,
      "Ġistring": 3621,
      "stage": 3622,
      "inline": 3623,
      "oral": 3624,
      "Ġremove": 3625,
      "Ġbw": 3626,
      "Ġbfd": 3627,
      "Ġeval": 3628,
      "Ġstreams": 3629,
      "Ġga": 3630,
      "Ġ\"-": 3631,
      "Ġintr": 3632,
      "Ġqtm": 3633,
      "Ġprotobuf": 3634,
      "mbled": 3635,
      "Ġsym": 3636,
      "dbl": 3637,
      "Ġtimestamp": 3638,
      "psnr": 3639,
      "convolve": 3640,
      "shape": 3641,
      "Ġrlvlno": 3642,
      "\"'": 3643,
      "03": 3644,
      "18": 3645,
      "eded": 3646,
      "ker": 3647,
      "nsion": 3648,
      "tas": 3649,
      "sever": 3650,
      "Ġty": 3651,
      "Ġecontext": 3652,
      "Ġstyle": 3653,
      "Ġdw": 3654,
      "Ġ\"/": 3655,
      "ulator": 3656,
      "chine": 3657,
      "Ġlk": 3658,
      "the": 3659,
      "thro": 3660,
      "strnc": 3661,
      "Ġbuild": 3662,
      "oft": 3663,
      "Ġnumrows": 3664,
      "\\\"\"": 3665,
      "Ġdirection": 3666,
      "Ġprivate": 3667,
      "Ġactiv": 3668,
      "cannot": 3669,
      "256": 3670,
      "Ġhuffman": 3671,
      "Ġadjust": 3672,
      "overr": 3673,
      "cmswriteuint": 3674,
      "lap": 3675,
      "ratch": 3676,
      "wire": 3677,
      "zip": 3678,
      "Ġcid": 3679,
      "Ġtail": 3680,
      "Ġflow": 3681,
      "Ġmust": 3682,
      "Ġra": 3683,
      "Ġlang": 3684,
      "Ġprog": 3685,
      "Ġdatabase": 3686,
      "Ġyear": 3687,
      "Ġgbc": 3688,
      "ious": 3689,
      "Ġheaptuple": 3690,
      "Ġcolumn": 3691,
      "Ġalgo": 3692,
      "dbg": 3693,
      "cred": 3694,
      "paths": 3695,
      "Ġusects": 3696,
      "join": 3697,
      "metadata": 3698,
      "99": 3699,
      "category": 3700,
      "mse": 3701,
      "pas": 3702,
      "Ġcorrupt": 3703,
      "erarch": 3704,
      "Ġpent": 3705,
      "Ġpatt": 3706,
      "inet": 3707,
      "reach": 3708,
      "Ġbundle": 3709,
      "adds": 3710,
      "priority": 3711,
      "Ġdatalen": 3712,
      "Ġarf": 3713,
      "Ġundef": 3714,
      "rcv": 3715,
      "mbo": 3716,
      "memset": 3717,
      "ived": 3718,
      "Ġiobuf": 3719,
      "licate": 3720,
      "000000": 3721,
      "Ġdsa": 3722,
      "Ġmeta": 3723,
      "Ġmetadata": 3724,
      "Ġsecondary": 3725,
      "plicit": 3726,
      "accumulator": 3727,
      "bprintf": 3728,
      "fall": 3729,
      "right": 3730,
      "Ġsent": 3731,
      "Ġcalloc": 3732,
      "Ġplain": 3733,
      "Ġaudit": 3734,
      "Ġ\"[": 3735,
      "Ġ\"_": 3736,
      "lend": 3737,
      "utdown": 3738,
      "emu": 3739,
      "vec": 3740,
      "Ġqcoeff": 3741,
      "mmio": 3742,
      "buffers": 3743,
      "prefs": 3744,
      "Ġpdm": 3745,
      "trail": 3746,
      "Ġsbsec": 3747,
      "Ġxmlrpc": 3748,
      "rectangle": 3749,
      "partition": 3750,
      "Ġspline": 3751,
      "pages": 3752,
      "Ġhandshake": 3753,
      "severity": 3754,
      "07": 3755,
      "21": 3756,
      "gray": 3757,
      "ou": 3758,
      "pid": 3759,
      "rprint": 3760,
      "xnet": 3761,
      "Ġreset": 3762,
      "Ġbmv": 3763,
      "Ġsteam": 3764,
      "coord": 3765,
      "ulse": 3766,
      "ular": 3767,
      "Ġluma": 3768,
      "tection": 3769,
      "abil": 3770,
      "consu": 3771,
      "namespace": 3772,
      "forward": 3773,
      "allocation": 3774,
      "subtag": 3775,
      "branch": 3776,
      "Ġmtu": 3777,
      "ead": 3778,
      "kvno": 3779,
      "mg": 3780,
      "mon": 3781,
      "pattern": 3782,
      "xpath": 3783,
      "incre": 3784,
      "Ġmid": 3785,
      "Ġmot": 3786,
      "Ġrestore": 3787,
      "Ġdup": 3788,
      "Ġglist": 3789,
      "Ġuvm": 3790,
      "ptured": 3791,
      "Ġcook": 3792,
      "expi": 3793,
      "igger": 3794,
      "Ġarr": 3795,
      "mbol": 3796,
      "parms": 3797,
      "Ġpredict": 3798,
      "mov": 3799,
      "Ġpbi": 3800,
      "Ġmsrs": 3801,
      "testcase": 3802,
      "Ġcancellable": 3803,
      "replace": 3804,
      "coming": 3805,
      "Ġhandler": 3806,
      "Ġuconverterdatal": 3807,
      "wiretype": 3808,
      "Ġuconverterdatalmbcs": 3809,
      ">\"": 3810,
      "mnt": 3811,
      "patch": 3812,
      "Ġscore": 3813,
      "attach": 3814,
      "iny": 3815,
      "Ġfinfo": 3816,
      "Ġvpa": 3817,
      "ution": 3818,
      "Ġrf": 3819,
      "aper": 3820,
      "Ġisdone": 3821,
      "Ġsizeoftag": 3822,
      "gsniffer": 3823,
      "refresh": 3824,
      "encrypting": 3825,
      "Ġextcap": 3826,
      "points": 3827,
      "multit": 3828,
      "frags": 3829,
      "Ġbands": 3830,
      "certificate": 3831,
      "Ġvirjsonvalueptr": 3832,
      "Ġmmco": 3833,
      "chema": 3834,
      "Ġvpaes": 3835,
      "!\"": 3836,
      ">\\": 3837,
      "ait": 3838,
      "ba": 3839,
      "pw": 3840,
      "qscale": 3841,
      "recs": 3842,
      "Ġfdata": 3843,
      "orith": 3844,
      "Ġok": 3845,
      "Ġus": 3846,
      "Ġuphp": 3847,
      "setting": 3848,
      "Ġavt": 3849,
      "Ġdentry": 3850,
      "rcu": 3851,
      "Ġkeydb": 3852,
      "precision": 3853,
      "clude": 3854,
      "compare": 3855,
      "variant": 3856,
      "Ġallowed": 3857,
      "letion": 3858,
      "events": 3859,
      "casecmp": 3860,
      "Ġweight": 3861,
      "Ġvirjsonvalueobject": 3862,
      "Ġamf": 3863,
      "Ġattributes": 3864,
      "Ġfeature": 3865,
      "$(": 3866,
      ":\\": 3867,
      "dcfg": 3868,
      "fra": 3869,
      "fwd": 3870,
      "Ġpthread": 3871,
      "allo": 3872,
      "Ġdprintf": 3873,
      "Ġul": 3874,
      "ulong": 3875,
      "Ġlxc": 3876,
      "Ġmysource": 3877,
      "cpus": 3878,
      "Ġlex": 3879,
      "Ġwhat": 3880,
      "Ġptrdiff": 3881,
      "Ġchange": 3882,
      "Ġunicode": 3883,
      "Ġwritercontext": 3884,
      "multitype": 3885,
      ".%": 3886,
      "cx": 3887,
      "rs": 3888,
      "Ġic": 3889,
      "Ġie": 3890,
      "Ġter": 3891,
      "Ġfvalue": 3892,
      "Ġdrop": 3893,
      "Ġvec": 3894,
      "sis": 3895,
      "chans": 3896,
      "exte": 3897,
      "Ġxoffset": 3898,
      "async": 3899,
      "cached": 3900,
      "ifid": 3901,
      "resid": 3902,
      "best": 3903,
      "Ġfields": 3904,
      "Ġalg": 3905,
      "Ġvarid": 3906,
      "Ġverbose": 3907,
      "ereo": 3908,
      "Ġtargetlimit": 3909,
      "Ġlibc": 3910,
      "Ġgrp": 3911,
      "Ġsyncer": 3912,
      "identifier": 3913,
      "29": 3914,
      "crc": 3915,
      "duration": 3916,
      "Ġiinteger": 3917,
      "Ġci": 3918,
      "erate": 3919,
      "strerror": 3920,
      "arf": 3921,
      "Ġnbits": 3922,
      "Ġlua": 3923,
      "Ġstrto": 3924,
      "tran": 3925,
      "Ġ'.": 3926,
      "mbs": 3927,
      "Ġyoffset": 3928,
      "prev": 3929,
      "modes": 3930,
      "avpack": 3931,
      "Ġmodel": 3932,
      "Ġpackets": 3933,
      "Ġinterp": 3934,
      "Ġtargetcapacity": 3935,
      "Ġsmall": 3936,
      "Ġarguments": 3937,
      "wrapper": 3938,
      "gcry": 3939,
      "orithm": 3940,
      "qindex": 3941,
      "uan": 3942,
      "yv": 3943,
      "Ġorder": 3944,
      "Ġsq": 3945,
      "Ġcname": 3946,
      "Ġclear": 3947,
      "ating": 3948,
      "Ġdraw": 3949,
      "Ġvect": 3950,
      "Ġopc": 3951,
      "lim": 3952,
      "Ġunit": 3953,
      "Ġkeylen": 3954,
      "Ġcodecpar": 3955,
      "Ġidy": 3956,
      "Ġatoi": 3957,
      "Ġzip": 3958,
      "Ġthrow": 3959,
      "pixelchannel": 3960,
      "Ġputc": 3961,
      "safe": 3962,
      "media": 3963,
      "onents": 3964,
      "Ġsteamdiscover": 3965,
      "cgroup": 3966,
      "eax": 3967,
      "hp": 3968,
      "lz": 3969,
      "ration": 3970,
      "Ġsasl": 3971,
      "Ġcr": 3972,
      "Ġmonitor": 3973,
      "Ġrem": 3974,
      "Ġifa": 3975,
      "Ġboo": 3976,
      "arge": 3977,
      "Ġvs": 3978,
      "Ġvget": 3979,
      "Ġgain": 3980,
      "Ġot": 3981,
      "Ġllen": 3982,
      "iso": 3983,
      "unable": 3984,
      "Ġkr": 3985,
      "Ġhfindex": 3986,
      "img": 3987,
      "Ġdiam": 3988,
      "before": 3989,
      "lower": 3990,
      "minor": 3991,
      "package": 3992,
      "syserror": 3993,
      "Ġsysbus": 3994,
      "Ġmodi": 3995,
      "Ġrelative": 3996,
      "Ġndx": 3997,
      "Ġrecrawstatsyncsum": 3998,
      "instance": 3999,
      "digits": 4000,
      "widget": 4001,
      "nsions": 4002,
      "rcuit": 4003,
      "Ġ'.'": 4004,
      "bot": 4005,
      "eob": 4006,
      "srtp": 4007,
      "ume": 4008,
      "wal": 4009,
      "dered": 4010,
      "coap": 4011,
      "idi": 4012,
      "interrupt": 4013,
      "explicit": 4014,
      "Ġwdg": 4015,
      "Ġstrdup": 4016,
      "unexpected": 4017,
      "Ġbufsize": 4018,
      "Ġ40": 4019,
      "Ġpriority": 4020,
      "Ġkeyframe": 4021,
      "Ġsubsampling": 4022,
      "conversion": 4023,
      "Ġtimeout": 4024,
      "vised": 4025,
      "Ġmatrix": 4026,
      "operation": 4027,
      "Ġinstall": 4028,
      "after": 4029,
      "properties": 4030,
      "8000": 4031,
      "day": 4032,
      "eof": 4033,
      "eprom": 4034,
      "rfb": 4035,
      "eral": 4036,
      "Ġreport": 4037,
      "Ġast": 4038,
      "cow": 4039,
      "Ġconv": 4040,
      "Ġwavpack": 4041,
      "vend": 4042,
      "Ġforce": 4043,
      "ortion": 4044,
      "Ġcontp": 4045,
      "Ġpoint": 4046,
      "Ġbegin": 4047,
      "colormap": 4048,
      "authentic": 4049,
      "Ġivlen": 4050,
      "Ġmaster": 4051,
      "running": 4052,
      "pixmap": 4053,
      "Ġboot": 4054,
      "Ġmagic": 4055,
      "factors": 4056,
      "Ġenumerator": 4057,
      "Ġvmxnet": 4058,
      "Ġcontains": 4059,
      "Ġsuccess": 4060,
      "Ġignore": 4061,
      "override": 4062,
      "420": 4063,
      "gra": 4064,
      "nest": 4065,
      "reply": 4066,
      "retry": 4067,
      "Ġclip": 4068,
      "Ġmr": 4069,
      "orb": 4070,
      "Ġred": 4071,
      "Ġnc": 4072,
      "Ġdtap": 4073,
      "Ġgood": 4074,
      "agg": 4075,
      "unch": 4076,
      "unpack": 4077,
      "opcode": 4078,
      "encap": 4079,
      "skb": 4080,
      "sktop": 4081,
      "ttf": 4082,
      "Ġgroups": 4083,
      "Ġneg": 4084,
      "slurmctld": 4085,
      "Ġslotid": 4086,
      "Ġneedle": 4087,
      "speed": 4088,
      "permissions": 4089,
      "Ġlibcerror": 4090,
      "Ġiintegervalue": 4091,
      "vendor": 4092,
      "ng": 4093,
      "other": 4094,
      "title": 4095,
      "Ġsexp": 4096,
      "Ġpat": 4097,
      "Ġpow": 4098,
      "orst": 4099,
      "Ġremain": 4100,
      "Ġnfa": 4101,
      "Ġstrerror": 4102,
      "Ġaid": 4103,
      "Ġduration": 4104,
      "idct": 4105,
      "Ġrand": 4106,
      "ndr": 4107,
      "Ġavp": 4108,
      "Ġww": 4109,
      "Ġwait": 4110,
      "Ġjson": 4111,
      "oted": 4112,
      "static": 4113,
      "Ġendp": 4114,
      "Ġsubtype": 4115,
      "Ġhton": 4116,
      "Ġinitrd": 4117,
      "Ġtags": 4118,
      "calls": 4119,
      "Ġmove": 4120,
      "Ġmount": 4121,
      "Ġuvsrc": 4122,
      "Ġcanon": 4123,
      "Ġmulti": 4124,
      "Ġvmsvga": 4125,
      "alloon": 4126,
      "aff": 4127,
      "monitor": 4128,
      "uuid": 4129,
      "vol": 4130,
      "Ġsn": 4131,
      "Ġpps": 4132,
      "instr": 4133,
      "Ġbut": 4134,
      "Ġwb": 4135,
      "Ġqcms": 4136,
      "vers": 4137,
      "lave": 4138,
      "formed": 4139,
      "Ġtsreturn": 4140,
      "Ġffabs": 4141,
      "Ġplugin": 4142,
      "decref": 4143,
      "Ġvarchar": 4144,
      "Ġtrail": 4145,
      "Ġexpand": 4146,
      "Ġivaluelength": 4147,
      "Ġtsmbuffer": 4148,
      "dynamic": 4149,
      "Ġquality": 4150,
      "allel": 4151,
      "Ġtsreturncode": 4152,
      ",'": 4153,
      "aa": 4154,
      "dqcoeff": 4155,
      "hm": 4156,
      "rad": 4157,
      "ssi": 4158,
      "wme": 4159,
      "xe": 4160,
      "Ġitl": 4161,
      "regs": 4162,
      "Ġcasn": 4163,
      "Ġcseq": 4164,
      "stype": 4165,
      "Ġfed": 4166,
      "Ġngsniffer": 4167,
      "Ġeeprom": 4168,
      "Ġcost": 4169,
      "Ġdelimiter": 4170,
      "Ġqx": 4171,
      "Ġqy": 4172,
      "mswsp": 4173,
      "laced": 4174,
      "Ġ%\"": 4175,
      "bitrate": 4176,
      "ytes": 4177,
      "Ġseen": 4178,
      "Ġtrb": 4179,
      "Ġsrcy": 4180,
      "scal": 4181,
      "Ġlinelen": 4182,
      "registered": 4183,
      "Ġcsum": 4184,
      "secure": 4185,
      "rda": 4186,
      "Ġcolors": 4187,
      "Ġcannot": 4188,
      "writer": 4189,
      "Ġsafe": 4190,
      "Ġtcg": 4191,
      "Ġorigin": 4192,
      "specified": 4193,
      "virtio": 4194,
      "Ġptvc": 4195,
      "calc": 4196,
      "cmsreaduint": 4197,
      "df": 4198,
      "hit": 4199,
      "half": 4200,
      "mar": 4201,
      "restore": 4202,
      "Ġcy": 4203,
      "eric": 4204,
      "once": 4205,
      "Ġmpa": 4206,
      "Ġregs": 4207,
      "Ġnr": 4208,
      "allow": 4209,
      "Ġasync": 4210,
      "idate": 4211,
      "Ġinet": 4212,
      "Ġdelay": 4213,
      "construct": 4214,
      "tried": 4215,
      "Ġ'\"'": 4216,
      "htable": 4217,
      "pop": 4218,
      "Ġprinc": 4219,
      "lines": 4220,
      "checksum": 4221,
      "Ġxmlchar": 4222,
      "windows": 4223,
      "Ġprevious": 4224,
      "Ġobjectid": 4225,
      "waj": 4226,
      "quantum": 4227,
      "Ġsyslog": 4228,
      "Ġmouse": 4229,
      "Ġpehdr": 4230,
      "httptx": 4231,
      "attributes": 4232,
      "Ġdenoiser": 4233,
      "Ġvector": 4234,
      "59": 4235,
      "bm": 4236,
      "fy": 4237,
      "tage": 4238,
      "tile": 4239,
      "âĢ": 4240,
      "Ġsched": 4241,
      "Ġcv": 4242,
      "Ġbro": 4243,
      "peer": 4244,
      "tom": 4245,
      "Ġink": 4246,
      "Ġdecomp": 4247,
      "strap": 4248,
      "andidate": 4249,
      "ots": 4250,
      "math": 4251,
      "Ġtoulength": 4252,
      "Ġoptarg": 4253,
      "Ġffmax": 4254,
      "Ġlastconverterindex": 4255,
      "Ġentries": 4256,
      "Ġioc": 4257,
      "Ġconnect": 4258,
      "usted": 4259,
      "Ġcreated": 4260,
      "Ġntr": 4261,
      "warnings": 4262,
      "Ġspatial": 4263,
      "ntohs": 4264,
      "Ġ^=": 4265,
      "Ġsadmxnxk": 4266,
      "audit": 4267,
      "bsize": 4268,
      "dsp": 4269,
      "oa": 4270,
      "snprintf": 4271,
      "yuv": 4272,
      "remote": 4273,
      "Ġswap": 4274,
      "Ġman": 4275,
      "Ġufmt": 4276,
      "sio": 4277,
      "Ġprogress": 4278,
      "Ġ','": 4279,
      "Ġreslen": 4280,
      "freep": 4281,
      "Ġdiameter": 4282,
      "Ġmaxlen": 4283,
      "Ġrecv": 4284,
      "Ġalign": 4285,
      "Ġvardata": 4286,
      "ponent": 4287,
      "users": 4288,
      "Ġnoerr": 4289,
      "packed": 4290,
      "Ġcolorspace": 4291,
      "cookies": 4292,
      "Ġany": 4293,
      "Ġpchg": 4294,
      "Ġgamma": 4295,
      "/%": 4296,
      "aead": 4297,
      "cit": 4298,
      "ich": 4299,
      "qs": 4300,
      "rro": 4301,
      "wide": 4302,
      "wcs": 4303,
      "Ġct": 4304,
      "lection": 4305,
      "secret": 4306,
      "Ġpitem": 4307,
      "ination": 4308,
      "decoding": 4309,
      "decay": 4310,
      "Ġbh": 4311,
      "Ġbx": 4312,
      "alive": 4313,
      "Ġdy": 4314,
      "Ġdma": 4315,
      "Ġdxy": 4316,
      "Ġday": 4317,
      "urb": 4318,
      "Ġrfc": 4319,
      "foot": 4320,
      "Ġstri": 4321,
      "abic": 4322,
      "appro": 4323,
      "trash": 4324,
      "Ġheap": 4325,
      "Ġtshttp": 4326,
      "inition": 4327,
      "Ġcomposite": 4328,
      "Ġclut": 4329,
      "Ġabfd": 4330,
      "unique": 4331,
      "Ġmonth": 4332,
      "neg": 4333,
      "fety": 4334,
      "Ġgrr": 4335,
      "Ġrealpath": 4336,
      "Ġextradata": 4337,
      "Ġsadb": 4338,
      "vtalt": 4339,
      "Ġllstr": 4340,
      "plication": 4341,
      "Ġcmptno": 4342,
      "Ġvirjsonvalueobjectget": 4343,
      "citation": 4344,
      "42": 4345,
      "]\\": 4346,
      "break": 4347,
      "bil": 4348,
      "ds": 4349,
      "dtls": 4350,
      "dtap": 4351,
      "fro": 4352,
      "ha": 4353,
      "xhci": 4354,
      "yk": 4355,
      "rex": 4356,
      "Ġce": 4357,
      "Ġcrc": 4358,
      "desktop": 4359,
      "allen": 4360,
      "Ġgenc": 4361,
      "Ġoc": 4362,
      "idden": 4363,
      "util": 4364,
      "tofix": 4365,
      "Ġstrcpy": 4366,
      "Ġden": 4367,
      "typehandler": 4368,
      "apsh": 4369,
      "raise": 4370,
      "captured": 4371,
      "istate": 4372,
      "Ġmaximum": 4373,
      "Ġpredictor": 4374,
      "Ġsetpixel": 4375,
      "varint": 4376,
      "lvls": 4377,
      "Ġarchivehandle": 4378,
      "Ġgtkui": 4379,
      "ways": 4380,
      "Ġaccount": 4381,
      "Ġctrl": 4382,
      "Ġdescript": 4383,
      "converted": 4384,
      "self": 4385,
      "extract": 4386,
      "Ġclamp": 4387,
      "custo": 4388,
      "magick": 4389,
      "Ġhierarch": 4390,
      "Ġalgorithm": 4391,
      "footer": 4392,
      "allenge": 4393,
      "ak": 4394,
      "eq": 4395,
      "equal": 4396,
      "fre": 4397,
      "rp": 4398,
      "schema": 4399,
      "vl": 4400,
      "Ġirc": 4401,
      "Ġslen": 4402,
      "setg": 4403,
      "Ġrm": 4404,
      "Ġavformat": 4405,
      "Ġqcow": 4406,
      "ips": 4407,
      "term": 4408,
      "ensure": 4409,
      "Ġmemmove": 4410,
      "expn": 4411,
      "datetime": 4412,
      "small": 4413,
      "custodi": 4414,
      "):": 4415,
      ",\"": 4416,
      "200": 4417,
      "><": 4418,
      "\\'": 4419,
      "elem": 4420,
      "elems": 4421,
      "kernel": 4422,
      "ome": 4423,
      "pcm": 4424,
      "xb": 4425,
      "xpr": 4426,
      "reinterpret": 4427,
      "Ġcch": 4428,
      "stick": 4429,
      "Ġmlu": 4430,
      "Ġrev": 4431,
      "archive": 4432,
      "alias": 4433,
      "memb": 4434,
      "itelist": 4435,
      "Ġvreinterpret": 4436,
      "ropy": 4437,
      "Ġcoap": 4438,
      "ueue": 4439,
      "Ġavpriv": 4440,
      "Ġinc": 4441,
      "Ġprom": 4442,
      "Ġqueue": 4443,
      "Ġexponent": 4444,
      "dialog": 4445,
      "cause": 4446,
      "pol": 4447,
      "pow": 4448,
      "Ġprincipal": 4449,
      "Ġmaxp": 4450,
      "Ġwhich": 4451,
      "Ġencoded": 4452,
      "tended": 4453,
      "tvdp": 4454,
      "Ġdatetime": 4455,
      "Ġcause": 4456,
      "Ġxmlxpath": 4457,
      "Ġunique": 4458,
      "hashtable": 4459,
      "Ġpqget": 4460,
      "ntoh": 4461,
      "Ġfinish": 4462,
      "quire": 4463,
      "Ġnsv": 4464,
      "initialized": 4465,
      "Ġphase": 4466,
      "Ġllbuff": 4467,
      "Ġassuan": 4468,
      "Ġutf": 4469,
      "Ġadjustment": 4470,
      "custodian": 4471,
      "27": 4472,
      "ach": 4473,
      "brev": 4474,
      "ecore": 4475,
      "gid": 4476,
      "horiz": 4477,
      "kex": 4478,
      "kind": 4479,
      "pat": 4480,
      "pcp": 4481,
      "leep": 4482,
      "lector": 4483,
      "Ġgn": 4484,
      "peat": 4485,
      "utable": 4486,
      "Ġrle": 4487,
      "trigger": 4488,
      "Ġkqueue": 4489,
      "cant": 4490,
      "hen": 4491,
      "strings": 4492,
      "interp": 4493,
      "Ġ/=": 4494,
      "Ġquote": 4495,
      "Ġ127": 4496,
      "Ġcmsunused": 4497,
      "Ġ\"\\\\": 4498,
      "network": 4499,
      "literal": 4500,
      "Ġrdmult": 4501,
      "quantize": 4502,
      "ification": 4503,
      "Ġdocument": 4504,
      "atalog": 4505,
      "threshold": 4506,
      "description": 4507,
      "Ġreplacement": 4508,
      "Ġplanes": 4509,
      "dbltofix": 4510,
      "consumed": 4511,
      "Ġcookie": 4512,
      "Ġgencp": 4513,
      "!\\": 4514,
      ":'": 4515,
      "ous": 4516,
      "score": 4517,
      "uate": 4518,
      "Ġonly": 4519,
      "reph": 4520,
      "erpc": 4521,
      "Ġpir": 4522,
      "Ġplist": 4523,
      "Ġfcb": 4524,
      "Ġbil": 4525,
      "Ġnbytes": 4526,
      "thr": 4527,
      "strlen": 4528,
      "pright": 4529,
      "rac": 4530,
      "Ġ'-": 4531,
      "Ġ':'": 4532,
      "inear": 4533,
      "Ġpri": 4534,
      "listener": 4535,
      "compressed": 4536,
      "Ġoptlist": 4537,
      "validate": 4538,
      "Ġargi": 4539,
      "Ġscratch": 4540,
      "Ġmissing": 4541,
      "Ġfirstpass": 4542,
      "Ġsections": 4543,
      "Ġtraf": 4544,
      "centry": 4545,
      "vider": 4546,
      "Ġlsps": 4547,
      "resources": 4548,
      "temporal": 4549,
      "ebp": 4550,
      "schroframe": 4551,
      "Ġntohs": 4552,
      "Ġbilinear": 4553,
      "droid": 4554,
      "luma": 4555,
      "reorder": 4556,
      "style": 4557,
      "Ġfnc": 4558,
      "alpha": 4559,
      "Ġguest": 4560,
      "lots": 4561,
      "Ġhalf": 4562,
      "etype": 4563,
      "Ġrandom": 4564,
      "Ġltop": 4565,
      "Ġconvd": 4566,
      "Ġxstr": 4567,
      "unit": 4568,
      "ubytes": 4569,
      "ilt": 4570,
      "Ġkq": 4571,
      "procs": 4572,
      "Ġpicomp": 4573,
      "parator": 4574,
      "Ġprefs": 4575,
      "Ġwho": 4576,
      "streaming": 4577,
      "syntax": 4578,
      "spatial": 4579,
      "recv": 4580,
      "miss": 4581,
      "offs": 4582,
      "rects": 4583,
      "Ġnautilusfile": 4584,
      "ptyp": 4585,
      "Ġtopleft": 4586,
      "Ġcurrlen": 4587,
      "safety": 4588,
      "Ġecerr": 4589,
      "Ġtransl": 4590,
      "Ġdpb": 4591,
      "pwrprof": 4592,
      "Ġinstance": 4593,
      "pubkey": 4594,
      "====": 4595,
      "tected": 4596,
      "bootstrap": 4597,
      "hcistate": 4598,
      "through": 4599,
      "area": 4600,
      "lcpy": 4601,
      "mfb": 4602,
      "xa": 4603,
      "Ġcdir": 4604,
      "Ġctm": 4605,
      "stime": 4606,
      "lead": 4607,
      "Ġfdi": 4608,
      "Ġvto": 4609,
      "Ġgray": 4610,
      "cospi": 4611,
      "intf": 4612,
      "Ġdelete": 4613,
      "bundle": 4614,
      "Ġarith": 4615,
      "putuint": 4616,
      "ressive": 4617,
      "Ġcurve": 4618,
      "Ġcursor": 4619,
      "contexts": 4620,
      "screen": 4621,
      "Ġcolon": 4622,
      "Ġthan": 4623,
      "discard": 4624,
      "Ġusername": 4625,
      "conversation": 4626,
      "funcs": 4627,
      "mix": 4628,
      "gamma": 4629,
      "Ġdbname": 4630,
      "mallocz": 4631,
      "bluetooth": 4632,
      "contents": 4633,
      "ization": 4634,
      "descriptor": 4635,
      "Ġresidue": 4636,
      "Ġistringlength": 4637,
      "Ġevaluate": 4638,
      "increment": 4639,
      "822": 4640,
      "aad": 4641,
      "aux": 4642,
      "bpdu": 4643,
      "der": 4644,
      "have": 4645,
      "iax": 4646,
      "mgr": 4647,
      "oci": 4648,
      "ohci": 4649,
      "uatype": 4650,
      "Ġiss": 4651,
      "Ġsing": 4652,
      "Ġccipher": 4653,
      "stag": 4654,
      "stroke": 4655,
      "Ġpulse": 4656,
      "Ġmerge": 4657,
      "Ġbet": 4658,
      "Ġacc": 4659,
      "Ġhv": 4660,
      "Ġhlen": 4661,
      "Ġusl": 4662,
      "Ġretv": 4663,
      "fir": 4664,
      "Ġcond": 4665,
      "Ġindent": 4666,
      "Ġprob": 4667,
      "andard": 4668,
      "android": 4669,
      "verbose": 4670,
      "ota": 4671,
      "caped": 4672,
      "Ġsecs": 4673,
      "Ġyou": 4674,
      "shaper": 4675,
      "allback": 4676,
      "symbol": 4677,
      "Ġzde": 4678,
      "ecx": 4679,
      "ible": 4680,
      "Ġserial": 4681,
      "warf": 4682,
      "Ġbsaes": 4683,
      "Ġrole": 4684,
      "pectr": 4685,
      "Ġshape": 4686,
      "Ġauthentic": 4687,
      "Ġipvideo": 4688,
      "modsecurity": 4689,
      "visible": 4690,
      "dissect": 4691,
      "Ġqemumonitorptr": 4692,
      "changes": 4693,
      "letohs": 4694,
      "Ġdigits": 4695,
      "Ġbluedroid": 4696,
      "Ġopcuatype": 4697,
      "grade": 4698,
      "orbis": 4699,
      "Ġkqueueop": 4700,
      "imat": 4701,
      "sn": 4702,
      "segs": 4703,
      "Ġtfs": 4704,
      "Ġfbuffer": 4705,
      "Ġmore": 4706,
      "Ġreinterpret": 4707,
      "Ġeb": 4708,
      "alert": 4709,
      "alts": 4710,
      "Ġastream": 4711,
      "Ġdsize": 4712,
      "Ġdwarf": 4713,
      "Ġoe": 4714,
      "Ġofs": 4715,
      "Ġhc": 4716,
      "Ġusize": 4717,
      "Ġretry": 4718,
      "cke": 4719,
      "Ġcoinfo": 4720,
      "Ġxdr": 4721,
      "Ġprop": 4722,
      "Ġkid": 4723,
      "diag": 4724,
      "Ġmbs": 4725,
      "mtime": 4726,
      "lsrc": 4727,
      "onecurve": 4728,
      "Ġzf": 4729,
      "Ġhdrheap": 4730,
      "Ġapply": 4731,
      "requests": 4732,
      "nodeid": 4733,
      "syscache": 4734,
      "services": 4735,
      "Ġmay": 4736,
      "Ġctrlsrc": 4737,
      "Ġtabdir": 4738,
      "overlap": 4739,
      "Ġhwaccel": 4740,
      "Ġspecified": 4741,
      "elements": 4742,
      "Ġassoc": 4743,
      "pipeline": 4744,
      "received": 4745,
      "opaque": 4746,
      "walker": 4747,
      "clean": 4748,
      "gstate": 4749,
      "ico": 4750,
      "want": 4751,
      "Ġitype": 4752,
      "Ġidr": 4753,
      "derex": 4754,
      "Ġfs": 4755,
      "Ġmdev": 4756,
      "Ġrequired": 4757,
      "arith": 4758,
      "ctm": 4759,
      "Ġnump": 4760,
      "Ġeslurm": 4761,
      "Ġhay": 4762,
      "again": 4763,
      "Ġlbmpdm": 4764,
      "Ġstrip": 4765,
      "Ġfifo": 4766,
      "trr": 4767,
      "now": 4768,
      "Ġarmv": 4769,
      "dime": 4770,
      "Ġmsc": 4771,
      "Ġmsys": 4772,
      "quote": 4773,
      "maptyp": 4774,
      "clone": 4775,
      "Ġtoubytes": 4776,
      "Ġlambda": 4777,
      "lsps": 4778,
      "Ġ63": 4779,
      "Ġevsignal": 4780,
      "Ġsetting": 4781,
      "Ġchecksum": 4782,
      "mlu": 4783,
      "psprintf": 4784,
      "Ġ'\\\\'": 4785,
      "Ġcpustate": 4786,
      "Ġnokey": 4787,
      "Ġnoise": 4788,
      "roll": 4789,
      "olution": 4790,
      "Ġfopen": 4791,
      "Ġoldcmpt": 4792,
      "Ġusbdev": 4793,
      "Ġtraits": 4794,
      "binlog": 4795,
      "lemented": 4796,
      "segments": 4797,
      "Ġwrk": 4798,
      "glyphs": 4799,
      "Ġvirjsonvaluefree": 4800,
      "keysalts": 4801,
      "letoh": 4802,
      "letohl": 4803,
      "Ġattribute": 4804,
      "clause": 4805,
      "history": 4806,
      "Ġmismatch": 4807,
      "Ġcodingset": 4808,
      "fallthrough": 4809,
      "Ġmsyslog": 4810,
      "bias": 4811,
      "dts": 4812,
      "hal": 4813,
      "ln": 4814,
      "lx": 4815,
      "lden": 4816,
      "vq": 4817,
      "Ġtiny": 4818,
      "Ġfallback": 4819,
      "Ġifile": 4820,
      "Ġbutton": 4821,
      "Ġdaddr": 4822,
      "lomb": 4823,
      "uting": 4824,
      "Ġavbprint": 4825,
      "readerex": 4826,
      "strto": 4827,
      "Ġbucket": 4828,
      "infolist": 4829,
      "isnull": 4830,
      "apic": 4831,
      "limb": 4832,
      "lirp": 4833,
      "Ġarabic": 4834,
      "untime": 4835,
      "die": 4836,
      "protection": 4837,
      "Ġoutptr": 4838,
      "countdown": 4839,
      "Ġgolden": 4840,
      "shutdown": 4841,
      "pref": 4842,
      "circuit": 4843,
      "Ġresults": 4844,
      "times": 4845,
      "mapping": 4846,
      "checked": 4847,
      "Ġclu": 4848,
      "decoded": 4849,
      "decodecontext": 4850,
      "backend": 4851,
      "Ġpkg": 4852,
      "Ġdcerpc": 4853,
      "Ġrecords": 4854,
      "Ġwritten": 4855,
      "Ġpfm": 4856,
      "initialize": 4857,
      "graphite": 4858,
      "Ġsqr": 4859,
      "Ġthrowreaderex": 4860,
      "Ġpqgetvalue": 4861,
      "icoffset": 4862,
      "Ġthrowreaderexception": 4863,
      "'\\": 4864,
      "iate": 4865,
      "kill": 4866,
      "lat": 4867,
      "same": 4868,
      "soft": 4869,
      "xro": 4870,
      "year": 4871,
      "reverse": 4872,
      "Ġsg": 4873,
      "Ġsprintf": 4874,
      "Ġssrc": 4875,
      "erp": 4876,
      "sence": 4877,
      "Ġfwd": 4878,
      "Ġbbox": 4879,
      "alarm": 4880,
      "Ġdprinc": 4881,
      "Ġvert": 4882,
      "Ġ\".": 4883,
      "Ġhoffset": 4884,
      "Ġulen": 4885,
      "Ġcols": 4886,
      "mpv": 4887,
      "Ġconf": 4888,
      "Ġnulls": 4889,
      "Ġstrcasecmp": 4890,
      "Ġinformation": 4891,
      "isam": 4892,
      "isofs": 4893,
      "prite": 4894,
      "Ġbufindex": 4895,
      "Ġexcitation": 4896,
      "pose": 4897,
      "numeric": 4898,
      "Ġyv": 4899,
      "clnt": 4900,
      "parm": 4901,
      "subband": 4902,
      "Ġpointer": 4903,
      "Ġzcl": 4904,
      "packetizer": 4905,
      "useq": 4906,
      "minate": 4907,
      "based": 4908,
      "Ġentity": 4909,
      "Ġsbhuff": 4910,
      "245": 4911,
      "Ġmapping": 4912,
      "author": 4913,
      "Ġsvq": 4914,
      "responses": 4915,
      "golomb": 4916,
      "brid": 4917,
      "arerror": 4918,
      "aligned": 4919,
      "Ġdatumget": 4920,
      "Ġcertificate": 4921,
      "Ġrbufp": 4922,
      "Ġreasse": 4923,
      "dbgmsg": 4924,
      "Ġpfminfo": 4925,
      "-%": 4926,
      "56": 4927,
      "70": 4928,
      "ccs": 4929,
      "dummy": 4930,
      "evtalt": 4931,
      "ging": 4932,
      "ges": 4933,
      "lua": 4934,
      "mbuffer": 4935,
      "rno": 4936,
      "sparse": 4937,
      "tcheck": 4938,
      "tell": 4939,
      "wbio": 4940,
      "Ġ\\\"": 4941,
      "Ġpim": 4942,
      "des": 4943,
      "depen": 4944,
      "Ġfps": 4945,
      "Ġbc": 4946,
      "Ġblend": 4947,
      "Ġ\"$(": 4948,
      "Ġhist": 4949,
      "ank": 4950,
      "eto": 4951,
      "Ġcoef": 4952,
      "Ġcombo": 4953,
      "Ġlag": 4954,
      "Ġws": 4955,
      "Ġxfrm": 4956,
      "Ġelf": 4957,
      "upper": 4958,
      "prim": 4959,
      "Ġunlock": 4960,
      "lav": 4961,
      "Ġoutlayer": 4962,
      "Ġtrunc": 4963,
      "Ġsrcv": 4964,
      "engine": 4965,
      "Ġcmsio": 4966,
      "Ġparameter": 4967,
      "buflen": 4968,
      "Ġtee": 4969,
      "Ġkeys": 4970,
      "character": 4971,
      "Ġpref": 4972,
      "Ġpresent": 4973,
      "Ġoptgroup": 4974,
      "Ġsyntax": 4975,
      "usec": 4976,
      "Ġfake": 4977,
      "Ġcommands": 4978,
      "licit": 4979,
      "Ġstrings": 4980,
      "Ġrfbsend": 4981,
      "Ġconversation": 4982,
      "Ġmodu": 4983,
      "extensions": 4984,
      "identify": 4985,
      "Ġamr": 4986,
      "ategy": 4987,
      "reserve": 4988,
      "cessed": 4989,
      "magic": 4990,
      "Ġdeltas": 4991,
      "Ġexecute": 4992,
      "osen": 4993,
      "Ġwarning": 4994,
      "Ġchanged": 4995,
      "dkhandle": 4996,
      "Ġusage": 4997,
      "fraction": 4998,
      "Ġzfx": 4999,
      "Ġcmsiohandler": 5000,
      "35": 5001,
      "76": 5002,
      "bla": 5003,
      "cor": 5004,
      "dt": 5005,
      "good": 5006,
      "required": 5007,
      "Ġspectr": 5008,
      "Ġslirp": 5009,
      "Ġcflags": 5010,
      "secs": 5011,
      "Ġpsubtag": 5012,
      "Ġpstype": 5013,
      "Ġtg": 5014,
      "Ġmic": 5015,
      "Ġreject": 5016,
      "Ġreorder": 5017,
      "argn": 5018,
      "Ġecode": 5019,
      "Ġare": 5020,
      "route": 5021,
      "idle": 5022,
      "Ġlerp": 5023,
      "Ġxoff": 5024,
      "pict": 5025,
      "Ġprogname": 5026,
      "note": 5027,
      "noinline": 5028,
      "poll": 5029,
      "classes": 5030,
      "rowser": 5031,
      "Ġ655": 5032,
      "more": 5033,
      "mains": 5034,
      "Ġtrack": 5035,
      "Ġsegments": 5036,
      "ramerate": 5037,
      "Ġnautilusdirectory": 5038,
      "Ġntp": 5039,
      "mismatch": 5040,
      "1305": 5041,
      "flowspec": 5042,
      "xffffff": 5043,
      "Ġsrargn": 5044,
      "dgram": 5045,
      "presentation": 5046,
      "Ġreason": 5047,
      "Ġappendpqexpbufferstr": 5048,
      "truncated": 5049,
      "passed": 5050,
      "Ġpirlvl": 5051,
      "arerrorbuffer": 5052,
      "guest": 5053,
      "ik": 5054,
      "iver": 5055,
      "madd": 5056,
      "uard": 5057,
      "Ġ`": 5058,
      "Ġsuff": 5059,
      "Ġccp": 5060,
      "Ġcfb": 5061,
      "Ġcandidate": 5062,
      "Ġplen": 5063,
      "Ġptree": 5064,
      "Ġtentry": 5065,
      "Ġmant": 5066,
      "Ġnest": 5067,
      "Ġeth": 5068,
      "iter": 5069,
      "Ġvid": 5070,
      "Ġvorbis": 5071,
      "Ġgreen": 5072,
      "Ġ\":": 5073,
      "Ġoct": 5074,
      "uth": 5075,
      "Ġrnd": 5076,
      "tokens": 5077,
      "Ġlhs": 5078,
      "Ġlarge": 5079,
      "ssn": 5080,
      "fol": 5081,
      "reasse": 5082,
      "aspect": 5083,
      "lict": 5084,
      "Ġexslt": 5085,
      "Ġkv": 5086,
      "html": 5087,
      "Ġoutl": 5088,
      "Ġgetpixel": 5089,
      "mbmi": 5090,
      "cheme": 5091,
      "Ġdialog": 5092,
      "Ġwhitelist": 5093,
      "byteu": 5094,
      "cmpts": 5095,
      "cipsafety": 5096,
      "Ġdomain": 5097,
      "packetize": 5098,
      "Ġbev": 5099,
      "Ġvariant": 5100,
      "Ġfactor": 5101,
      "suff": 5102,
      "notice": 5103,
      "Ġupd": 5104,
      "Ġivpr": 5105,
      "Ġmachine": 5106,
      "needed": 5107,
      "Ġallocated": 5108,
      "Ġcommonjob": 5109,
      "Ġmainwindows": 5110,
      "Ġpackage": 5111,
      "Ġdevicestate": 5112,
      "alignment": 5113,
      "Ġrights": 5114,
      "Ġinitialized": 5115,
      "Ġfcinfo": 5116,
      "modified": 5117,
      "Ġauditlog": 5118,
      "Ġiface": 5119,
      "Ġ'-'": 5120,
      "Ġebml": 5121,
      "Ġsuffix": 5122,
      "36": 5123,
      "[%": 5124,
      "eol": 5125,
      "hint": 5126,
      "pm": 5127,
      "sin": 5128,
      "sar": 5129,
      "sur": 5130,
      "ssize": 5131,
      "tun": 5132,
      "Ġze": 5133,
      "Ġke": 5134,
      "Ġiy": 5135,
      "Ġsscanf": 5136,
      "Ġcct": 5137,
      "ern": 5138,
      "stic": 5139,
      "stereo": 5140,
      "Ġpgs": 5141,
      "inject": 5142,
      "Ġml": 5143,
      "Ġrepeat": 5144,
      "cogn": 5145,
      "roff": 5146,
      "Ġhm": 5147,
      "Ġrpkt": 5148,
      "Ġxmalloc": 5149,
      "isvalid": 5150,
      "liet": 5151,
      "nostic": 5152,
      "Ġexe": 5153,
      "Ġklass": 5154,
      "fake": 5155,
      "mbly": 5156,
      "Ġmspel": 5157,
      "matched": 5158,
      "bufs": 5159,
      "quency": 5160,
      "mant": 5161,
      "ioctl": 5162,
      "clic": 5163,
      "amicoffset": 5164,
      "Ġtmpbuf": 5165,
      "registr": 5166,
      "Ġoutputbytes": 5167,
      "cfb": 5168,
      "decimal": 5169,
      "minus": 5170,
      "Ġreading": 5171,
      "tspec": 5172,
      "Ġxmllist": 5173,
      "Ġlosc": 5174,
      "alty": 5175,
      "hostname": 5176,
      "ness": 5177,
      "support": 5178,
      "Ġwrong": 5179,
      "Ġcompactcontext": 5180,
      "vectors": 5181,
      "identity": 5182,
      "marker": 5183,
      "Ġalljoyn": 5184,
      "Ġcalled": 5185,
      "Ġpchip": 5186,
      "Ġcaps": 5187,
      "compressor": 5188,
      "srvr": 5189,
      "Ġspecifics": 5190,
      "Ġnmvsad": 5191,
      "Ġoperand": 5192,
      "Ġowner": 5193,
      "Ġbmvtype": 5194,
      "httptxnc": 5195,
      "Ġmanager": 5196,
      "Ġavformatcontext": 5197,
      "cantable": 5198,
      "dimensions": 5199,
      "cy": 5200,
      "catalog": 5201,
      "sprintf": 5202,
      "salt": 5203,
      "Ġcstate": 5204,
      "inode": 5205,
      "Ġtctx": 5206,
      "Ġflist": 5207,
      "Ġbg": 5208,
      "Ġbot": 5209,
      "Ġvf": 5210,
      "Ġgfi": 5211,
      "Ġgld": 5212,
      "Ġusing": 5213,
      "ication": 5214,
      "Ġrconv": 5215,
      "exchange": 5216,
      "exception": 5217,
      "foreach": 5218,
      "Ġinp": 5219,
      "Ġxcf": 5220,
      "assign": 5221,
      "locks": 5222,
      "concat": 5223,
      "00000": 5224,
      "lambda": 5225,
      "Ġkex": 5226,
      "cavs": 5227,
      "framebuffer": 5228,
      "poc": 5229,
      "Ġkeyring": 5230,
      "alljoyn": 5231,
      "Ġtoc": 5232,
      "submit": 5233,
      "Ġlafe": 5234,
      "Ġoptgrp": 5235,
      "Ġzret": 5236,
      "Ġzisofs": 5237,
      "rib": 5238,
      "spu": 5239,
      "formadd": 5240,
      "Ġclump": 5241,
      "sol": 5242,
      "Ġinterval": 5243,
      "duplicate": 5244,
      "wah": 5245,
      "Ġrds": 5246,
      "highbit": 5247,
      "Ġvirti": 5248,
      "xffffffff": 5249,
      "swap": 5250,
      "public": 5251,
      "ebx": 5252,
      "assoc": 5253,
      "Ġcchip": 5254,
      "Ġmodulename": 5255,
      "Ġoptgrpconverter": 5256,
      "=\\\"": 5257,
      "button": 5258,
      "fu": 5259,
      "flist": 5260,
      "gpg": 5261,
      "hv": 5262,
      "hints": 5263,
      "kf": 5264,
      "nbits": 5265,
      "runtime": 5266,
      "uous": 5267,
      "recode": 5268,
      "Ġsaddr": 5269,
      "standard": 5270,
      "Ġpng": 5271,
      "Ġtlen": 5272,
      "Ġnread": 5273,
      "aged": 5274,
      "ues": 5275,
      "Ġchosen": 5276,
      "Ġwma": 5277,
      "Ġ200": 5278,
      "iscontain": 5279,
      "framesize": 5280,
      "Ġresv": 5281,
      "probe": 5282,
      "Ġseed": 5283,
      "Ġtrg": 5284,
      "Ġkeyinfo": 5285,
      "Ġrefs": 5286,
      "Ġpoly": 5287,
      "Ġbasename": 5288,
      "Ġbaseoffset": 5289,
      "Ġevdns": 5290,
      "Ġcounter": 5291,
      "phys": 5292,
      "configuration": 5293,
      "Ġentropy": 5294,
      "udyn": 5295,
      "Ġcmsbool": 5296,
      "Ġxmlhash": 5297,
      "Ġloca": 5298,
      "limited": 5299,
      "skipped": 5300,
      "threads": 5301,
      "canon": 5302,
      "covery": 5303,
      "outputs": 5304,
      "Ġappendascii": 5305,
      "Ġbackend": 5306,
      "striction": 5307,
      "Ġsrp": 5308,
      "Ġlpcs": 5309,
      "Ġneeds": 5310,
      "285": 5311,
      "Ġreadbloblong": 5312,
      "multiple": 5313,
      "Ġubik": 5314,
      "Ġlocaleconverterindex": 5315,
      "Ġactivation": 5316,
      "Ġtailq": 5317,
      "extend": 5318,
      "Ġboost": 5319,
      "Ġprompt": 5320,
      "Ġzend": 5321,
      "iscontained": 5322,
      "dx": 5323,
      "gle": 5324,
      "hy": 5325,
      "oke": 5326,
      "sq": 5327,
      "ergy": 5328,
      "Ġpnode": 5329,
      "Ġtid": 5330,
      "Ġtup": 5331,
      "Ġtuple": 5332,
      "Ġfam": 5333,
      "Ġfputs": 5334,
      "Ġmvp": 5335,
      "Ġmchannel": 5336,
      "oring": 5337,
      "Ġbnd": 5338,
      "Ġbrowser": 5339,
      "Ġeac": 5340,
      "Ġaw": 5341,
      "Ġack": 5342,
      "Ġans": 5343,
      "Ġda": 5344,
      "Ġvq": 5345,
      "Ġ\"'": 5346,
      "admin": 5347,
      "tounicode": 5348,
      "Ġavpalette": 5349,
      "ceil": 5350,
      "stra": 5351,
      "Ġqmode": 5352,
      "using": 5353,
      "ptrs": 5354,
      "bitstream": 5355,
      "resolution": 5356,
      "ally": 5357,
      "Ġtos": 5358,
      "Ġtsrm": 5359,
      "Ġenergy": 5360,
      "Ġsksec": 5361,
      "Ġzs": 5362,
      "definition": 5363,
      "Ġscal": 5364,
      "vmc": 5365,
      "Ġali": 5366,
      "hdrimpl": 5367,
      "minq": 5368,
      "Ġslcf": 5369,
      "processing": 5370,
      "activ": 5371,
      "Ġfast": 5372,
      "Ġuses": 5373,
      "Ġsdx": 5374,
      "\\\"\\": 5375,
      "Ġcmspipeline": 5376,
      "shared": 5377,
      "descr": 5378,
      "estack": 5379,
      "Ġdecrypt": 5380,
      "wrong": 5381,
      "modular": 5382,
      "sext": 5383,
      "Ġcontenttype": 5384,
      "Ġcoeffs": 5385,
      "Ġqemumonit": 5386,
      "Ġclosesocket": 5387,
      "llable": 5388,
      "ticket": 5389,
      "Ġlmbcsconversion": 5390,
      "Ġvalidate": 5391,
      "schedule": 5392,
      "Ġresidual": 5393,
      "Ġchanges": 5394,
      "Ġprogressive": 5395,
      "abilities": 5396,
      "approval": 5397,
      "apshot": 5398,
      "Ġsingle": 5399,
      "Ġlmbcsconversionworker": 5400,
      "api": 5401,
      "bw": 5402,
      "bal": 5403,
      "ee": 5404,
      "guid": 5405,
      "hop": 5406,
      "hard": 5407,
      "ims": 5408,
      "kke": 5409,
      "mx": 5410,
      "ove": 5411,
      "Ġur": 5412,
      "sen": 5413,
      "ater": 5414,
      "Ġ*/": 5415,
      "information": 5416,
      "Ġtick": 5417,
      "dequant": 5418,
      "Ġmnt": 5419,
      "Ġmmem": 5420,
      "Ġmpc": 5421,
      "Ġmchunk": 5422,
      "ordered": 5423,
      "Ġnuv": 5424,
      "metr": 5425,
      "Ġdh": 5426,
      "Ġdigest": 5427,
      "Ġrsa": 5428,
      "Ġlm": 5429,
      "edx": 5430,
      "throw": 5431,
      "umbn": 5432,
      "strlcpy": 5433,
      "pick": 5434,
      "ctxt": 5435,
      "ising": 5436,
      "keyblock": 5437,
      "Ġmytarget": 5438,
      "pau": 5439,
      "Ġoutbuf": 5440,
      "Ġnumbytes": 5441,
      "offsets": 5442,
      "parallel": 5443,
      "Ġtscont": 5444,
      "Ġtspec": 5445,
      "Ġsubfont": 5446,
      "lsf": 5447,
      "intern": 5448,
      "Ġstarting": 5449,
      "ftone": 5450,
      "Ġcurrentoffset": 5451,
      "Ġcompletion": 5452,
      "Ġcomponents": 5453,
      "phase": 5454,
      "sbr": 5455,
      "Ġswitchable": 5456,
      "Ġupcoming": 5457,
      "trait": 5458,
      "Ġregistr": 5459,
      "Ġlokke": 5460,
      "sender": 5461,
      "estimat": 5462,
      "Ġdctblock": 5463,
      "Ġcolormap": 5464,
      "Ġpartial": 5465,
      "Ġcallid": 5466,
      "Ġbios": 5467,
      "boxed": 5468,
      "Ġtccp": 5469,
      "Ġerroff": 5470,
      "joint": 5471,
      "energy": 5472,
      "Ġdistortion": 5473,
      "Ġphp": 5474,
      "poolss": 5475,
      "finalize": 5476,
      "Ġjoin": 5477,
      "supervised": 5478,
      "Ġpopulate": 5479,
      "Ġuvmy": 5480,
      "Ġusbdevfs": 5481,
      "preference": 5482,
      "httptxnclient": 5483,
      "highbitdepth": 5484,
      "Ġtsrmls": 5485,
      "umbnail": 5486,
      "Ġregistry": 5487,
      ".*": 5488,
      "ccm": 5489,
      "rlvls": 5490,
      "slist": 5491,
      "uer": 5492,
      "voice": 5493,
      "attem": 5494,
      "Ġfpos": 5495,
      "ito": 5496,
      "Ġdt": 5497,
      "Ġdav": 5498,
      "Ġvol": 5499,
      "come": 5500,
      "idump": 5501,
      "Ġucm": 5502,
      "etag": 5503,
      "setzero": 5504,
      "tok": 5505,
      "Ġlst": 5506,
      "reached": 5507,
      "Ġinl": 5508,
      "Ġside": 5509,
      "asprintf": 5510,
      "Ġqinfo": 5511,
      "noop": 5512,
      "Ġunion": 5513,
      "processed": 5514,
      "filesystem": 5515,
      "Ġseid": 5516,
      "Ġyi": 5517,
      "statem": 5518,
      "imate": 5519,
      "charto": 5520,
      "Ġadapt": 5521,
      "bytemode": 5522,
      "interlaced": 5523,
      "mvs": 5524,
      "linear": 5525,
      "Ġcollection": 5526,
      "Ġevutil": 5527,
      "moved": 5528,
      "deccontext": 5529,
      "Ġputs": 5530,
      "Ġrddiv": 5531,
      "Ġpcnt": 5532,
      "need": 5533,
      "fetched": 5534,
      "help": 5535,
      "Ġpfkey": 5536,
      "relative": 5537,
      "bios": 5538,
      "Ġchildren": 5539,
      "Ġmultip": 5540,
      "denoising": 5541,
      "Ġitlq": 5542,
      "breakout": 5543,
      "Ġfamily": 5544,
      "':": 5545,
      "*!": 5546,
      "78": 5547,
      "aout": 5548,
      "aded": 5549,
      "cw": 5550,
      "floor": 5551,
      "guard": 5552,
      "lcl": 5553,
      "merge": 5554,
      "ored": 5555,
      "rsl": 5556,
      "wb": 5557,
      "Ġrom": 5558,
      "Ġkeep": 5559,
      "Ġslave": 5560,
      "Ġcx": 5561,
      "Ġclock": 5562,
      "sting": 5563,
      "Ġpvfs": 5564,
      "Ġpager": 5565,
      "delimiter": 5566,
      "Ġmany": 5567,
      "Ġrest": 5568,
      "mean": 5569,
      "Ġdv": 5570,
      "Ġvo": 5571,
      "Ġgl": 5572,
      "Ġosp": 5573,
      "Ġhstep": 5574,
      "idc": 5575,
      "tos": 5576,
      "Ġxstrdup": 5577,
      "above": 5578,
      "unset": 5579,
      "unlikely": 5580,
      "Ġmytest": 5581,
      "iguous": 5582,
      "launch": 5583,
      "cach": 5584,
      "hton": 5585,
      "Ġisf": 5586,
      "istic": 5587,
      "Ġsecret": 5588,
      "bufp": 5589,
      "readint": 5590,
      "ioc": 5591,
      "Ġprep": 5592,
      "component": 5593,
      "Ġsubhead": 5594,
      "maximum": 5595,
      "Ġ50": 5596,
      "Ġhttpcode": 5597,
      "Ġhttppost": 5598,
      "Ġquoted": 5599,
      "Ġsets": 5600,
      "Ġalert": 5601,
      "penalty": 5602,
      "Ġclone": 5603,
      "Ġinternal": 5604,
      "scaled": 5605,
      "Ġobjects": 5606,
      "Ġpasswd": 5607,
      "Ġgrid": 5608,
      "chunked": 5609,
      "Ġseconds": 5610,
      "Ġavailable": 5611,
      "Ġsads": 5612,
      "Ġphys": 5613,
      "Ġmmr": 5614,
      "Ġimplicit": 5615,
      "Ġafter": 5616,
      "Ġboundary": 5617,
      "Ġstrtol": 5618,
      "ssimg": 5619,
      "scalar": 5620,
      "frequency": 5621,
      "Ġtgq": 5622,
      "follow": 5623,
      "Ġexece": 5624,
      "bk": 5625,
      "dbus": 5626,
      "lush": 5627,
      "nick": 5628,
      "ope": 5629,
      "rss": 5630,
      "where": 5631,
      "recogn": 5632,
      "Ġsce": 5633,
      "Ġpv": 5634,
      "Ġttl": 5635,
      "Ġfwidth": 5636,
      "Ġnargs": 5637,
      "Ġagain": 5638,
      "ited": 5639,
      "Ġdot": 5640,
      "Ġvis": 5641,
      "Ġhh": 5642,
      "Ġhhead": 5643,
      "intr": 5644,
      "Ġrstring": 5645,
      "Ġrhs": 5646,
      "Ġchallenge": 5647,
      "Ġinfile": 5648,
      "Ġinclude": 5649,
      "strategy": 5650,
      "Ġsimple": 5651,
      "Ġcharacter": 5652,
      "getnext": 5653,
      "Ġvalign": 5654,
      "Ġkern": 5655,
      "prog": 5656,
      "istics": 5657,
      "Ġdiag": 5658,
      "Ġtocentry": 5659,
      "Ġzstream": 5660,
      "Ġsystick": 5661,
      "Ġcompare": 5662,
      "Ġdestination": 5663,
      "disposition": 5664,
      "eresting": 5665,
      "rolled": 5666,
      "Ġversions": 5667,
      "levels": 5668,
      "Ġactual": 5669,
      "records": 5670,
      "multi": 5671,
      "imitive": 5672,
      "Ġscalecharto": 5673,
      "Ġrfbclient": 5674,
      "application": 5675,
      "Ġwants": 5676,
      "Ġoverflow": 5677,
      "container": 5678,
      "Ġwarn": 5679,
      "Ġcalculate": 5680,
      "Ġduplicate": 5681,
      "Ġuvmx": 5682,
      "nested": 5683,
      "Ġhaystack": 5684,
      "registrar": 5685,
      "gpgme": 5686,
      "Ġscalechartoquantum": 5687,
      "('": 5688,
      "ale": 5689,
      "aset": 5690,
      "bar": 5691,
      "corrupt": 5692,
      "dsa": 5693,
      "dtor": 5694,
      "ged": 5695,
      "grow": 5696,
      "gol": 5697,
      "home": 5698,
      "nan": 5699,
      "tc": 5700,
      "tsc": 5701,
      "ws": 5702,
      "ww": 5703,
      "Ġ@": 5704,
      "Ġcctx": 5705,
      "erred": 5706,
      "lebytemode": 5707,
      "Ġppos": 5708,
      "Ġpletoh": 5709,
      "Ġta": 5710,
      "Ġfop": 5711,
      "org": 5712,
      "arter": 5713,
      "Ġnss": 5714,
      "Ġapi": 5715,
      "Ġacoder": 5716,
      "Ġdmin": 5717,
      "Ġvout": 5718,
      "Ġvbranch": 5719,
      "Ġglob": 5720,
      "losure": 5721,
      "Ġoob": 5722,
      "Ġhbox": 5723,
      "anule": 5724,
      "Ġinteger": 5725,
      "chg": 5726,
      "export": 5727,
      "Ġcharerrorbuffer": 5728,
      "Ġdes": 5729,
      "Ġdeep": 5730,
      "Ġxor": 5731,
      "pio": 5732,
      "sized": 5733,
      "codebook": 5734,
      "Ġoutfile": 5735,
      "Ġuintptr": 5736,
      "Ġ36": 5737,
      "resolve": 5738,
      "serial": 5739,
      "Ġseparator": 5740,
      "Ġvaluelen": 5741,
      "Ġkeywords": 5742,
      "pluseq": 5743,
      "coll": 5744,
      "collation": 5745,
      "predict": 5746,
      "Ġfilepath": 5747,
      "acy": 5748,
      "tablespace": 5749,
      "Ġsubmit": 5750,
      "refs": 5751,
      "syn": 5752,
      "ports": 5753,
      "regex": 5754,
      "Ġcompressed": 5755,
      "0001": 5756,
      "disabled": 5757,
      "Ġtimelib": 5758,
      "Ġnote": 5759,
      "celp": 5760,
      "Ġcmsmlu": 5761,
      "Ġputlong": 5762,
      "Ġqemuagent": 5763,
      "Ġdecnumber": 5764,
      "defaults": 5765,
      "generated": 5766,
      "Ġencodingmask": 5767,
      "Ġtextview": 5768,
      "Ġacquire": 5769,
      "Ġepid": 5770,
      "rtc": 5771,
      "conflict": 5772,
      "Ġbacksize": 5773,
      "quires": 5774,
      "ssinglebytemode": 5775,
      "seconds": 5776,
      "Ġcapacity": 5777,
      "curves": 5778,
      "Ġcmptparm": 5779,
      "Ġsuperblock": 5780,
      "Ġtokbuf": 5781,
      "Ġnlm": 5782,
      "Ġptvcursor": 5783,
      "stages": 5784,
      "Ġflowspec": 5785,
      "settings": 5786,
      "Ġstrict": 5787,
      "Ġceil": 5788,
      "Ġtranslation": 5789,
      "ociation": 5790,
      "latin": 5791,
      "amicoffsets": 5792,
      "udynamicoffsets": 5793,
      "getnextuchar": 5794,
      "golden": 5795,
      "5285": 5796,
      "800": 5797,
      "802": 5798,
      "cff": 5799,
      "hor": 5800,
      "kwaj": 5801,
      "ound": 5802,
      "olv": 5803,
      "rand": 5804,
      "scheme": 5805,
      "xfer": 5806,
      "yze": 5807,
      "zone": 5808,
      "Ġsbuffer": 5809,
      "Ġscope": 5810,
      "Ġcq": 5811,
      "Ġcust": 5812,
      "Ġcategory": 5813,
      "Ġpbuf": 5814,
      "Ġtun": 5815,
      "Ġmst": 5816,
      "Ġmsix": 5817,
      "Ġreph": 5818,
      "Ġelog": 5819,
      "Ġvio": 5820,
      "Ġgit": 5821,
      "Ġgerror": 5822,
      "Ġgfp": 5823,
      "Ġhfi": 5824,
      "idt": 5825,
      "ulses": 5826,
      "exc": 5827,
      "exch": 5828,
      "exact": 5829,
      "Ġchat": 5830,
      "Ġavc": 5831,
      "foo": 5832,
      "Ġwmv": 5833,
      "Ġworst": 5834,
      "Ġwhen": 5835,
      "Ġinbuf": 5836,
      "undef": 5837,
      "apply": 5838,
      "Ġforward": 5839,
      "ignore": 5840,
      "noise": 5841,
      "Ġ'='": 5842,
      "Ġextended": 5843,
      "Ġmba": 5844,
      "Ġresync": 5845,
      "iron": 5846,
      "Ġprpl": 5847,
      "Ġcodes": 5848,
      "answer": 5849,
      "may": 5850,
      "mail": 5851,
      "Ġdiscard": 5852,
      "cmyk": 5853,
      "Ġfflush": 5854,
      "Ġbitrate": 5855,
      "Ġlinear": 5856,
      "Ġtaglen": 5857,
      "erevent": 5858,
      "Ġopno": 5859,
      "Ġmimefield": 5860,
      "Ġbytesconverted": 5861,
      "Ġgsm": 5862,
      "altinfo": 5863,
      "specific": 5864,
      "Ġview": 5865,
      "Ġpubkeys": 5866,
      "Ġspx": 5867,
      "connected": 5868,
      "Ġlowch": 5869,
      "Ġmagickreal": 5870,
      "261": 5871,
      "dentry": 5872,
      "Ġhighch": 5873,
      "deltas": 5874,
      "Ġbak": 5875,
      "Ġelements": 5876,
      "Ġdenoise": 5877,
      "lexpr": 5878,
      "Ġdxva": 5879,
      "modify": 5880,
      "opacity": 5881,
      "Ġcyclic": 5882,
      "Ġobjectidgetdatum": 5883,
      "Ġbeta": 5884,
      "halftone": 5885,
      "nosticinfo": 5886,
      "Ġwmavoice": 5887,
      "Ġcustom": 5888,
      "Ġmagickrealtype": 5889,
      "ahead": 5890,
      "dn": 5891,
      "dot": 5892,
      "ground": 5893,
      "iet": 5894,
      "kb": 5895,
      "lt": 5896,
      "mr": 5897,
      "mpe": 5898,
      "qemu": 5899,
      "qmfb": 5900,
      "rmd": 5901,
      "switch": 5902,
      "sprite": 5903,
      "wl": 5904,
      "Ġsur": 5905,
      "Ġsalt": 5906,
      "Ġsoft": 5907,
      "sens": 5908,
      "Ġpext": 5909,
      "incoming": 5910,
      "Ġfptr": 5911,
      "Ġfcache": 5912,
      "Ġfatal": 5913,
      "Ġmut": 5914,
      "Ġbcount": 5915,
      "aries": 5916,
      "Ġaad": 5917,
      "Ġvnd": 5918,
      "Ġhour": 5919,
      "Ġhook": 5920,
      "anced": 5921,
      "siz": 5922,
      "Ġreturned": 5923,
      "ptup": 5924,
      "Ġri": 5925,
      "Ġly": 5926,
      "elf": 5927,
      "cons": 5928,
      "Ġunpacked": 5929,
      "Ġreser": 5930,
      "prod": 5931,
      "Ġyoff": 5932,
      "Ġdiction": 5933,
      "gest": 5934,
      "Ġdisabled": 5935,
      "Ġcpux": 5936,
      "Ġvirasprintf": 5937,
      "Ġcomps": 5938,
      "Ġtxcfg": 5939,
      "created": 5940,
      "sole": 5941,
      "fdct": 5942,
      "101": 5943,
      "fmts": 5944,
      "hosts": 5945,
      "systems": 5946,
      "Ġinvalidoid": 5947,
      "Ġbsizes": 5948,
      "Ġsecclass": 5949,
      "Ġbackbytes": 5950,
      "Ġeobs": 5951,
      "fragments": 5952,
      "Ġwrapper": 5953,
      "nlm": 5954,
      "Ġqiochannel": 5955,
      "mediate": 5956,
      "Ġbignum": 5957,
      "exists": 5958,
      "stdout": 5959,
      "ddy": 5960,
      "strncat": 5961,
      "Ġterminate": 5962,
      "bottom": 5963,
      "Ġmrk": 5964,
      "Ġcseqmet": 5965,
      "magickmemory": 5966,
      "Ġwhitelistcookies": 5967,
      "framebufferupdate": 5968,
      "ribly": 5969,
      "canonical": 5970,
      "hybrid": 5971,
      "horribly": 5972,
      "10000": 5973,
      "422": 5974,
      ">%": 5975,
      "bid": 5976,
      "crypt": 5977,
      "ev": 5978,
      "eno": 5979,
      "kick": 5980,
      "lp": 5981,
      "ont": 5982,
      "pchg": 5983,
      "tli": 5984,
      "xt": 5985,
      "Ġia": 5986,
      "Ġicc": 5987,
      "rection": 5988,
      "Ġsnoop": 5989,
      "Ġpstate": 5990,
      "Ġptransform": 5991,
      "Ġtap": 5992,
      "Ġmdb": 5993,
      "Ġrerr": 5994,
      "Ġbk": 5995,
      "ctime": 5996,
      "Ġesp": 5997,
      "Ġanum": 5998,
      "Ġdim": 5999,
      "Ġhp": 6000,
      "Ġhad": 6001,
      "Ġhdata": 6002,
      "adb": 6003,
      "utput": 6004,
      "Ġinf": 6005,
      "Ġini": 6006,
      "Ġinstr": 6007,
      "Ġinvert": 6008,
      "Ġdecoding": 6009,
      "asy": 6010,
      "Ġoffsetof": 6011,
      "Ġprops": 6012,
      "Ġkb": 6013,
      "slash": 6014,
      "Ġcurle": 6015,
      "Ġsrcs": 6016,
      "Ġsrcu": 6017,
      "enctype": 6018,
      "indices": 6019,
      "Ġkeyblock": 6020,
      "eph": 6021,
      "Ġmember": 6022,
      "cmx": 6023,
      "subset": 6024,
      "subject": 6025,
      "Ġsubpel": 6026,
      "Ġpoc": 6027,
      "filt": 6028,
      "Ġinfop": 6029,
      "Ġthat": 6030,
      "Ġlastseq": 6031,
      "variables": 6032,
      "startup": 6033,
      "transport": 6034,
      "Ġdefaultcontext": 6035,
      "Ġtmd": 6036,
      "ightop": 6037,
      "Ġisofile": 6038,
      "Ġahprintf": 6039,
      "share": 6040,
      "zeroes": 6041,
      "Ġsegmentation": 6042,
      "methods": 6043,
      "Ġexpression": 6044,
      "Ġspin": 6045,
      "parency": 6046,
      "Ġsyncchange": 6047,
      "Ġstrncpy": 6048,
      "encoded": 6049,
      "Ġbygid": 6050,
      "Ġproclist": 6051,
      "changelist": 6052,
      "Ġwords": 6053,
      "Ġinitialize": 6054,
      "Ġquantumrange": 6055,
      "Ġimport": 6056,
      "444": 6057,
      "compatible": 6058,
      "Ġoctets": 6059,
      "Ġselectivity": 6060,
      "Ġhelp": 6061,
      "Ġhello": 6062,
      "Ġgeneric": 6063,
      "Ġgenerate": 6064,
      "strncmp": 6065,
      "ability": 6066,
      "Ġmodified": 6067,
      "Ġhtons": 6068,
      "Ġbrotli": 6069,
      "negative": 6070,
      "member": 6071,
      "custodianapproval": 6072,
      "depende": 6073,
      "blah": 6074,
      "Ġqemumonitort": 6075,
      "'s": 6076,
      "))\"": 6077,
      "06": 6078,
      "ast": 6079,
      "balloon": 6080,
      "ech": 6081,
      "fh": 6082,
      "hour": 6083,
      "lang": 6084,
      "mtrr": 6085,
      "vide": 6086,
      "xobject": 6087,
      "Ġsmb": 6088,
      "Ġpoffset": 6089,
      "Ġpstart": 6090,
      "orten": 6091,
      "Ġreloc": 6092,
      "arity": 6093,
      "Ġstoa": 6094,
      "itive": 6095,
      "Ġvbox": 6096,
      "loaded": 6097,
      "errc": 6098,
      "ptype": 6099,
      "Ġrq": 6100,
      "Ġrightop": 6101,
      "Ġlsu": 6102,
      "Ġlanguage": 6103,
      "Ġincre": 6104,
      "Ġdecay": 6105,
      "Ġxi": 6106,
      "unded": 6107,
      "Ġfir": 6108,
      "keysegs": 6109,
      "Ġmyisam": 6110,
      "rambled": 6111,
      "named": 6112,
      "Ġkfree": 6113,
      "resume": 6114,
      "driver": 6115,
      "cpl": 6116,
      "Ġsee": 6117,
      "Ġsequence": 6118,
      "Ġmskwaj": 6119,
      "clr": 6120,
      "account": 6121,
      "Ġprecision": 6122,
      "compute": 6123,
      "subtitle": 6124,
      "Ġsubre": 6125,
      "inite": 6126,
      "lsb": 6127,
      "Ġnewbuf": 6128,
      "Ġbaseline": 6129,
      "Ġcollation": 6130,
      "Ġsclass": 6131,
      "Ġtestbufsize": 6132,
      "mlink": 6133,
      "Ġbefore": 6134,
      "Ġaplog": 6135,
      "Ġpystate": 6136,
      "backward": 6137,
      "fds": 6138,
      "Ġcmssig": 6139,
      "fmtcat": 6140,
      "Ġabbrev": 6141,
      "Ġroq": 6142,
      "books": 6143,
      "quantizer": 6144,
      "expert": 6145,
      "hostkey": 6146,
      "objcore": 6147,
      "negot": 6148,
      "Ġallocator": 6149,
      "Ġscanner": 6150,
      "bandwidth": 6151,
      "Ġrealsource": 6152,
      "Ġdumpoffset": 6153,
      "Ġrelp": 6154,
      "Ġpacked": 6155,
      "Ġsavebytes": 6156,
      "segfeature": 6157,
      "timers": 6158,
      "secondary": 6159,
      "reasons": 6160,
      "Ġbdf": 6161,
      "Ġnmvcosts": 6162,
      "while": 6163,
      "advance": 6164,
      "Ġutil": 6165,
      "Ġjoliet": 6166,
      "torito": 6167,
      "Ġidentifier": 6168,
      "----------------": 6169,
      "dictionary": 6170,
      "Ġactivate": 6171,
      "Ġcorrupted": 6172,
      "mgmt": 6173,
      "mono": 6174,
      "Ġdescription": 6175,
      "Ġxstrfmtcat": 6176,
      "Ġnmvsadcosts": 6177,
      "solute": 6178,
      "Ġscene": 6179,
      "Ġqemumonitortext": 6180,
      "</": 6181,
      "?\"": 6182,
      "cd": 6183,
      "hidden": 6184,
      "lm": 6185,
      "pal": 6186,
      "worst": 6187,
      "xed": 6188,
      "Ġix": 6189,
      "Ġsem": 6190,
      "sto": 6191,
      "Ġpas": 6192,
      "Ġptype": 6193,
      "Ġphdr": 6194,
      "Ġtptr": 6195,
      "Ġmq": 6196,
      "Ġmal": 6197,
      "Ġbb": 6198,
      "Ġbdr": 6199,
      "Ġborder": 6200,
      "Ġbcr": 6201,
      "Ġnone": 6202,
      "Ġemp": 6203,
      "Ġewah": 6204,
      "Ġstorage": 6205,
      "Ġalen": 6206,
      "Ġarea": 6207,
      "Ġanal": 6208,
      "Ġdid": 6209,
      "Ġdig": 6210,
      "Ġvk": 6211,
      "coer": 6212,
      "adow": 6213,
      "choice": 6214,
      "icient": 6215,
      "Ġrtcp": 6216,
      "Ġlim": 6217,
      "edi": 6218,
      "elcome": 6219,
      "Ġavstream": 6220,
      "Ġwi": 6221,
      "Ġwchar": 6222,
      "Ġwould": 6223,
      "Ġstrmov": 6224,
      "Ġinimage": 6225,
      "Ġdeb": 6226,
      "Ġdeleted": 6227,
      "buddy": 6228,
      "strib": 6229,
      "Ġxpath": 6230,
      "Ġbug": 6231,
      "codepoint": 6232,
      "namelen": 6233,
      "entity": 6234,
      "cam": 6235,
      "progname": 6236,
      "Ġgetstruct": 6237,
      "ileges": 6238,
      "mbaff": 6239,
      "inder": 6240,
      "Ġmsre": 6241,
      "Ġnames": 6242,
      "collate": 6243,
      "cmstag": 6244,
      "components": 6245,
      "bevt": 6246,
      "Ġnewtvb": 6247,
      "Ġnewlut": 6248,
      "herit": 6249,
      "Ġzval": 6250,
      "Ġhttpversion": 6251,
      "Ġcompat": 6252,
      "tags": 6253,
      "actionset": 6254,
      "Ġpyerr": 6255,
      "Ġftell": 6256,
      "Ġupx": 6257,
      "Ġcmsfloat": 6258,
      "Ġextdata": 6259,
      "Ġdecdp": 6260,
      "Ġdecimal": 6261,
      "selected": 6262,
      "Ġnbd": 6263,
      "Ġgraph": 6264,
      "Ġcreator": 6265,
      "tabs": 6266,
      "Ġaviocontext": 6267,
      "Ġfailure": 6268,
      "planes": 6269,
      "Ġbackup": 6270,
      "Ġabsdiff": 6271,
      "what": 6272,
      "virtual": 6273,
      "Ġtypid": 6274,
      "aborted": 6275,
      "Ġdownmix": 6276,
      "packages": 6277,
      "voltage": 6278,
      "Ġkqop": 6279,
      "Ġsettings": 6280,
      "straint": 6281,
      "maybe": 6282,
      "Ġdictionary": 6283,
      "Ġdecdpun": 6284,
      "?'": 6285,
      "bro": 6286,
      "bulk": 6287,
      "crl": 6288,
      "mh": 6289,
      "rintf": 6290,
      "tb": 6291,
      "welcome": 6292,
      "ľ%": 6293,
      "Ġitr": 6294,
      "Ġissinglebytemode": 6295,
      "reget": 6296,
      "restrict": 6297,
      "replication": 6298,
      "Ġsctx": 6299,
      "Ġsect": 6300,
      "Ġsrec": 6301,
      "lec": 6302,
      "Ġpatch": 6303,
      "ats": 6304,
      "inct": 6305,
      "inqu": 6306,
      "include": 6307,
      "Ġtly": 6308,
      "Ġtsec": 6309,
      "Ġfg": 6310,
      "Ġfblock": 6311,
      "Ġmail": 6312,
      "Ġ[%": 6313,
      "orrect": 6314,
      "Ġrecs": 6315,
      "Ġbmi": 6316,
      "Ġbtvdp": 6317,
      "Ġnvalues": 6318,
      "always": 6319,
      "Ġstage": 6320,
      "Ġaform": 6321,
      "Ġdime": 6322,
      "Ġdcc": 6323,
      "Ġvapic": 6324,
      "Ġ\";": 6325,
      "Ġhmac": 6326,
      "Ġufile": 6327,
      "adient": 6328,
      "chk": 6329,
      "chain": 6330,
      "ptcp": 6331,
      "Ġrw": 6332,
      "toom": 6333,
      "Ġlhash": 6334,
      "excp": 6335,
      "Ġwpa": 6336,
      "Ġwill": 6337,
      "umax": 6338,
      "Ġsip": 6339,
      "pause": 6340,
      "Ġ'?'": 6341,
      "putc": 6342,
      "fac": 6343,
      "Ġ80": 6344,
      "Ġisdigit": 6345,
      "mbiguous": 6346,
      "Ġendpoint": 6347,
      "quick": 6348,
      "Ġpick": 6349,
      "Ġprediction": 6350,
      "Ġtopright": 6351,
      "Ġlef": 6352,
      "Ġlead": 6353,
      "subobjects": 6354,
      "Ġshutdown": 6355,
      "Ġmvc": 6356,
      "Ġmvsad": 6357,
      "permut": 6358,
      "Ġimap": 6359,
      "defn": 6360,
      "Ġhttpheader": 6361,
      "Ġquarter": 6362,
      "Ġquiet": 6363,
      "Ġcompno": 6364,
      "Ġpll": 6365,
      "spots": 6366,
      "Ġtimeval": 6367,
      "longlong": 6368,
      "Ġfromudynamicoffsets": 6369,
      "soon": 6370,
      "Ġgslist": 6371,
      "Ġahlog": 6372,
      "tokenonly": 6373,
      "Ġtotalp": 6374,
      "cmdline": 6375,
      "Ġquants": 6376,
      "Ġcaller": 6377,
      "reenable": 6378,
      "Ġrelinqu": 6379,
      "Ġtlx": 6380,
      "scanner": 6381,
      "Ġchunkwant": 6382,
      "Ġtsmime": 6383,
      "Ġactionset": 6384,
      "implemented": 6385,
      "rwb": 6386,
      "rwptr": 6387,
      "****": 6388,
      "Ġistringvalue": 6389,
      "Ġheaptupleisvalid": 6390,
      "calculate": 6391,
      "âĢĿ": 6392,
      "âĢľ%": 6393,
      "Ġspectrum": 6394,
      "suffix": 6395,
      "tunnel": 6396,
      "metrics": 6397,
      "Ġvisited": 6398,
      "ironment": 6399,
      "Ġsoftmask": 6400,
      "Ġincrease": 6401,
      "permutation": 6402,
      "Ġrelinquish": 6403,
      "09": 6404,
      "51": 6405,
      "bg": 6406,
      "bject": 6407,
      "batt": 6408,
      "bwd": 6409,
      "dle": 6410,
      "evp": 6411,
      "fed": 6412,
      "gate": 6413,
      "hh": 6414,
      "hcache": 6415,
      "kvm": 6416,
      "llist": 6417,
      "mloc": 6418,
      "nit": 6419,
      "saved": 6420,
      "slots": 6421,
      "ty": 6422,
      "wor": 6423,
      "ĠâĢľ%": 6424,
      "renew": 6425,
      "render": 6426,
      "Ġcg": 6427,
      "Ġcut": 6428,
      "Ġcwd": 6429,
      "Ġceph": 6430,
      "Ġpsep": 6431,
      "Ġpasses": 6432,
      "Ġfx": 6433,
      "Ġmquant": 6434,
      "Ġreordered": 6435,
      "Ġnhdr": 6436,
      "Ġstereo": 6437,
      "Ġamp": 6438,
      "Ġacache": 6439,
      "Ġgrow": 6440,
      "rogate": 6441,
      "Ġofile": 6442,
      "Ġhints": 6443,
      "Ġue": 6444,
      "Ġui": 6445,
      "Ġintval": 6446,
      "Ġld": 6447,
      "ndup": 6448,
      "Ġwp": 6449,
      "Ġprobs": 6450,
      "trusted": 6451,
      "keyframe": 6452,
      "Ġqmul": 6453,
      "Ġquest": 6454,
      "Ġkind": 6455,
      "ytest": 6456,
      "Ġouter": 6457,
      "Ġoutdev": 6458,
      "drive": 6459,
      "istream": 6460,
      "Ġkeyword": 6461,
      "Ġpiv": 6462,
      "machine": 6463,
      "mainder": 6464,
      "colgrp": 6465,
      "allocate": 6466,
      "Ġadded": 6467,
      "reflen": 6468,
      "Ġlaunch": 6469,
      "Ġscf": 6470,
      "Ġ500": 6471,
      "httpinfo": 6472,
      "Ġvirdomain": 6473,
      "starting": 6474,
      "mouse": 6475,
      "Ġaline": 6476,
      "Ġhdrs": 6477,
      "Ġhdrlen": 6478,
      "disk": 6479,
      "mlal": 6480,
      "Ġbswap": 6481,
      "Ġparsepos": 6482,
      "00000000": 6483,
      "unix": 6484,
      "Ġusbi": 6485,
      "Ġrdcost": 6486,
      "Ġttmb": 6487,
      "Ġarrayexpr": 6488,
      "Ġordered": 6489,
      "Ġseqno": 6490,
      "Ġcancel": 6491,
      "quals": 6492,
      "Ġnetwork": 6493,
      "repor": 6494,
      "unicodestatus": 6495,
      "Ġangle": 6496,
      "Ġpadr": 6497,
      "direction": 6498,
      "Ġamrwb": 6499,
      "Ġrmds": 6500,
      "Ġcontainer": 6501,
      "scene": 6502,
      "Ġsupervised": 6503,
      "Ġpystringobject": 6504,
      "rength": 6505,
      "rules": 6506,
      "Ġdownenc": 6507,
      "Ġprogram": 6508,
      "mbols": 6509,
      "Ġsplinefont": 6510,
      "expiration": 6511,
      "Ġterm": 6512,
      "residual": 6513,
      "Ġmodifier": 6514,
      "marks": 6515,
      "Ġhierarchical": 6516,
      "Ġfinished": 6517,
      "Ġpriumax": 6518,
      "iltin": 6519,
      "Ġ`%": 6520,
      "Ġnested": 6521,
      "estimation": 6522,
      "Ġchatnet": 6523,
      "undefined": 6524,
      "Ġbdrv": 6525,
      "#'": 6526,
      ",%": 6527,
      "?,": 6528,
      "_'": 6529,
      "bat": 6530,
      "gp": 6531,
      "hw": 6532,
      "jk": 6533,
      "msix": 6534,
      "mips": 6535,
      "nss": 6536,
      "pwd": 6537,
      "sbits": 6538,
      "vcpu": 6539,
      "yes": 6540,
      "Ġir": 6541,
      "leant": 6542,
      "seen": 6543,
      "denv": 6544,
      "Ġfy": 6545,
      "Ġfoffset": 6546,
      "Ġmss": 6547,
      "orm": 6548,
      "Ġrece": 6549,
      "Ġifr": 6550,
      "Ġbfp": 6551,
      "Ġeindex": 6552,
      "meta": 6553,
      "Ġvmlal": 6554,
      "Ġgin": 6555,
      "Ġgfs": 6556,
      "Ġguid": 6557,
      "lost": 6558,
      "Ġ\"#": 6559,
      "Ġho": 6560,
      "anmar": 6561,
      "adcast": 6562,
      "intrm": 6563,
      "ett": 6564,
      "Ġring": 6565,
      "Ġcould": 6566,
      "Ġlbot": 6567,
      "Ġchctx": 6568,
      "Ġavdiscard": 6569,
      "fold": 6570,
      "inger": 6571,
      "Ġwild": 6572,
      "ven": 6573,
      "unmatched": 6574,
      "getc": 6575,
      "Ġprocs": 6576,
      "keyid": 6577,
      "keyinfo": 6578,
      "Ġ'#'": 6579,
      "Ġary": 6580,
      "Ġarch": 6581,
      "Ġexport": 6582,
      "Ġkwaj": 6583,
      "Ġmbx": 6584,
      "Ġmby": 6585,
      "framenum": 6586,
      "bitmask": 6587,
      "mble": 6588,
      "Ġparsing": 6589,
      "Ġnumrlvls": 6590,
      "Ġcodepoint": 6591,
      "plus": 6592,
      "Ġreferred": 6593,
      "allocator": 6594,
      "parc": 6595,
      "Ġprec": 6596,
      "subst": 6597,
      "Ġath": 6598,
      "Ġposix": 6599,
      "Ġnewlmbcs": 6600,
      "mvc": 6601,
      "Ġthumbnail": 6602,
      "Ġscseq": 6603,
      "Ġvirreport": 6604,
      "Ġcompute": 6605,
      "Ġcomplete": 6606,
      "Ġfieldmv": 6607,
      "Ġalac": 6608,
      "Ġalready": 6609,
      "transparency": 6610,
      "Ġtemporal": 6611,
      "dbx": 6612,
      "Ġapplication": 6613,
      "pathname": 6614,
      "Ġinitblk": 6615,
      "psw": 6616,
      "Ġupstream": 6617,
      "Ġsda": 6618,
      "cbp": 6619,
      "Ġgstasf": 6620,
      "Ġxmlfree": 6621,
      "struction": 6622,
      "Ġsigned": 6623,
      "expand": 6624,
      "handoff": 6625,
      "selectivity": 6626,
      "crash": 6627,
      "operations": 6628,
      "Ġmemoryregion": 6629,
      "functions": 6630,
      "ocation": 6631,
      "Ġalltabs": 6632,
      "distortion": 6633,
      "pipefd": 6634,
      "Ġthreshold": 6635,
      "issuer": 6636,
      "Ġlibevt": 6637,
      "Ġ\"/*!": 6638,
      "thrott": 6639,
      "rcvrc": 6640,
      "pagesfetched": 6641,
      "extent": 6642,
      "lzw": 6643,
      "versal": 6644,
      "Ġrevoke": 6645,
      "Ġisspace": 6646,
      "Ġmappings": 6647,
      "Ġbottom": 6648,
      "dependency": 6649,
      "intrmgr": 6650,
      "Ġgstasfdemux": 6651,
      ")'": 6652,
      "::": 6653,
      "btvdp": 6654,
      "gt": 6655,
      "hext": 6656,
      "lon": 6657,
      "mid": 6658,
      "mot": 6659,
      "rv": 6660,
      "rase": 6661,
      "tbl": 6662,
      "uc": 6663,
      "was": 6664,
      "wchar": 6665,
      "wmv": 6666,
      "watch": 6667,
      "Ġicmp": 6668,
      "recur": 6669,
      "revalidate": 6670,
      "Ġsol": 6671,
      "Ġcav": 6672,
      "Ġclean": 6673,
      "Ġpcmd": 6674,
      "Ġpfont": 6675,
      "iner": 6676,
      "Ġtbuf": 6677,
      "Ġtell": 6678,
      "detected": 6679,
      "ony": 6680,
      "Ġbi": 6681,
      "Ġbfi": 6682,
      "arc": 6683,
      "Ġnic": 6684,
      "Ġnormal": 6685,
      "Ġaal": 6686,
      "Ġdca": 6687,
      "Ġddst": 6688,
      "Ġvdd": 6689,
      "Ġgen": 6690,
      "cos": 6691,
      "Ġohcistate": 6692,
      "chm": 6693,
      "icle": 6694,
      "Ġllist": 6695,
      "example": 6696,
      "except": 6697,
      "elts": 6698,
      "Ġxm": 6699,
      "abrm": 6700,
      "locked": 6701,
      "Ġbufsz": 6702,
      "Ġ')'": 6703,
      "Ġexpi": 6704,
      "ected": 6705,
      "Ġ33": 6706,
      "dextension": 6707,
      "printer": 6708,
      "csum": 6709,
      "bytecode": 6710,
      "subregion": 6711,
      "subbands": 6712,
      "ivi": 6713,
      "Ġnewdb": 6714,
      "Ġhtc": 6715,
      "Ġhtt": 6716,
      "Ġmsglevel": 6717,
      "tached": 6718,
      "Ġlines": 6719,
      "posn": 6720,
      "possible": 6721,
      "Ġvirrepor": 6722,
      "Ġstates": 6723,
      "creator": 6724,
      "Ġbee": 6725,
      "actual": 6726,
      "tshttptxn": 6727,
      "handles": 6728,
      "username": 6729,
      "Ġregtest": 6730,
      "reqbody": 6731,
      "imageerror": 6732,
      "results": 6733,
      "--\\": 6734,
      "updates": 6735,
      "tty": 6736,
      "fromunicode": 6737,
      "grid": 6738,
      "Ġfilters": 6739,
      "caps": 6740,
      "cmsfree": 6741,
      "Ġmock": 6742,
      "via": 6743,
      "vision": 6744,
      "segmentation": 6745,
      "partial": 6746,
      "Ġbufferevent": 6747,
      "Ġsupport": 6748,
      "vdpau": 6749,
      "Ġtlsext": 6750,
      "Ġcontents": 6751,
      "Ġptcnt": 6752,
      "rtit": 6753,
      "Ġclusters": 6754,
      "enumerator": 6755,
      "dumper": 6756,
      "Ġlayout": 6757,
      "198": 6758,
      "Ġntohl": 6759,
      "Ġworker": 6760,
      "receive": 6761,
      "Ġcorruptimageerror": 6762,
      "patchwelcome": 6763,
      "transl": 6764,
      "Ġnegative": 6765,
      "quotes": 6766,
      "Ġreassembled": 6767,
      "since": 6768,
      "Ġalimb": 6769,
      "ballast": 6770,
      "senger": 6771,
      "Ġinverted": 6772,
      "toomerror": 6773,
      "Ġcavs": 6774,
      "Ġvirreportoomerror": 6775,
      "2198": 6776,
      "45": 6777,
      "75": 6778,
      "ambiguous": 6779,
      "cing": 6780,
      "cirrus": 6781,
      "epo": 6782,
      "fputs": 6783,
      "hmp": 6784,
      "hnd": 6785,
      "imm": 6786,
      "ouble": 6787,
      "pulse": 6788,
      "sourcelimit": 6789,
      "spoolss": 6790,
      "vis": 6791,
      "vcmx": 6792,
      "xts": 6793,
      "zu": 6794,
      "resize": 6795,
      "repr": 6796,
      "repair": 6797,
      "ntime": 6798,
      "Ġpextension": 6799,
      "Ġftype": 6800,
      "Ġfli": 6801,
      "Ġfpr": 6802,
      "Ġfskip": 6803,
      "Ġrever": 6804,
      "Ġrequires": 6805,
      "Ġremainder": 6806,
      "Ġeasn": 6807,
      "alter": 6808,
      "Ġstar": 6809,
      "Ġag": 6810,
      "Ġaq": 6811,
      "Ġax": 6812,
      "Ġvb": 6813,
      "Ġgss": 6814,
      "rout": 6815,
      "Ġops": 6816,
      "Ġhit": 6817,
      "added": 6818,
      "sets": 6819,
      "Ġrh": 6820,
      "Ġladr": 6821,
      "Ġwpc": 6822,
      "Ġxhcistate": 6823,
      "console": 6824,
      "keyring": 6825,
      "upgrade": 6826,
      "nots": 6827,
      "nored": 6828,
      "ptrans": 6829,
      "txt": 6830,
      "until": 6831,
      "Ġ%.": 6832,
      "putdata": 6833,
      "dims": 6834,
      "Ġmbb": 6835,
      "heur": 6836,
      "escaped": 6837,
      "Ġgetenv": 6838,
      "Ġsrclen": 6839,
      "Ġprsuccess": 6840,
      "states": 6841,
      "owrite": 6842,
      "Ġlengths": 6843,
      "columns": 6844,
      "presence": 6845,
      "Ġ?,": 6846,
      "Ġmaxq": 6847,
      "scratch": 6848,
      "Ġtsd": 6849,
      "composite": 6850,
      "Ġtmpfile": 6851,
      "Ġscall": 6852,
      "lyrno": 6853,
      "phrase": 6854,
      "Ġprintformat": 6855,
      "dispatch": 6856,
      "Ġjobid": 6857,
      "Ġapple": 6858,
      "widthexpn": 6859,
      "Ġpktbuf": 6860,
      "requestcreator": 6861,
      "Ġmimefields": 6862,
      "Ġxda": 6863,
      "Ġlocations": 6864,
      "flate": 6865,
      "reqget": 6866,
      "Ġreqbody": 6867,
      "sonant": 6868,
      "Ġprivileges": 6869,
      "Ġparsearray": 6870,
      "Ġdecodeasn": 6871,
      "Ġshared": 6872,
      "ware": 6873,
      "encrypted": 6874,
      "Ġsvf": 6875,
      "ccc": 6876,
      "libc": 6877,
      "Ġnelem": 6878,
      "seqno": 6879,
      "Ġ'%'": 6880,
      "Ġrfbencoding": 6881,
      "parts": 6882,
      "Ġspread": 6883,
      "Ġexprstate": 6884,
      "Ġccd": 6885,
      "Ġxslttransform": 6886,
      "makecommand": 6887,
      "Ġprclyrno": 6888,
      "Ġreleasesyscache": 6889,
      "='%": 6890,
      "Ġ\"</": 6891,
      "orization": 6892,
      "Ġpushed": 6893,
      "Ġatomic": 6894,
      "Ġdoesn": 6895,
      "msecs": 6896,
      "fallback": 6897,
      "attachment": 6898,
      "basis": 6899,
      "Ġmysourcechar": 6900,
      "aggreg": 6901,
      "Ġhtonl": 6902,
      "Ġschedule": 6903,
      "Ġvirjsonvalueobjectgetstring": 6904,
      "Ġhierarchy": 6905,
      "leading": 6906,
      "Ġ65535": 6907,
      "Ġanswer": 6908,
      "Ġdimensions": 6909,
      "Ġrelinquishmagickmemory": 6910,
      "Ġhttptrans": 6911,
      "Ġfskiparg": 6912,
      "Ġreversed": 6913,
      "Ġmimefieldsdkhandle": 6914,
      "Ġhttptransact": 6915,
      "%%": 6916,
      "''": 6917,
      "*'": 6918,
      "93": 6919,
      "_%": 6920,
      "batch": 6921,
      "easy": 6922,
      "hr": 6923,
      "kid": 6924,
      "large": 6925,
      "perror": 6926,
      "pable": 6927,
      "psk": 6928,
      "rchr": 6929,
      "sasl": 6930,
      "slave": 6931,
      "sleep": 6932,
      "tiny": 6933,
      "wc": 6934,
      "Ġ(\"": 6935,
      "Ġite": 6936,
      "Ġsleep": 6937,
      "Ġslots": 6938,
      "Ġcrda": 6939,
      "Ġpdata": 6940,
      "Ġpfile": 6941,
      "Ġtz": 6942,
      "deleted": 6943,
      "Ġfmode": 6944,
      "Ġmf": 6945,
      "Ġrecode": 6946,
      "Ġrealloc": 6947,
      "Ġreverse": 6948,
      "Ġbla": 6949,
      "ardp": 6950,
      "Ġndata": 6951,
      "Ġnil": 6952,
      "Ġnrda": 6953,
      "Ġeight": 6954,
      "Ġeos": 6955,
      "Ġstored": 6956,
      "Ġay": 6957,
      "Ġacb": 6958,
      "Ġagg": 6959,
      "Ġvst": 6960,
      "Ġvtype": 6961,
      "Ġge": 6962,
      "interesting": 6963,
      "ether": 6964,
      "Ġrlen": 6965,
      "agetag": 6966,
      "thing": 6967,
      "Ġinpacket": 6968,
      "Ġdelim": 6969,
      "strbuf": 6970,
      "strcpy": 6971,
      "teleg": 6972,
      "lig": 6973,
      "tries": 6974,
      "Ġmylen": 6975,
      "Ġqcelp": 6976,
      "raster": 6977,
      "Ġ'*'": 6978,
      "Ġunused": 6979,
      "Ġexte": 6980,
      "login": 6981,
      "logcat": 6982,
      "Ġresource": 6983,
      "provider": 6984,
      "forced": 6985,
      "Ġymax": 6986,
      "Ġparallel": 6987,
      "shadow": 6988,
      "plug": 6989,
      "blocking": 6990,
      "blocksize": 6991,
      "prepend": 6992,
      "Ġencrypt": 6993,
      "Ġadv": 6994,
      "cmap": 6995,
      "completion": 6996,
      "Ġsubstr": 6997,
      "Ġpol": 6998,
      "Ġtmpfname": 6999,
      "perf": 7000,
      "Ġevperr": 7001,
      "127": 7002,
      "Ġquot": 7003,
      "optgroup": 7004,
      "Ġcheckprefix": 7005,
      "mini": 7006,
      "Ġtemplate": 7007,
      "bold": 7008,
      "activity": 7009,
      "Ġdefcontext": 7010,
      "Ġvars": 7011,
      "Ġfilled": 7012,
      "requested": 7013,
      "Ġfirstbyte": 7014,
      "Ġreqs": 7015,
      "attrvt": 7016,
      "Ġcbpc": 7017,
      "Ġcsv": 7018,
      "Ġxmllink": 7019,
      "Ġahx": 7020,
      "Ġpkcs": 7021,
      "fromlong": 7022,
      "authid": 7023,
      "Ġdebuglog": 7024,
      "Ġipaddr": 7025,
      "Ġstpcpy": 7026,
      "Ġhandled": 7027,
      "Ġtty": 7028,
      "steps": 7029,
      "255": 7030,
      "pointers": 7031,
      "Ġrelid": 7032,
      "Ġrelptcp": 7033,
      "Ġnetdissect": 7034,
      "Ġmagicktrue": 7035,
      "Ġbacking": 7036,
      "384": 7037,
      "Ġrangelo": 7038,
      "legacy": 7039,
      "Ġlspf": 7040,
      "vgastate": 7041,
      "Ġpages": 7042,
      "bounds": 7043,
      "Ġnonce": 7044,
      "Ġfullpath": 7045,
      "Ġstops": 7046,
      "permissionrequestcreator": 7047,
      "pkcs": 7048,
      "Ġsinpi": 7049,
      "Ġsearchsyscache": 7050,
      "Ġcplx": 7051,
      "isspace": 7052,
      "Ġcatlist": 7053,
      "residues": 7054,
      "Ġifaces": 7055,
      "ttfreader": 7056,
      "Ġwaiting": 7057,
      "Ġcosts": 7058,
      "acha": 7059,
      "Ġipvideocontext": 7060,
      "ckey": 7061,
      "Ġpointergetdatum": 7062,
      "Ġpresentation": 7063,
      "Ġ*/;": 7064,
      "Ġmchunksize": 7065,
      "Ġphysaddr": 7066,
      "Ġprplcb": 7067,
      "Ġqiochannelwebsock": 7068,
      "Ġmqh": 7069,
      "Ġxpathctxt": 7070,
      "Ġvirreporterror": 7071,
      "telegram": 7072,
      "400": 7073,
      "62": 7074,
      "cut": 7075,
      "catch": 7076,
      "gmt": 7077,
      "jmp": 7078,
      "oct": 7079,
      "rics": 7080,
      "zag": 7081,
      "rela": 7082,
      "reloc": 7083,
      "representation": 7084,
      "Ġscantable": 7085,
      "Ġcenter": 7086,
      "ernal": 7087,
      "seed": 7088,
      "Ġpht": 7089,
      "Ġpqueue": 7090,
      "Ġtdata": 7091,
      "Ġftag": 7092,
      "Ġframerate": 7093,
      "Ġfbw": 7094,
      "Ġifid": 7095,
      "Ġballoon": 7096,
      "Ġni": 7097,
      "Ġnwritten": 7098,
      "Ġef": 7099,
      "Ġae": 7100,
      "Ġaud": 7101,
      "Ġgdk": 7102,
      "Ġ\".\"": 7103,
      "Ġhstart": 7104,
      "Ġhoriz": 7105,
      "Ġhidden": 7106,
      "inten": 7107,
      "setstring": 7108,
      "Ġrts": 7109,
      "Ġlfi": 7110,
      "Ġdesign": 7111,
      "stract": 7112,
      "Ġxvmc": 7113,
      "abbrev": 7114,
      "Ġsiz": 7115,
      "extras": 7116,
      "external": 7117,
      "confi": 7118,
      "Ġqmat": 7119,
      "nos": 7120,
      "msb": 7121,
      "race": 7122,
      "Ġ'}": 7123,
      "Ġ'_'": 7124,
      "Ġunable": 7125,
      "Ġ48": 7126,
      "Ġkopt": 7127,
      "poly": 7128,
      "esc": 7129,
      "Ġmschm": 7130,
      "Ġcmyk": 7131,
      "prec": 7132,
      "allocated": 7133,
      "subsystems": 7134,
      "undo": 7135,
      "Ġresultlen": 7136,
      "Ġoptind": 7137,
      "Ġnewstate": 7138,
      "perbit": 7139,
      "pcap": 7140,
      "Ġarglist": 7141,
      "Ġargconverted": 7142,
      "Ġlinebuflen": 7143,
      "timebase": 7144,
      "Ġevlist": 7145,
      "maps": 7146,
      "Ġsetimage": 7147,
      "Ġcountof": 7148,
      "phy": 7149,
      "Ġprinting": 7150,
      "checkerror": 7151,
      "Ġready": 7152,
      "ecc": 7153,
      "Ġfromlen": 7154,
      "Ġfromuchar": 7155,
      "argv": 7156,
      "Ġfds": 7157,
      "Ġopj": 7158,
      "Ġpkttype": 7159,
      "ators": 7160,
      "Ġsigaction": 7161,
      "backup": 7162,
      "Ġregex": 7163,
      "Ġcapt": 7164,
      "Ġinterlaced": 7165,
      "gradient": 7166,
      "Ġconfiguration": 7167,
      "blue": 7168,
      "Ġgranule": 7169,
      "Ġupdateregion": 7170,
      "Ġrva": 7171,
      "rangecheck": 7172,
      "many": 7173,
      "Ġrootcontext": 7174,
      "Ġsavesource": 7175,
      "3400": 7176,
      "Ġcirrusvgastate": 7177,
      "Ġsecure": 7178,
      "cmptfmts": 7179,
      "Ġoscore": 7180,
      "Ġenough": 7181,
      "selinux": 7182,
      "Ġrangehi": 7183,
      "Ġamop": 7184,
      "Ġciphers": 7185,
      "Ġperm": 7186,
      "Ġaborted": 7187,
      "rqc": 7188,
      "Ġprocesssync": 7189,
      "Ġoverview": 7190,
      "Ġexisting": 7191,
      "Ġcmapseg": 7192,
      "Ġsshkey": 7193,
      "Ġ\",\"": 7194,
      "Ġseekable": 7195,
      "Ġtcpinfo": 7196,
      "autoptr": 7197,
      "Ġqemumonitorjsonmakecommand": 7198,
      "Ġrtc": 7199,
      "Ġdrive": 7200,
      "normalize": 7201,
      "property": 7202,
      "denoiser": 7203,
      "increase": 7204,
      "expired": 7205,
      "basic": 7206,
      "wrappers": 7207,
      "affected": 7208,
      "Ġcseqnum": 7209,
      "Ġdelayed": 7210,
      "></": 7211,
      "========": 7212,
      "snapshot": 7213,
      "primaries": 7214,
      "Ġxcfdata": 7215,
      "Ġdescent": 7216,
      "Ġpextvalue": 7217,
      "negotiate": 7218,
      "Ġposixid": 7219,
      "Ġadvance": 7220,
      "bor": 7221,
      "cle": 7222,
      "cid": 7223,
      "fg": 7224,
      "fm": 7225,
      "fblock": 7226,
      "gint": 7227,
      "gop": 7228,
      "hav": 7229,
      "pull": 7230,
      "place": 7231,
      "rle": 7232,
      "sme": 7233,
      "vprintf": 7234,
      "zz": 7235,
      "zig": 7236,
      "zbin": 7237,
      "Ġise": 7238,
      "rele": 7239,
      "reuse": 7240,
      "restriction": 7241,
      "Ġcab": 7242,
      "Ġcrow": 7243,
      "selec": 7244,
      "inance": 7245,
      "detect": 7246,
      "Ġfour": 7247,
      "Ġfwrite": 7248,
      "Ġrepo": 7249,
      "Ġredirect": 7250,
      "arp": 7251,
      "aring": 7252,
      "cte": 7253,
      "Ġeol": 7254,
      "Ġ1000000": 7255,
      "itr": 7256,
      "ites": 7257,
      "Ġvt": 7258,
      "Ġvname": 7259,
      "Ġgob": 7260,
      "Ġ\"+": 7261,
      "Ġov": 7262,
      "toc": 7263,
      "mport": 7264,
      "Ġlber": 7265,
      "Ġlfirst": 7266,
      "Ġlinux": 7267,
      "atable": 7268,
      "ssr": 7269,
      "there": 7270,
      "Ġconstruct": 7271,
      "Ġstrtab": 7272,
      "Ġinv": 7273,
      "Ġinchar": 7274,
      "Ġdetect": 7275,
      "builtin": 7276,
      "strndup": 7277,
      "Ġxc": 7278,
      "Ġxhc": 7279,
      "Ġlens": 7280,
      "upx": 7281,
      "uper": 7282,
      "prio": 7283,
      "nopts": 7284,
      "rain": 7285,
      "rack": 7286,
      "Ġ'('": 7287,
      "Ġdatas": 7288,
      "Ġunpack": 7289,
      "factory": 7290,
      "Ġresolv": 7291,
      "Ġ34": 7292,
      "filetransfer": 7293,
      "Ġiscan": 7294,
      "printable": 7295,
      "Ġselector": 7296,
      "Ġtrash": 7297,
      "Ġprlist": 7298,
      "Ġprior": 7299,
      "Ġyuv": 7300,
      "shell": 7301,
      "csp": 7302,
      "prediction": 7303,
      "Ġenccount": 7304,
      "Ġfilepos": 7305,
      "Ġfilesystem": 7306,
      "scms": 7307,
      "Ġleaf": 7308,
      "Ġtscache": 7309,
      "compound": 7310,
      "subframes": 7311,
      "symbols": 7312,
      "under": 7313,
      "Ġshaper": 7314,
      "Ġffswap": 7315,
      "Ġsymbol": 7316,
      "Ġscur": 7317,
      "okahead": 7318,
      "Ġalist": 7319,
      "connlimit": 7320,
      "sbc": 7321,
      "creat": 7322,
      "Ġberesp": 7323,
      "Ġptrvalue": 7324,
      "Ġlogcat": 7325,
      "Ġlogical": 7326,
      "Ġpbidi": 7327,
      "Ġupload": 7328,
      "Ġupgrade": 7329,
      "Ġfdarray": 7330,
      "itional": 7331,
      "Ġdatname": 7332,
      "Ġminor": 7333,
      "nulls": 7334,
      "preda": 7335,
      "predc": 7336,
      "updateregion": 7337,
      "Ġxmlnode": 7338,
      "Ġahlt": 7339,
      "Ġboolgetdatum": 7340,
      "universal": 7341,
      "sendreal": 7342,
      "servic": 7343,
      "Ġivi": 7344,
      "rdwr": 7345,
      "Ġunireg": 7346,
      "datatype": 7347,
      "anges": 7348,
      "lerate": 7349,
      "Ġallocation": 7350,
      "linked": 7351,
      "Ġpgconn": 7352,
      "uples": 7353,
      "Ġrfbset": 7354,
      "Ġspank": 7355,
      "Ġrelstr": 7356,
      "Ġglyphcnt": 7357,
      "Ġmpx": 7358,
      "dencoding": 7359,
      "Ġtsmgmt": 7360,
      "identities": 7361,
      "Ġqemumonitorhmp": 7362,
      "Ġpermut": 7363,
      "Ġpermission": 7364,
      "Ġfinalize": 7365,
      "Ġoverlap": 7366,
      "Ġactions": 7367,
      "pdf": 7368,
      "websocket": 7369,
      "delayed": 7370,
      "vertical": 7371,
      "Ġbounds": 7372,
      "multiplex": 7373,
      "issa": 7374,
      "encoderconfig": 7375,
      "waiting": 7376,
      "Ġpattlen": 7377,
      "safefree": 7378,
      "vlcs": 7379,
      "reordering": 7380,
      "Ġfscontext": 7381,
      "Ġpimv": 7382,
      "Ġmantissa": 7383,
      "Ġexsltmath": 7384,
      "Ġbgcol": 7385,
      "ceildiv": 7386,
      "recognized": 7387,
      "Ġrfbclientptr": 7388,
      "Ġsurface": 7389,
      "enough": 7390,
      "Ġpstartlmbcs": 7391,
      "Ġanalyze": 7392,
      "Ġleftop": 7393,
      "renewable": 7394,
      "colgrpsize": 7395,
      "ingerprint": 7396,
      "sendrealsoon": 7397,
      "Ġqemumonitorhmpcommand": 7398,
      "020": 7399,
      "bb": 7400,
      "bgr": 7401,
      "dma": 7402,
      "dcb": 7403,
      "eval": 7404,
      "enot": 7405,
      "framerate": 7406,
      "green": 7407,
      "glibc": 7408,
      "hd": 7409,
      "halt": 7410,
      "nic": 7411,
      "nil": 7412,
      "plain": 7413,
      "vr": 7414,
      "wind": 7415,
      "xm": 7416,
      "Ġil": 7417,
      "Ġicount": 7418,
      "Ġimemory": 7419,
      "repo": 7420,
      "Ġscl": 7421,
      "Ġccm": 7422,
      "nthe": 7423,
      "ntrans": 7424,
      "Ġpmv": 7425,
      "Ġpsk": 7426,
      "inel": 7427,
      "Ġtitle": 7428,
      "dead": 7429,
      "Ġmpy": 7430,
      "Ġresize": 7431,
      "Ġrecent": 7432,
      "Ġbv": 7433,
      "Ġbta": 7434,
      "Ġnframe": 7435,
      "Ġnument": 7436,
      "Ġdlen": 7437,
      "Ġvent": 7438,
      "Ġvram": 7439,
      "Ġvdp": 7440,
      "lop": 7441,
      "Ġ\"|": 7442,
      "Ġoctx": 7443,
      "chmode": 7444,
      "challenge": 7445,
      "Ġcos": 7446,
      "Ġcoord": 7447,
      "Ġlt": 7448,
      "extended": 7449,
      "edded": 7450,
      "ases": 7451,
      "strain": 7452,
      "Ġxp": 7453,
      "pie": 7454,
      "emit": 7455,
      "apr": 7456,
      "ables": 7457,
      "Ġprotection": 7458,
      "Ġqtype": 7459,
      "Ġ'>": 7460,
      "ptrun": 7461,
      "Ġprotoo": 7462,
      "lauth": 7463,
      "otplug": 7464,
      "Ġkh": 7465,
      "Ġkill": 7466,
      "Ġkoi": 7467,
      "ofree": 7468,
      "bitcount": 7469,
      "Ġcurlauth": 7470,
      "Ġrcv": 7471,
      "irm": 7472,
      "Ġkeyseg": 7473,
      "readln": 7474,
      "csv": 7475,
      "colon": 7476,
      "Ġframewith": 7477,
      "prefer": 7478,
      "iov": 7479,
      "Ġrefcount": 7480,
      "parity": 7481,
      "Ġpresence": 7482,
      "Ġtypedef": 7483,
      "Ġtopo": 7484,
      "subtype": 7485,
      "Ġsubitem": 7486,
      "Ġsubcommand": 7487,
      "symlink": 7488,
      "Ġstartptr": 7489,
      "Ġsyllable": 7490,
      "Ġlineno": 7491,
      "oked": 7492,
      "phdr": 7493,
      "Ġascent": 7494,
      "transition": 7495,
      "riptrun": 7496,
      "checks": 7497,
      "loadargs": 7498,
      "Ġlogin": 7499,
      "Ġhbs": 7500,
      "Ġtranspose": 7501,
      "Ġlonglong": 7502,
      "Ġaddrs": 7503,
      "Ġregression": 7504,
      "packs": 7505,
      "ighbor": 7506,
      "nullable": 7507,
      "Ġgcrympi": 7508,
      "jobid": 7509,
      "estextension": 7510,
      "authorization": 7511,
      "booleant": 7512,
      "capabilities": 7513,
      "Ġipproto": 7514,
      "Ġmetrics": 7515,
      "Ġsegcnt": 7516,
      "byid": 7517,
      "Ġcurlcode": 7518,
      "Ġcurlform": 7519,
      "going": 7520,
      "amicwindow": 7521,
      "Ġssnp": 7522,
      "center": 7523,
      "Ġuconverterloadargs": 7524,
      "localized": 7525,
      "Ġvirtios": 7526,
      "Ġlzh": 7527,
      "Ġcfrm": 7528,
      "malformed": 7529,
      "Ġmatching": 7530,
      "descriptions": 7531,
      "publ": 7532,
      "Ġprcno": 7533,
      "192": 7534,
      "privatekey": 7535,
      "apphead": 7536,
      "Ġqemumonitorjsoncommand": 7537,
      "Ġaltuni": 7538,
      "Ġublen": 7539,
      "existing": 7540,
      "Ġlangtag": 7541,
      "Ġsentinel": 7542,
      "consume": 7543,
      "authenticate": 7544,
      "Ġpowers": 7545,
      "polarity": 7546,
      "thrdef": 7547,
      "streamingrequest": 7548,
      "Ġcurves": 7549,
      "Ġfakename": 7550,
      "Ġexecutequery": 7551,
      "surrogate": 7552,
      "Ġkexinit": 7553,
      "agedata": 7554,
      "attempts": 7555,
      "Ġvoip": 7556,
      "Ġxorcol": 7557,
      "Ġreserved": 7558,
      "mtrrfix": 7559,
      "Ġemprintf": 7560,
      "coerce": 7561,
      "Ġbibitcount": 7562,
      "Ġrtsr": 7563,
      "Ġpermutated": 7564,
      "Ġframewithpts": 7565,
      "')\"": 7566,
      ").\\": 7567,
      "37": 7568,
      "85": 7569,
      "<'": 7570,
      "bnd": 7571,
      "bson": 7572,
      "far": 7573,
      "finfo": 7574,
      "hinter": 7575,
      "iot": 7576,
      "ised": 7577,
      "lpc": 7578,
      "lld": 7579,
      "mn": 7580,
      "pct": 7581,
      "preserve": 7582,
      "rink": 7583,
      "sdkhandle": 7584,
      "sparc": 7585,
      "tup": 7586,
      "tick": 7587,
      "vant": 7588,
      "Ġipc": 7589,
      "Ġiobj": 7590,
      "Ġsstate": 7591,
      "Ġcsub": 7592,
      "stp": 7593,
      "stor": 7594,
      "stimer": 7595,
      "stonecurve": 7596,
      "leave": 7597,
      "Ġpstatus": 7598,
      "inu": 7599,
      "indent": 7600,
      "detail": 7601,
      "decompress": 7602,
      "delim": 7603,
      "Ġifnum": 7604,
      "Ġna": 7605,
      "Ġedata": 7606,
      "Ġefault": 7607,
      "Ġereport": 7608,
      "ither": 7609,
      "Ġdri": 7610,
      "Ġvd": 7611,
      "lour": 7612,
      "Ġund": 7613,
      "leno": 7614,
      "sirm": 7615,
      "icast": 7616,
      "Ġrsl": 7617,
      "Ġrstate": 7618,
      "exth": 7619,
      "Ġstrprefix": 7620,
      "Ġstrrchr": 7621,
      "strcasecmp": 7622,
      "Ġxctx": 7623,
      "errormessage": 7624,
      "emon": 7625,
      "Ġcharval": 7626,
      "getput": 7627,
      "323": 7628,
      "liance": 7629,
      "keywords": 7630,
      "Ġmyanmar": 7631,
      "Ġqsort": 7632,
      "usr": 7633,
      "Ġ'<'": 7634,
      "Ġunexpected": 7635,
      "lare": 7636,
      "odev": 7637,
      "mtab": 7638,
      "hes": 7639,
      "posix": 7640,
      "Ġhfx": 7641,
      "cpm": 7642,
      "mba": 7643,
      "Ġprf": 7644,
      "Ġprimitive": 7645,
      "Ġmsgs": 7646,
      "Ġcmstonecurve": 7647,
      "reading": 7648,
      "listentry": 7649,
      "shorten": 7650,
      "imap": 7651,
      "Ġnamespace": 7652,
      "quoted": 7653,
      "cial": 7654,
      "Ġmaxpf": 7655,
      "Ġidrent": 7656,
      "scn": 7657,
      "devic": 7658,
      "Ġsubval": 7659,
      "Ġsubsystem": 7660,
      "Ġbytecode": 7661,
      "Ġinfolist": 7662,
      "Ġbitmask": 7663,
      "addrinfo": 7664,
      "Ġasv": 7665,
      "Ġasave": 7666,
      "Ġascii": 7667,
      "Ġdestptr": 7668,
      "Ġlisten": 7669,
      "mbcssimple": 7670,
      "dba": 7671,
      "tshttp": 7672,
      "Ġpybool": 7673,
      "notification": 7674,
      "effort": 7675,
      "Ġmimehdrimpl": 7676,
      "Ġaddrlen": 7677,
      "Ġbsd": 7678,
      "Ġaddform": 7679,
      "Ġfmtid": 7680,
      "Ġfmtinfo": 7681,
      "Ġrop": 7682,
      "Ġdirname": 7683,
      "protoabbrev": 7684,
      "encodingmask": 7685,
      "Ġrfblog": 7686,
      "usbms": 7687,
      "ieee": 7688,
      "Ġbuffered": 7689,
      "Ġmodsecurity": 7690,
      "Ġpqexpbuffer": 7691,
      "genericerror": 7692,
      "Ġweb": 7693,
      "quiet": 7694,
      "twopass": 7695,
      "Ġperms": 7696,
      "4030": 7697,
      "doubleoptgroup": 7698,
      "sfr": 7699,
      "Ġ192": 7700,
      "Ġcompressor": 7701,
      "Ġnlattr": 7702,
      "couldn": 7703,
      "contains": 7704,
      "sideways": 7705,
      "children": 7706,
      "association": 7707,
      "hierarch": 7708,
      "Ġfunctioncall": 7709,
      "Ġsplitbuf": 7710,
      "Ġundefined": 7711,
      "Ġ\"[%": 7712,
      "Ġcircuit": 7713,
      "rational": 7714,
      "Ġsysbusdevice": 7715,
      "Ġvirjsonvalueobjectgetnumber": 7716,
      "elemtype": 7717,
      "Ġhdrheapsdkhandle": 7718,
      "Ġmutex": 7719,
      "Ġlyrno": 7720,
      "product": 7721,
      "pchglist": 7722,
      "Ġdebuting": 7723,
      "stribution": 7724,
      "Ġsectcnt": 7725,
      "nitude": 7726,
      "iview": 7727,
      "Ġladrf": 7728,
      "Ġblack": 7729,
      "relevant": 7730,
      "Ġ'>'": 7731,
      "Ġiobjtype": 7732,
      "Ġdriver": 7733,
      "mbcssimplegetnextuchar": 7734,
      ").": 7735,
      ");": 7736,
      "77": 7737,
      "80000000": 7738,
      "=@": 7739,
      "du": 7740,
      "dptr": 7741,
      "dbe": 7742,
      "dlv": 7743,
      "drain": 7744,
      "fnumber": 7745,
      "fresh": 7746,
      "msi": 7747,
      "mile": 7748,
      "mjpeg": 7749,
      "pbase": 7750,
      "sobj": 7751,
      "scantable": 7752,
      "ticle": 7753,
      "when": 7754,
      "Ġiad": 7755,
      "Ġidata": 7756,
      "reate": 7757,
      "reater": 7758,
      "rethrow": 7759,
      "revision": 7760,
      "Ġsct": 7761,
      "Ġsnum": 7762,
      "Ġsplay": 7763,
      "Ġsssr": 7764,
      "Ġcmsg": 7765,
      "Ġcpend": 7766,
      "eration": 7767,
      "stone": 7768,
      "Ġplace": 7769,
      "inout": 7770,
      "Ġtrc": 7771,
      "Ġtsc": 7772,
      "Ġtbl": 7773,
      "delimited": 7774,
      "Ġfr": 7775,
      "Ġfreq": 7776,
      "Ġfseek": 7777,
      "Ġminfo": 7778,
      "orient": 7779,
      "Ġreconnect": 7780,
      "Ġbcp": 7781,
      "ctim": 7782,
      "itute": 7783,
      "Ġvr": 7784,
      "Ġvstep": 7785,
      "Ġvbr": 7786,
      "Ġgtop": 7787,
      "urst": 7788,
      "Ġ\"\\\"%": 7789,
      "rok": 7790,
      "Ġope": 7791,
      "Ġhy": 7792,
      "Ġuval": 7793,
      "adchar": 7794,
      "adopt": 7795,
      "sigs": 7796,
      "tolower": 7797,
      "topright": 7798,
      "mpidump": 7799,
      "Ġlu": 7800,
      "Ġlsm": 7801,
      "Ġchacha": 7802,
      "Ġavi": 7803,
      "Ġconsu": 7804,
      "Ġwioc": 7805,
      "ceeded": 7806,
      "tequal": 7807,
      "Ġbud": 7808,
      "unsigned": 7809,
      "uncs": 7810,
      "Ġmybyte": 7811,
      "Ġmyself": 7812,
      "Ġqdict": 7813,
      "Ġ'$": 7814,
      "Ġarticle": 7815,
      "Ġunfold": 7816,
      "Ġ400": 7817,
      "Ġ%=": 7818,
      "logging": 7819,
      "Ġkadmin": 7820,
      "facs": 7821,
      "ifle": 7822,
      "Ġoutcnt": 7823,
      "Ġgetbyte": 7824,
      "Ġsess": 7825,
      "Ġgbw": 7826,
      "Ġnamebuf": 7827,
      "Ġcodebooks": 7828,
      "quit": 7829,
      "Ġprepare": 7830,
      "Ġidmemory": 7831,
      "Ġtypelib": 7832,
      "Ġdispbuf": 7833,
      "completed": 7834,
      "subprocs": 7835,
      "Ġsubtvb": 7836,
      "Ġstarts": 7837,
      "questions": 7838,
      "fieldname": 7839,
      "Ġimagedata": 7840,
      "1251": 7841,
      "Ġscrolled": 7842,
      "Ġscrambled": 7843,
      "Ġscriptrun": 7844,
      "Ġhttphdrimpl": 7845,
      "Ġinputchans": 7846,
      "variable": 7847,
      "Ġcomma": 7848,
      "nsp": 7849,
      "autofree": 7850,
      "minal": 7851,
      "ibble": 7852,
      "Ġindexes": 7853,
      "arraylength": 7854,
      "Ġ'\\''": 7855,
      "Ġcpuarch": 7856,
      "traits": 7857,
      "Ġopf": 7858,
      "Ġnoprint": 7859,
      "Ġsigstatus": 7860,
      "Ġlocfc": 7861,
      "Ġrowstride": 7862,
      "Ġminute": 7863,
      "Ġcmsstage": 7864,
      "Ġsblen": 7865,
      "Ġplanesize": 7866,
      "Ġpkdh": 7867,
      "Ġfmtconsumed": 7868,
      "Ġmaclen": 7869,
      "nodes": 7870,
      "Ġhostid": 7871,
      "Ġlobound": 7872,
      "estimate": 7873,
      "Ġmaj": 7874,
      "tapinfo": 7875,
      "Ġbestidx": 7876,
      "Ġhashcpy": 7877,
      "Ġpassphrase": 7878,
      "Ġmessages": 7879,
      "fcn": 7880,
      "Ġattrs": 7881,
      "Ġntx": 7882,
      "Ġvictim": 7883,
      "Ġepdp": 7884,
      "Ġdumpint": 7885,
      "Ġbitmaps": 7886,
      "operator": 7887,
      "sockopt": 7888,
      "Ġfpadchar": 7889,
      "Ġpqad": 7890,
      "manager": 7891,
      "donecond": 7892,
      "Ġexprdonecond": 7893,
      "Ġmagickbooleant": 7894,
      "ntoa": 7895,
      "brush": 7896,
      "Ġextras": 7897,
      "counters": 7898,
      "errnop": 7899,
      "Ġpalettes": 7900,
      "vcdiff": 7901,
      "Ġpadlen": 7902,
      "Ġescaped": 7903,
      "Ġpfk": 7904,
      "Ġhexout": 7905,
      "nonnullable": 7906,
      "...\"": 7907,
      "Ġulonglong": 7908,
      "Ġlmbcsclone": 7909,
      "clusters": 7910,
      "magnitude": 7911,
      "Ġreadblobmsb": 7912,
      "Ġqemumonitorjsoncheckerror": 7913,
      "Ġgfileinfo": 7914,
      "original": 7915,
      "hibit": 7916,
      "ruleset": 7917,
      "Ġmisc": 7918,
      "Ġbinary": 7919,
      "adjust": 7920,
      "Ġractx": 7921,
      "Ġplainauth": 7922,
      "Ġsplinechar": 7923,
      "Ġ4096": 7924,
      "Ġinstallcrx": 7925,
      "authenticpixels": 7926,
      "ssim": 7927,
      "scaling": 7928,
      "tagend": 7929,
      "Ġsbhuffrd": 7930,
      "correction": 7931,
      "reassembled": 7932,
      "Ġeacces": 7933,
      "Ġscalar": 7934,
      "activation": 7935,
      "shareddata": 7936,
      "Ġadapter": 7937,
      "Ġmultiple": 7938,
      "Ġbakfname": 7939,
      "Ġcwdg": 7940,
      "gpgsm": 7941,
      "Ġagent": 7942,
      "notsup": 7943,
      "Ġitems": 7944,
      "Ġoverr": 7945,
      "servicet": 7946,
      "linkedlist": 7947,
      "nthesis": 7948,
      "Ġundo": 7949,
      "milestone": 7950,
      "Ġgetbytecontext": 7951,
      "Ġcpuarchstate": 7952,
      "Ġlocfcinfo": 7953,
      "Ġmagickbooleantype": 7954,
      "Ġreadblobmsblong": 7955,
      "%\"": 7956,
      "61": 7957,
      "63": 7958,
      "95": 7959,
      "97": 7960,
      "aq": 7961,
      "cpio": 7962,
      "dsc": 7963,
      "esi": 7964,
      "fr": 7965,
      "gex": 7966,
      "gwin": 7967,
      "iht": 7968,
      "kp": 7969,
      "mib": 7970,
      "native": 7971,
      "pv": 7972,
      "tim": 7973,
      "vnc": 7974,
      "Ġist": 7975,
      "Ġich": 7976,
      "Ġiodev": 7977,
      "resi": 7978,
      "recovery": 7979,
      "retries": 7980,
      "Ġsx": 7981,
      "Ġsmp": 7982,
      "Ġsptr": 7983,
      "Ġsqu": 7984,
      "Ġcrl": 7985,
      "ntlm": 7986,
      "stuff": 7987,
      "stestextension": 7988,
      "seid": 7989,
      "Ġperror": 7990,
      "Ġpbase": 7991,
      "Ġpntoh": 7992,
      "Ġpulses": 7993,
      "atform": 7994,
      "Ġtss": 7995,
      "design": 7996,
      "Ġrebuild": 7997,
      "Ġrecovery": 7998,
      "Ġremoved": 7999,
      "Ġnchannels": 8000,
      "Ġnupdateregion": 8001,
      "Ġastate": 8002,
      "Ġahead": 8003,
      "itize": 8004,
      "Ġdpy": 8005,
      "Ġvcl": 8006,
      "Ġvhead": 8007,
      "Ġgsize": 8008,
      "Ġ\"$": 8009,
      "Ġopr": 8010,
      "Ġobuf": 8011,
      "idbl": 8012,
      "ano": 8013,
      "anout": 8014,
      "Ġuentry": 8015,
      "sint": 8016,
      "etrans": 8017,
      "utls": 8018,
      "ptt": 8019,
      "Ġrvalue": 8020,
      "Ġlvl": 8021,
      "Ġchoice": 8022,
      "Ġavs": 8023,
      "Ġavclass": 8024,
      "Ġavoption": 8025,
      "asecmp": 8026,
      "Ġinsist": 8027,
      "strcmp": 8028,
      "Ġxan": 8029,
      "Ġxcp": 8030,
      "Ġxstep": 8031,
      "Ġxrad": 8032,
      "Ġelif": 8033,
      "Ġstatistics": 8034,
      "infos": 8035,
      "union": 8036,
      "unlink": 8037,
      "unlimited": 8038,
      "tract": 8039,
      "pauth": 8040,
      "Ġqmfb": 8041,
      "msgs": 8042,
      "Ġ'{": 8043,
      "Ġdatapagesfetched": 8044,
      "Ġarm": 8045,
      "Ġardp": 8046,
      "Ġmbcs": 8047,
      "Ġresname": 8048,
      "Ġresourcelimit": 8049,
      "protect": 8050,
      "Ġstructure": 8051,
      "resv": 8052,
      "filesize": 8053,
      "Ġparen": 8054,
      "Ġtrigger": 8055,
      "mbedded": 8056,
      "Ġprche": 8057,
      "Ġystep": 8058,
      "oom": 8059,
      "Ġgbl": 8060,
      "Ġgbat": 8061,
      "Ġparms": 8062,
      "Ġendloop": 8063,
      "opno": 8064,
      "memdup": 8065,
      "iod": 8066,
      "amine": 8067,
      "amaged": 8068,
      "Ġ?)\"": 8069,
      "Ġmaxcode": 8070,
      "Ġids": 8071,
      "comps": 8072,
      "Ġsubpicture": 8073,
      "Ġsubdir": 8074,
      "refere": 8075,
      "syllable": 8076,
      "iving": 8077,
      "Ġshdr": 8078,
      "Ġffalign": 8079,
      "Ġevpd": 8080,
      "lder": 8081,
      "deflate": 8082,
      "Ġlastkey": 8083,
      "Ġhttphdr": 8084,
      "Ġcounters": 8085,
      "Ġcompparms": 8086,
      "hdrlen": 8087,
      "Ġprintk": 8088,
      "Ġdefinition": 8089,
      "invalidate": 8090,
      "Ġserv": 8091,
      "Ġclk": 8092,
      "Ġ'\\\"'": 8093,
      "Ġupper": 8094,
      "Ġtaglist": 8095,
      "erex": 8096,
      "dirname": 8097,
      "dirty": 8098,
      "cbs": 8099,
      "memoryallocation": 8100,
      "rolname": 8101,
      "Ġrequested": 8102,
      "Ġreqpt": 8103,
      "attrs": 8104,
      "Ġinterlace": 8105,
      "Ġsome": 8106,
      "Ġ3276": 8107,
      "Ġfolder": 8108,
      "Ġxmlthrdef": 8109,
      "Ġpktransaction": 8110,
      "Ġolddb": 8111,
      "jobs": 8112,
      "Ġdba": 8113,
      "closed": 8114,
      "unichar": 8115,
      "nvic": 8116,
      "Ġauthp": 8117,
      "Ġdeclare": 8118,
      "defaultvalue": 8119,
      "Ġmajor": 8120,
      "srcadr": 8121,
      "incorrect": 8122,
      "neon": 8123,
      "Ġdccp": 8124,
      "Ġexpfill": 8125,
      "Ġ150": 8126,
      "Ġpgresult": 8127,
      "fpga": 8128,
      "Ġfrags": 8129,
      "Ġpubl": 8130,
      "finddata": 8131,
      "writable": 8132,
      "Ġfpmb": 8133,
      "Ġpqfnumber": 8134,
      "applctrl": 8135,
      "Ġexprcontext": 8136,
      "flushpkt": 8137,
      "Ġerdp": 8138,
      "Ġorigstate": 8139,
      "protocolstack": 8140,
      "Ġciph": 8141,
      "supportedmessages": 8142,
      "realize": 8143,
      "Ġwinfinddata": 8144,
      "Ġmdct": 8145,
      "optional": 8146,
      "Ġlayers": 8147,
      "Ġvmtx": 8148,
      "tiff": 8149,
      "Ġcapabilities": 8150,
      "pendingcustodianapproval": 8151,
      "valexpr": 8152,
      "sorted": 8153,
      "permissionstestextension": 8154,
      "Ġspecific": 8155,
      "Ġmcg": 8156,
      "Ġnlmsg": 8157,
      "555": 8158,
      "clamp": 8159,
      "Ġrsinfo": 8160,
      "Ġflatcontext": 8161,
      "Ġ\"/\"": 8162,
      "passive": 8163,
      "trailer": 8164,
      "coords": 8165,
      "lzo": 8166,
      "halfpix": 8167,
      "Ġbroken": 8168,
      "Ġconnected": 8169,
      "Ġpchglist": 8170,
      "Ġauthenticators": 8171,
      "strtoll": 8172,
      "Ġdatumgetbool": 8173,
      "reassembly": 8174,
      "Ġkev": 8175,
      "Ġhmtx": 8176,
      "cygwin": 8177,
      "htonu": 8178,
      "Ġexeceval": 8179,
      "Ġexecevalexpr": 8180,
      "sensitive": 8181,
      "cmstagtype": 8182,
      "Ġquestions": 8183,
      "Ġxslttransformerror": 8184,
      "havior": 8185,
      "dcbw": 8186,
      "Ġrcvrc": 8187,
      "Ġaddformdata": 8188,
      "Ġnupdateregionrects": 8189,
      "Ġresourcelimiterror": 8190,
      "Ġprcheight": 8191,
      "referer": 8192,
      "memoryallocationfailed": 8193,
      "+'": 8194,
      "/\"": 8195,
      "46": 8196,
      "88": 8197,
      "bc": 8198,
      "burst": 8199,
      "cstring": 8200,
      "dtp": 8201,
      "erent": 8202,
      "each": 8203,
      "fat": 8204,
      "ified": 8205,
      "lum": 8206,
      "lane": 8207,
      "lytest": 8208,
      "mk": 8209,
      "mkey": 8210,
      "mvp": 8211,
      "nat": 8212,
      "ossl": 8213,
      "oxed": 8214,
      "pur": 8215,
      "rfa": 8216,
      "rary": 8217,
      "spa": 8218,
      "smb": 8219,
      "ted": 8220,
      "wstring": 8221,
      "wild": 8222,
      "xslt": 8223,
      "zy": 8224,
      "zlib": 8225,
      "Ġiir": 8226,
      "Ġialloc": 8227,
      "Ġistream": 8228,
      "Ġisex": 8229,
      "retrans": 8230,
      "Ġsan": 8231,
      "Ġsink": 8232,
      "Ġcdata": 8233,
      "Ġccc": 8234,
      "erial": 8235,
      "erged": 8236,
      "stre": 8237,
      "separator": 8238,
      "Ġpem": 8239,
      "Ġpalloc": 8240,
      "ins": 8241,
      "inherit": 8242,
      "insensitive": 8243,
      "Ġtex": 8244,
      "Ġtlist": 8245,
      "deep": 8246,
      "deinit": 8247,
      "details": 8248,
      "detach": 8249,
      "Ġfis": 8250,
      "Ġfingerprint": 8251,
      "Ġmkt": 8252,
      "Ġmtime": 8253,
      "Ġmips": 8254,
      "Ġmtrr": 8255,
      "Ġmerged": 8256,
      "Ġreader": 8257,
      "Ġnlog": 8258,
      "Ġnentries": 8259,
      "Ġnstime": 8260,
      "Ġnmean": 8261,
      "Ġeagain": 8262,
      "alic": 8263,
      "Ġstkp": 8264,
      "Ġaout": 8265,
      "Ġvl": 8266,
      "Ġvfc": 8267,
      "Ġgtype": 8268,
      "Ġgdev": 8269,
      "Ġgconst": 8270,
      "Ġgui": 8271,
      "copts": 8272,
      "loper": 8273,
      "anded": 8274,
      "Ġinterrupt": 8275,
      "Ġrss": 8276,
      "tou": 8277,
      "tocentry": 8278,
      "mpa": 8279,
      "Ġ<%": 8280,
      "Ġstrptr": 8281,
      "Ġinner": 8282,
      "assigned": 8283,
      "isload": 8284,
      "apple": 8285,
      "getattr": 8286,
      "conly": 8287,
      "dataex": 8288,
      "lier": 8289,
      "limbs": 8290,
      "Ġqs": 8291,
      "Ġbufin": 8292,
      "Ġbufptr": 8293,
      "Ġ'+'": 8294,
      "ility": 8295,
      "Ġku": 8296,
      "Ġoutlen": 8297,
      "Ġoutcipher": 8298,
      "Ġ35": 8299,
      "lengths": 8300,
      "Ġ8192": 8301,
      "Ġispendingcustodianapproval": 8302,
      "Ġgetc": 8303,
      "printed": 8304,
      "Ġprid": 8305,
      "Ġprinter": 8306,
      "Ġymin": 8307,
      "oose": 8308,
      "Ġgboxed": 8309,
      "statistics": 8310,
      "Ġnumcmpts": 8311,
      "readonly": 8312,
      "jected": 8313,
      "imize": 8314,
      "Ġnamelen": 8315,
      "opp": 8316,
      "plite": 8317,
      "Ġmemchr": 8318,
      "scans": 8319,
      "odule": 8320,
      "Ġdisk": 8321,
      "subtract": 8322,
      "Ġsubno": 8323,
      "Ġsubstream": 8324,
      "Ġsubcel": 8325,
      "Ġsubkeys": 8326,
      "Ġlace": 8327,
      "Ġpoll": 8328,
      "Ġoptstr": 8329,
      "Ġnewsize": 8330,
      "Ġnewfp": 8331,
      "Ġnewsexp": 8332,
      "Ġmvcomp": 8333,
      "Ġbasebound": 8334,
      "Ġinfof": 8335,
      "Ġmsgcount": 8336,
      "Ġsymtab": 8337,
      "Ġlinep": 8338,
      "optsp": 8339,
      "mous": 8340,
      "Ġlistcell": 8341,
      "disconnect": 8342,
      "pended": 8343,
      "dbname": 8344,
      "dont": 8345,
      "writeint": 8346,
      "Ġdefiner": 8347,
      "ibility": 8348,
      "Ġvariable": 8349,
      "tshttptxnclient": 8350,
      "passwd": 8351,
      "recpos": 8352,
      "Ġpyexc": 8353,
      "notfound": 8354,
      "Ġfdc": 8355,
      "mainwin": 8356,
      "Ġsdf": 8357,
      "Ġstdin": 8358,
      "tmodule": 8359,
      "background": 8360,
      "\\\":": 8361,
      "Ġnodelist": 8362,
      "Ġcaptured": 8363,
      "registerex": 8364,
      "ules": 8365,
      "Ġforeach": 8366,
      "fromstring": 8367,
      "Ġloader": 8368,
      "condition": 8369,
      "Ġopenmode": 8370,
      "Ġusbm": 8371,
      "syncdata": 8372,
      "Ġrdra": 8373,
      "Ġauthoptsp": 8374,
      "generate": 8375,
      "rectheader": 8376,
      "Ġvacopts": 8377,
      "multiview": 8378,
      "Ġcolorant": 8379,
      "Ġmov": 8380,
      "destination": 8381,
      "Ġgrface": 8382,
      "Ġupdatefailed": 8383,
      "Ġaccept": 8384,
      "Ġlocked": 8385,
      "Ġmainwindow": 8386,
      "Ġbandno": 8387,
      "Ġrfbbool": 8388,
      "Ġvirtqueue": 8389,
      "Ġbuffp": 8390,
      "without": 8391,
      "srp": 8392,
      "Ġpqclear": 8393,
      "Ġppp": 8394,
      "swab": 8395,
      "labels": 8396,
      "rtjpeg": 8397,
      "Ġchunkhave": 8398,
      "Ġparserules": 8399,
      "chron": 8400,
      "Ġerrnop": 8401,
      "ternate": 8402,
      "Ġprefixbuffer": 8403,
      "Ġuconvertertounicode": 8404,
      "Ġdistance": 8405,
      "buildvalue": 8406,
      "Ġpersist": 8407,
      "Ġonlytest": 8408,
      "Ġxsltregisterex": 8409,
      "ught": 8410,
      "Ġtshttptxnreenable": 8411,
      "Ġregionmaps": 8412,
      "saveconfig": 8413,
      "Ġvmstate": 8414,
      "sical": 8415,
      "keepalive": 8416,
      "bitmaps": 8417,
      "Ġsshbuf": 8418,
      "Ġstackargs": 8419,
      "octets": 8420,
      "predictors": 8421,
      "Ġfeatures": 8422,
      "1970": 8423,
      "autocommit": 8424,
      "nbd": 8425,
      "Ġemptyarc": 8426,
      "Ġestimate": 8427,
      "Ġpostfilter": 8428,
      "Ġvmsave": 8429,
      "normalization": 8430,
      "Ġoperator": 8431,
      "kern": 8432,
      "Ġraster": 8433,
      "9999": 8434,
      "frac": 8435,
      "nesting": 8436,
      "front": 8437,
      "hashtableptr": 8438,
      "Ġassocid": 8439,
      "Ġxmllistptr": 8440,
      "Ġscaling": 8441,
      "superviseduser": 8442,
      "Ġadaptive": 8443,
      "Ġsubheads": 8444,
      "Ġdiagnosticinfo": 8445,
      "www": 8446,
      "Ġtranslationblock": 8447,
      "framebufferupdaterectheader": 8448,
      "Ġactivateparameters": 8449,
      "broadcast": 8450,
      "Ġtsmimehdr": 8451,
      "Ġgrown": 8452,
      "Ġmockpermissionrequestcreator": 8453,
      "translate": 8454,
      "epoch": 8455,
      "visor": 8456,
      "Ġparsearraysimple": 8457,
      "Ġxmllinkptr": 8458,
      "confirm": 8459,
      "Ġcapture": 8460,
      "Ġresolved": 8461,
      "Ġrfbsetbit": 8462,
      "multiplexing": 8463,
      "pieces": 8464,
      "localizedtext": 8465,
      "iotap": 8466,
      "Ġconsumed": 8467,
      "designs": 8468,
      "Ġsinkpad": 8469,
      "Ġgconstpointer": 8470,
      "isloadable": 8471,
      "tmodulefunction": 8472,
      "Ġonlytestisloadable": 8473,
      "Ġxsltregisterextmodulefunction": 8474,
      "')": 8475,
      "4000": 8476,
      "500": 8477,
      "66": 8478,
      "=--": 8479,
      "]'": 8480,
      "bnt": 8481,
      "bpp": 8482,
      "cate": 8483,
      "cmm": 8484,
      "cvt": 8485,
      "candidate": 8486,
      "dcc": 8487,
      "gost": 8488,
      "hang": 8489,
      "hold": 8490,
      "jis": 8491,
      "lst": 8492,
      "mf": 8493,
      "mig": 8494,
      "nk": 8495,
      "pfn": 8496,
      "rnd": 8497,
      "rptr": 8498,
      "rinter": 8499,
      "rusted": 8500,
      "squ": 8501,
      "slow": 8502,
      "vation": 8503,
      "xmov": 8504,
      "Ġ)\"": 8505,
      "Ġign": 8506,
      "Ġicoef": 8507,
      "Ġiarraylength": 8508,
      "rem": 8509,
      "remain": 8510,
      "redirect": 8511,
      "Ġcld": 8512,
      "ntuples": 8513,
      "selection": 8514,
      "Ġpan": 8515,
      "Ġpfree": 8516,
      "Ġppriv": 8517,
      "Ġtilt": 8518,
      "dep": 8519,
      "dealloc": 8520,
      "oname": 8521,
      "Ġmg": 8522,
      "Ġrend": 8523,
      "Ġrename": 8524,
      "Ġrecomp": 8525,
      "Ġreuse": 8526,
      "Ġrewind": 8527,
      "Ġifdebug": 8528,
      "Ġbhlen": 8529,
      "Ġbidi": 8530,
      "Ġbfu": 8531,
      "aram": 8532,
      "ctable": 8533,
      "Ġdname": 8534,
      "Ġdfile": 8535,
      "Ġdbuf": 8536,
      "Ġvvalue": 8537,
      "Ġvsub": 8538,
      "Ġvld": 8539,
      "Ġvfp": 8540,
      "Ġgro": 8541,
      "Ġgso": 8542,
      "loffset": 8543,
      "Ġ\")\"": 8544,
      "rof": 8545,
      "roxy": 8546,
      "routing": 8547,
      "Ġour": 8548,
      "Ġodd": 8549,
      "Ġhis": 8550,
      "Ġuh": 8551,
      "Ġures": 8552,
      "Ġucs": 8553,
      "Ġuprintf": 8554,
      "Ġupc": 8555,
      "Ġumd": 8556,
      "Ġintf": 8557,
      "silon": 8558,
      "peek": 8559,
      "ametr": 8560,
      "setiv": 8561,
      "zen": 8562,
      "Ġrptr": 8563,
      "agelist": 8564,
      "thoutput": 8565,
      "Ġconnt": 8566,
      "Ġwep": 8567,
      "Ġwbuff": 8568,
      "Ġstrxmov": 8569,
      "bucket": 8570,
      "Ġxmax": 8571,
      "abstract": 8572,
      "Ġelts": 8573,
      "Ġbump": 8574,
      "asr": 8575,
      "asse": 8576,
      "unrecognized": 8577,
      "consonant": 8578,
      "Ġfork": 8579,
      "Ġmydl": 8580,
      "past": 8581,
      "prf": 8582,
      "prime": 8583,
      "Ġ'[": 8584,
      "Ġ']'": 8585,
      "txfm": 8586,
      "Ġarc": 8587,
      "gnull": 8588,
      "Ġunsupported": 8589,
      "Ġexcept": 8590,
      "Ġextern": 8591,
      "entific": 8592,
      "tery": 8593,
      "odevice": 8594,
      "ofar": 8595,
      "bitblt": 8596,
      "protected": 8597,
      "Ġoutkey": 8598,
      "Ġuintmax": 8599,
      "6400": 8600,
      "idevice": 8601,
      "Ġgetnext": 8602,
      "Ġtri": 8603,
      "Ġprperm": 8604,
      "fork": 8605,
      "gso": 8606,
      "Ġnameserver": 8607,
      "quot": 8608,
      "prep": 8609,
      "predb": 8610,
      "iocore": 8611,
      "Ġencap": 8612,
      "Ġdia": 8613,
      "cientific": 8614,
      "scr": 8615,
      "Ġ16384": 8616,
      "Ġtsv": 8617,
      "compa": 8618,
      "Ġsubband": 8619,
      "synthesis": 8620,
      "Ġtmplen": 8621,
      "Ġshm": 8622,
      "Ġnewcmpt": 8623,
      "pcnet": 8624,
      "validation": 8625,
      "Ġcollector": 8626,
      "ftag": 8627,
      "Ġimcb": 8628,
      "Ġscwor": 8629,
      "Ġscidbl": 8630,
      "Ġcomplex": 8631,
      "Ġtesting": 8632,
      "Ġ\"%*": 8633,
      "checkpoint": 8634,
      "avt": 8635,
      "statuscode": 8636,
      "Ġqemud": 8637,
      "Ġindexcol": 8638,
      "Ġpyunicode": 8639,
      "notset": 8640,
      "pkts": 8641,
      "Ġformatbundle": 8642,
      "umprinter": 8643,
      "constant": 8644,
      "Ġoldval": 8645,
      "Ġhoststr": 8646,
      "would": 8647,
      "Ġticket": 8648,
      "failures": 8649,
      "syslog": 8650,
      "estsupervised": 8651,
      "syncing": 8652,
      "Ġrdsp": 8653,
      "Ġslurmdb": 8654,
      "Ġextensionservicet": 8655,
      "Ġtraverse": 8656,
      "selectable": 8657,
      "Ġquantizer": 8658,
      "Ġneeded": 8659,
      "queues": 8660,
      "Ġsegcounts": 8661,
      "Ġdocroot": 8662,
      "byval": 8663,
      "bypass": 8664,
      "sapi": 8665,
      "Ġpacktmp": 8666,
      "Ġpqntuples": 8667,
      "Ġappendat": 8668,
      "Ġsyncchangelist": 8669,
      "Ġerase": 8670,
      "commonstate": 8671,
      "Ġsmram": 8672,
      "ypid": 8673,
      "Ġvgacommonstate": 8674,
      "Ġhexfmt": 8675,
      "Ġmakeunique": 8676,
      "Ġoverwrite": 8677,
      "dllist": 8678,
      "foreign": 8679,
      "ovable": 8680,
      "Ġmarker": 8681,
      "armor": 8682,
      "advanced": 8683,
      "singleresult": 8684,
      "hfinfo": 8685,
      "schedul": 8686,
      "hcidump": 8687,
      "Ġtyplen": 8688,
      "Ġdrir": 8689,
      "Ġntoread": 8690,
      "superblock": 8691,
      "fffffff": 8692,
      "Ġidentity": 8693,
      "creds": 8694,
      "expire": 8695,
      "Ġpower": 8696,
      "quantummemory": 8697,
      "httptxntrans": 8698,
      "apshots": 8699,
      "Ġdescriptor": 8700,
      "diagnosticinfo": 8701,
      "pmns": 8702,
      "Ġvirtiodevice": 8703,
      "Ġtupdesc": 8704,
      "attempt": 8705,
      "opexpr": 8706,
      "program": 8707,
      "Ġcharerrorbufferlength": 8708,
      "echo": 8709,
      "clrchans": 8710,
      "Ġpassenger": 8711,
      "Ġmalformed": 8712,
      "Ġcompatible": 8713,
      "Ġmvsadcost": 8714,
      "Ġcephx": 8715,
      "Ġldap": 8716,
      "Ġalinelen": 8717,
      "Ġreceived": 8718,
      "immovable": 8719,
      "Ġeighttap": 8720,
      "physical": 8721,
      "Ġprocesssyncchanges": 8722,
      "symlinks": 8723,
      "Ġ'$'": 8724,
      "notsupported": 8725,
      "Ġoprsel": 8726,
      "luminance": 8727,
      "retransmit": 8728,
      "Ġuconvertertounicodeargs": 8729,
      "bntest": 8730,
      "Ġignoring": 8731,
      "Ġupcase": 8732,
      "thoutputting": 8733,
      "Ġscworthoutputting": 8734,
      "umprinterdataex": 8735,
      "Ġextensionservicetestsupervised": 8736,
      "-\"": 8737,
      "33": 8738,
      "82": 8739,
      ":/": 8740,
      "ah": 8741,
      "bet": 8742,
      "blend": 8743,
      "closure": 8744,
      "dual": 8745,
      "dconly": 8746,
      "irc": 8747,
      "kdb": 8748,
      "lpf": 8749,
      "nu": 8750,
      "nid": 8751,
      "ned": 8752,
      "opr": 8753,
      "pet": 8754,
      "pulses": 8755,
      "qos": 8756,
      "qpel": 8757,
      "sdp": 8758,
      "ttype": 8759,
      "till": 8760,
      "udev": 8761,
      "ulocale": 8762,
      "vnd": 8763,
      "xsave": 8764,
      "rence": 8765,
      "require": 8766,
      "removed": 8767,
      "Ġsout": 8768,
      "Ġsscr": 8769,
      "Ġcerr": 8770,
      "Ġccs": 8771,
      "stt": 8772,
      "strength": 8773,
      "Ġpaddr": 8774,
      "Ġpreserve": 8775,
      "atom": 8776,
      "incomplete": 8777,
      "instruction": 8778,
      "Ġfprecision": 8779,
      "Ġmn": 8780,
      "Ġmar": 8781,
      "Ġmsi": 8782,
      "Ġmip": 8783,
      "Ġmres": 8784,
      "Ġmsec": 8785,
      "Ġreplay": 8786,
      "Ġbf": 8787,
      "Ġbps": 8788,
      "Ġnsecs": 8789,
      "Ġnorm": 8790,
      "Ġemul": 8791,
      "Ġeov": 8792,
      "Ġembedded": 8793,
      "Ġaentry": 8794,
      "Ġdval": 8795,
      "Ġdft": 8796,
      "Ġdts": 8797,
      "Ġdtor": 8798,
      "Ġvart": 8799,
      "Ġvdsp": 8800,
      "Ġgatt": 8801,
      "Ġgvariant": 8802,
      "uris": 8803,
      "ffont": 8804,
      "Ġ\"?": 8805,
      "roved": 8806,
      "Ġhal": 8807,
      "Ġhint": 8808,
      "Ġhalt": 8809,
      "Ġunt": 8810,
      "Ġuch": 8811,
      "sim": 8812,
      "Ġretcode": 8813,
      "ulation": 8814,
      "intype": 8815,
      "utctime": 8816,
      "setattribute": 8817,
      "Ġreturnrate": 8818,
      "ptoa": 8819,
      "Ġrac": 8820,
      "Ġrsz": 8821,
      "toex": 8822,
      "Ġllong": 8823,
      "ndims": 8824,
      "Ġwdh": 8825,
      "Ġnulltest": 8826,
      "Ġdend": 8827,
      "umd": 8828,
      "bund": 8829,
      "Ġxs": 8830,
      "Ġxmin": 8831,
      "absolute": 8832,
      "Ġelt": 8833,
      "Ġstatistic": 8834,
      "Ġconstvalue": 8835,
      "unspec": 8836,
      "geti": 8837,
      "confir": 8838,
      "constraint": 8839,
      "Ġprovider": 8840,
      "upstream": 8841,
      "pam": 8842,
      "primitive": 8843,
      "Ġjunk": 8844,
      "nofail": 8845,
      "Ġargnull": 8846,
      "Ġunhex": 8847,
      "lamp": 8848,
      "Ġkmvc": 8849,
      "caf": 8850,
      "Ġ86400": 8851,
      "Ġpam": 8852,
      "ence": 8853,
      "Ġprime": 8854,
      "Ġerrsource": 8855,
      "Ġgbreg": 8856,
      "station": 8857,
      "Ġcmv": 8858,
      "Ġendgeti": 8859,
      "Ġkeyblocks": 8860,
      "endpoint": 8861,
      "listgroup": 8862,
      "immediate": 8863,
      "Ġcodererror": 8864,
      "opcip": 8865,
      "opdf": 8866,
      "memcmp": 8867,
      "cessary": 8868,
      "Ġfilespec": 8869,
      "pars": 8870,
      "Ġmaxcnt": 8871,
      "Ġmaxband": 8872,
      "Ġidouble": 8873,
      "tablelist": 8874,
      "Ġtou": 8875,
      "Ġaddenv": 8876,
      "odd": 8877,
      "Ġsubfrm": 8878,
      "Ġlack": 8879,
      "Ġpole": 8880,
      "Ġnewval": 8881,
      "Ġnewline": 8882,
      "Ġnewhead": 8883,
      "Ġrecur": 8884,
      "perms": 8885,
      "validator": 8886,
      "herical": 8887,
      "ftime": 8888,
      "oneg": 8889,
      "Ġthree": 8890,
      "Ġoutputchans": 8891,
      "Ġinputchannels": 8892,
      "Ġvirstrto": 8893,
      "started": 8894,
      "month": 8895,
      "packetized": 8896,
      "Ġstreami": 8897,
      "vents": 8898,
      "bigendian": 8899,
      "curr": 8900,
      "Ġuserp": 8901,
      "sbrm": 8902,
      "Ġbecause": 8903,
      "Ġapps": 8904,
      "Ġinitservices": 8905,
      "Ġ77": 8906,
      "Ġcpuinfo": 8907,
      "Ġupdat": 8908,
      "Ġgtkwindow": 8909,
      "Ġuseor": 8910,
      "Ġitemlen": 8911,
      "Ġopproc": 8912,
      "mainerror": 8913,
      "cbr": 8914,
      "Ġtmptup": 8915,
      "Ġ125": 8916,
      "tlsv": 8917,
      "ynamicwindow": 8918,
      "Ġsblimit": 8919,
      "Ġmean": 8920,
      "ordercnt": 8921,
      "copydevice": 8922,
      "Ġxmlget": 8923,
      "Ġxmlhashtableptr": 8924,
      "Ġabsolute": 8925,
      "=%\"": 8926,
      "Ġpaths": 8927,
      "Ġtiff": 8928,
      "netb": 8929,
      "executable": 8930,
      "rdonly": 8931,
      "Ġttc": 8932,
      "Ġpcidevice": 8933,
      "Ġtheint": 8934,
      "Ġextensionservices": 8935,
      "mday": 8936,
      "dpcm": 8937,
      "Ġsockpath": 8938,
      "Ġlibvnc": 8939,
      "Ġalloced": 8940,
      "Ġpartname": 8941,
      "Ġnelems": 8942,
      "Ġneighbor": 8943,
      "Ġattrbuf": 8944,
      "badr": 8945,
      "Ġstatsdir": 8946,
      "sanitize": 8947,
      "Ġpqfinish": 8948,
      "chunks": 8949,
      "Ġexprsingleresult": 8950,
      "Ġsyncdatal": 8951,
      "Ġusedynamicwindow": 8952,
      "genericdebug": 8953,
      "brk": 8954,
      "Ġdifferent": 8955,
      "Ġbackground": 8956,
      "Ġlinks": 8957,
      "installe": 8958,
      "msrs": 8959,
      "Ġesd": 8960,
      "enumerate": 8961,
      "Ġmday": 8962,
      "ategor": 8963,
      "Ġxsltgenericdebug": 8964,
      "Ġsavedconfig": 8965,
      "stopped": 8966,
      "ctrloffset": 8967,
      "invocation": 8968,
      "median": 8969,
      "anguagetag": 8970,
      "Ġvirlogoutputs": 8971,
      "dlg": 8972,
      "domains": 8973,
      "avps": 8974,
      "Ġbounding": 8975,
      "Ġaltref": 8976,
      "Ġhibound": 8977,
      "Ġattnum": 8978,
      "Ġoperation": 8979,
      "revoked": 8980,
      "ransfer": 8981,
      "Ġtyptup": 8982,
      "Ġlknew": 8983,
      "rcvrl": 8984,
      "Ġsplines": 8985,
      "Ġrestoreoptions": 8986,
      "Ġwavpackget": 8987,
      "Ġpointsize": 8988,
      "Ġoriginal": 8989,
      "Ġgnutls": 8990,
      "triggers": 8991,
      "Ġaccum": 8992,
      "Ġtinyint": 8993,
      "Ġsgnd": 8994,
      "descs": 8995,
      "Ġrndbuf": 8996,
      "Ġgetpixelchannels": 8997,
      "Ġvirtiopcip": 8998,
      "sqr": 8999,
      "Ġcollections": 9000,
      "Ġttlp": 9001,
      "synchron": 9002,
      "Ġacquirequantummemory": 9003,
      "Ġviolation": 9004,
      "ontal": 9005,
      "Ġimports": 9006,
      "Ġbrotlistate": 9007,
      "restricted": 9008,
      "Ġnhdrs": 9009,
      "battery": 9010,
      "crashed": 9011,
      "Ġstartp": 9012,
      "routine": 9013,
      "aggregset": 9014,
      "Ġmfindex": 9015,
      "Ġextent": 9016,
      "Ġhstartcol": 9017,
      "vrfy": 9018,
      "andednodeid": 9019,
      "jisx": 9020,
      "Ġ'['": 9021,
      "toexamine": 9022,
      "opdfread": 9023,
      "Ġidoublevalue": 9024,
      "Ġvirstrtolong": 9025,
      "Ġlibvncserver": 9026,
      "Ġsyncdatalist": 9027,
      "Ġvirtiopciproxy": 9028,
      "(?,": 9029,
      "39": 9030,
      "72": 9031,
      "94": 9032,
      "_\"": 9033,
      "aio": 9034,
      "bh": 9035,
      "bbox": 9036,
      "corr": 9037,
      "dw": 9038,
      "dhe": 9039,
      "eer": 9040,
      "ever": 9041,
      "eos": 9042,
      "egeneric": 9043,
      "eescape": 9044,
      "fprintf": 9045,
      "gl": 9046,
      "gss": 9047,
      "gold": 9048,
      "hz": 9049,
      "hanced": 9050,
      "iation": 9051,
      "iface": 9052,
      "jw": 9053,
      "kit": 9054,
      "oip": 9055,
      "rsp": 9056,
      "tw": 9057,
      "uum": 9058,
      "ufa": 9059,
      "vx": 9060,
      "xit": 9061,
      "xid": 9062,
      "xvmc": 9063,
      "you": 9064,
      "Ġurb": 9065,
      "Ġiconv": 9066,
      "replay": 9067,
      "Ġclen": 9068,
      "Ġcsi": 9069,
      "Ġcmm": 9070,
      "Ġcclass": 9071,
      "Ġclosure": 9072,
      "eries": 9073,
      "sty": 9074,
      "star": 9075,
      "stuple": 9076,
      "Ġpm": 9077,
      "Ġpname": 9078,
      "Ġppl": 9079,
      "Ġpenv": 9080,
      "Ġtfi": 9081,
      "Ġtbadr": 9082,
      "dend": 9083,
      "desegment": 9084,
      "Ġfread": 9085,
      "Ġfsec": 9086,
      "Ġfcenter": 9087,
      "Ġmtx": 9088,
      "Ġmtab": 9089,
      "Ġbry": 9090,
      "Ġbzero": 9091,
      "Ġbrx": 9092,
      "ctcp": 9093,
      "Ġnsegments": 9094,
      "Ġnelts": 9095,
      "Ġnano": 9096,
      "Ġnlimbs": 9097,
      "Ġecb": 9098,
      "Ġemalloc": 9099,
      "mess": 9100,
      "Ġaio": 9101,
      "Ġder": 9102,
      "Ġvsize": 9103,
      "Ġvref": 9104,
      "Ġgdbus": 9105,
      "coe": 9106,
      "coale": 9107,
      "cobject": 9108,
      "uring": 9109,
      "urcc": 9110,
      "lopt": 9111,
      "loope": 9112,
      "ffic": 9113,
      "Ġ\"&": 9114,
      "Ġ\"@": 9115,
      "room": 9116,
      "rounded": 9117,
      "Ġofb": 9118,
      "Ġosa": 9119,
      "Ġhs": 9120,
      "Ġuq": 9121,
      "Ġutm": 9122,
      "setlen": 9123,
      "setfield": 9124,
      "Ġrte": 9125,
      "Ġrsize": 9126,
      "Ġrice": 9127,
      "Ġrlc": 9128,
      "Ġcolour": 9129,
      "todo": 9130,
      "Ġlsb": 9131,
      "elp": 9132,
      "fout": 9133,
      "fourcc": 9134,
      "Ġconstraint": 9135,
      "Ġwatch": 9136,
      "Ġstrcase": 9137,
      "ionet": 9138,
      "Ġincompatible": 9139,
      "Ġdequeue": 9140,
      "Ġdesegment": 9141,
      "Ġdetail": 9142,
      "ates": 9143,
      "ceed": 9144,
      "busy": 9145,
      "strs": 9146,
      "Ġxfile": 9147,
      "Ġxwd": 9148,
      "Ġstatstr": 9149,
      "ascent": 9150,
      "uninit": 9151,
      "unescape": 9152,
      "lockout": 9153,
      "Ġprot": 9154,
      "Ġproper": 9155,
      "upd": 9156,
      "Ġqbits": 9157,
      "Ġqtos": 9158,
      "Ġjav": 9159,
      "uspended": 9160,
      "001": 9161,
      "ubits": 9162,
      "Ġbufmode": 9163,
      "Ġbufsiz": 9164,
      "txpkt": 9165,
      "164": 9166,
      "Ġexpre": 9167,
      "logs": 9168,
      "entire": 9169,
      "entropy": 9170,
      "dim": 9171,
      "dirent": 9172,
      "distribution": 9173,
      "Ġmbgraph": 9174,
      "bitchunk": 9175,
      "props": 9176,
      "Ġoutimage": 9177,
      "popt": 9178,
      "resses": 9179,
      "reshes": 9180,
      "filetype": 9181,
      "Ġiswrite": 9182,
      "mmr": 9183,
      "Ġpause": 9184,
      "Ġsrcport": 9185,
      "eng": 9186,
      "enumprinterdataex": 9187,
      "material": 9188,
      "Ġcmode": 9189,
      "Ġendian": 9190,
      "Ġkeyarray": 9191,
      "Ġerrorperbit": 9192,
      "should": 9193,
      "Ġnamelength": 9194,
      "Ġdstn": 9195,
      "clu": 9196,
      "outch": 9197,
      "Ġmaxval": 9198,
      "Ġmaxbitchunk": 9199,
      "acuum": 9200,
      "acelp": 9201,
      "scrolled": 9202,
      "Ġtounicodestatus": 9203,
      "Ġwhite": 9204,
      "bytestring": 9205,
      "Ġcontinu": 9206,
      "compos": 9207,
      "subclass": 9208,
      "initiate": 9209,
      "syms": 9210,
      "Ġato": 9211,
      "Ġattach": 9212,
      "Ġtmpdev": 9213,
      "Ġshell": 9214,
      "Ġnewconn": 9215,
      "Ġmvr": 9216,
      "filled": 9217,
      "Ġdoapr": 9218,
      "Ġffuncs": 9219,
      "Ġcpcodes": 9220,
      "Ġthreshes": 9221,
      "Ġnextvalue": 9222,
      "regular": 9223,
      "Ġsccp": 9224,
      "mont": 9225,
      "formations": 9226,
      "Ġdevices": 9227,
      "cfunction": 9228,
      "Ġplatform": 9229,
      "spx": 9230,
      "splay": 9231,
      "mbcsin": 9232,
      "Ġtempdata": 9233,
      "board": 9234,
      "acters": 9235,
      "udge": 9236,
      "udplite": 9237,
      "suite": 9238,
      "mize": 9239,
      "Ġskipflag": 9240,
      "versions": 9241,
      "Ġopfamily": 9242,
      "pixeltrait": 9243,
      "colorant": 9244,
      "Ġcaught": 9245,
      "Ġxmlgenericerror": 9246,
      "Ġpkalg": 9247,
      "xfffe": 9248,
      "Ġparseint": 9249,
      "Ġparsedate": 9250,
      "Ġpixeltrait": 9251,
      "Ġloff": 9252,
      "leton": 9253,
      "limits": 9254,
      "Ġdbnum": 9255,
      "syncchangelist": 9256,
      "Ġmapel": 9257,
      "diffserv": 9258,
      "supp": 9259,
      "Ġorg": 9260,
      "cancellable": 9261,
      "Ġparts": 9262,
      "methodinvocation": 9263,
      "ignoring": 9264,
      "Ġmainwin": 9265,
      "Ġtopic": 9266,
      "controller": 9267,
      "Ġcurradv": 9268,
      "weak": 9269,
      "Ġvirtionet": 9270,
      "Ġmatched": 9271,
      "helper": 9272,
      "Ġrelap": 9273,
      "workers": 9274,
      "Ġlower": 9275,
      "Ġroots": 9276,
      "Ġppf": 9277,
      "Ġindices": 9278,
      "compe": 9279,
      "irqs": 9280,
      "Ġccpopt": 9281,
      "Ġwithout": 9282,
      "Ġavaildata": 9283,
      "Ġenoent": 9284,
      "Ġhandling": 9285,
      "Ġedit": 9286,
      "pgp": 9287,
      "Ġperiod": 9288,
[...]
