{
  "version": "1.0",
  "truncation": null,
  "padding": null,
  "added_tokens": [
    {
      "id": 0,
      "content": "<s>",
      "single_word": false,
      "lstrip": false,
      "rstrip": false,
      "normalized": false,
      "special": true
    },
    {
      "id": 1,
      "content": "<pad>",
      "single_word": false,
      "lstrip": false,
      "rstrip": false,
      "normalized": false,
      "special": true
    },
    {
      "id": 2,
      "content": "</s>",
      "single_word": false,
      "lstrip": false,
      "rstrip": false,
      "normalized": false,
      "special": true
    },
    {
      "id": 3,
      "content": "<unk>",
      "single_word": false,
      "lstrip": false,
      "rstrip": false,
      "normalized": false,
      "special": true
    }
  ],
  "normalizer": {
    "type": "Lowercase"
  },
  "pre_tokenizer": {
    "type": "ByteLevel",
    "add_prefix_space": true,
    "trim_offsets": true,
    "use_regex": true
  },
  "post_processor": {
    "type": "ByteLevel",
    "add_prefix_space": true,
    "trim_offsets": true,
    "use_regex": true
  },
  "decoder": {
    "type": "ByteLevel",
    "add_prefix_space": true,
    "trim_offsets": true,
    "use_regex": true
  },
  "model": {
    "type": "BPE",
    "dropout": null,
    "unk_token": "<unk>",
    "continuing_subword_prefix": null,
    "end_of_word_suffix": null,
    "fuse_unk": false,
    "vocab": {
      "<s>": 0,
      "<pad>": 1,
      "</s>": 2,
      "<unk>": 3,
      "!": 4,
      "\"": 5,
      "#": 6,
      "$": 7,
      "%": 8,
      "&": 9,
      "'": 10,
      "(": 11,
      ")": 12,
      "*": 13,
      "+": 14,
      ",": 15,
      "-": 16,
      ".": 17,
      "/": 18,
      "0": 19,
      "1": 20,
      "2": 21,
      "3": 22,
      "4": 23,
      "5": 24,
      "6": 25,
      "7": 26,
      "8": 27,
      "9": 28,
      ":": 29,
      ";": 30,
      "<": 31,
      "=": 32,
      ">": 33,
      "?": 34,
      "@": 35,
      "A": 36,
      "B": 37,
      "C": 38,
      "D": 39,
      "E": 40,
      "F": 41,
      "G": 42,
      "H": 43,
      "I": 44,
      "J": 45,
      "K": 46,
      "L": 47,
      "M": 48,
      "N": 49,
      "O": 50,
      "P": 51,
      "Q": 52,
      "R": 53,
      "S": 54,
      "T": 55,
      "U": 56,
      "V": 57,
      "W": 58,
      "X": 59,
      "Y": 60,
      "Z": 61,
      "[": 62,
      "\\": 63,
      "]": 64,
      "^": 65,
      "_": 66,
      "`": 67,
      "a": 68,
      "b": 69,
      "c": 70,
      "d": 71,
      "e": 72,
      "f": 73,
      "g": 74,
      "h": 75,
      "i": 76,
      "j": 77,
      "k": 78,
      "l": 79,
      "m": 80,
      "n": 81,
      "o": 82,
      "p": 83,
      "q": 84,
      "r": 85,
      "s": 86,
      "t": 87,
      "u": 88,
      "v": 89,
      "w": 90,
      "x": 91,
      "y": 92,
      "z": 93,
      "{": 94,
      "|": 95,
      "}": 96,
      "~": 97,
      "¡": 98,
      "¢": 99,
      "£": 100,
      "¤": 101,
      "¥": 102,
      "¦": 103,
      "§": 104,
      "¨": 105,
      "©": 106,
      "ª": 107,
      "«": 108,
      "¬": 109,
      "®": 110,
      "¯": 111,
      "°": 112,
      "±": 113,
      "²": 114,
      "³": 115,
      "´": 116,
      "µ": 117,
      "¶": 118,
      "·": 119,
      "¸": 120,
      "¹": 121,
      "º": 122,
      "»": 123,
      "¼": 124,
      "½": 125,
      "¾": 126,
      "¿": 127,
      "À": 128,
      "Á": 129,
      "Â": 130,
      "Ã": 131,
      "Ä": 132,
      "Å": 133,
      "Æ": 134,
      "Ç": 135,
      "È": 136,
      "É": 137,
      "Ê": 138,
      "Ë": 139,
      "Ì": 140,
      "Í": 141,
      "Î": 142,
      "Ï": 143,
      "Ð": 144,
      "Ñ": 145,
      "Ò": 146,
      "Ó": 147,
      "Ô": 148,
      "Õ": 149,
      "Ö": 150,
      "×": 151,
      "Ø": 152,
      "Ù": 153,
      "Ú": 154,
      "Û": 155,
      "Ü": 156,
      "Ý": 157,
      "Þ": 158,
      "ß": 159,
      "à": 160,
      "á": 161,
      "â": 162,
      "ã": 163,
      "ä": 164,
      "å": 165,
      "æ": 166,
      "ç": 167,
      "è": 168,
      "é": 169,
      "ê": 170,
      "ë": 171,
      "ì": 172,
      "í": 173,
      "î": 174,
      "ï": 175,
      "ð": 176,
      "ñ": 177,
      "ò": 178,
      "ó": 179,
      "ô": 180,
      "õ": 181,
      "ö": 182,
      "÷": 183,
      "ø": 184,
      "ù": 185,
      "ú": 186,
      "û": 187,
      "ü": 188,
      "ý": 189,
      "þ": 190,
      "ÿ": 191,
      "Ā": 192,
      "ā": 193,
      "Ă": 194,
      "ă": 195,
      "Ą": 196,
      "ą": 197,
      "Ć": 198,
      "ć": 199,
      "Ĉ": 200,
      "ĉ": 201,
      "Ċ": 202,
      "ċ": 203,
      "Č": 204,
      "č": 205,
      "Ď": 206,
      "ď": 207,
      "Đ": 208,
      "đ": 209,
      "Ē": 210,
      "ē": 211,
      "Ĕ": 212,
      "ĕ": 213,
      "Ė": 214,
      "ė": 215,
      "Ę": 216,
      "ę": 217,
      "Ě": 218,
      "ě": 219,
      "Ĝ": 220,
      "ĝ": 221,
      "Ğ": 222,
      "ğ": 223,
      "Ġ": 224,
      "ġ": 225,
      "Ģ": 226,
      "ģ": 227,
      "Ĥ": 228,
      "ĥ": 229,
      "Ħ": 230,
      "ħ": 231,
      "Ĩ": 232,
      "ĩ": 233,
      "Ī": 234,
      "ī": 235,
      "Ĭ": 236,
      "ĭ": 237,
      "Į": 238,
      "į": 239,
      "İ": 240,
      "ı": 241,
      "Ĳ": 242,
      "ĳ": 243,
      "Ĵ": 244,
      "ĵ": 245,
      "Ķ": 246,
      "ķ": 247,
      "ĸ": 248,
      "Ĺ": 249,
      "ĺ": 250,
      "Ļ": 251,
      "ļ": 252,
      "Ľ": 253,
      "ľ": 254,
      "Ŀ": 255,
      "ŀ": 256,
      "Ł": 257,
      "ł": 258,
      "Ń": 259,
      "->": 260,
      "re": 261,
      "in": 262,
      "Ġ=": 263,
      "st": 264,
      ");": 265,
      "er": 266,
      "Ġi": 267,
      "de": 268,
      "se": 269,
      "Ġ(": 270,
      "Ġ*": 271,
      "Ġc": 272,
      "Ġs": 273,
      "at": 274,
      "en": 275,
      "Ġa": 276,
      "Ġ}": 277,
      "or": 278,
      "Ġt": 279,
      "on": 280,
      "Ġ{": 281,
      "Ġ0": 282,
      "int": 283,
      "Ġif": 284,
      "ct": 285,
      "Ġb": 286,
      "le": 287,
      "Ġf": 288,
      "lo": 289,
      "am": 290,
      "Ġre": 291,
      "it": 292,
      "Ġp": 293,
      "ar": 294,
      "si": 295,
      "al": 296,
      "co": 297,
      "et": 298,
      "ze": 299,
      "Ġav": 300,
      "ad": 301,
      "Ġ&": 302,
      "el": 303,
      "Ġ/": 304,
      "id": 305,
      "Ġm": 306,
      "ff": 307,
      "op": 308,
      "Ġg": 309,
      "ck": 310,
      "Ġv": 311,
      "Ġn": 312,
      "ur": 313,
      "an": 314,
      "Ġ1": 315,
      "Ġret": 316,
      "Ġ\"": 317,
      "Ġint": 318,
      "he": 319,
      "pu": 320,
      "Ġ/*": 321,
      "size": 322,
      "ic": 323,
      "Ġ*/": 324,
      "te": 325,
      "ase": 326,
      "un": 327,
      "err": 328,
      "mp": 329,
      "Ġ+": 330,
      "Ġd": 331,
      "ma": 332,
      "la": 333,
      "ame": 334,
      "set": 335,
      "ot": 336,
      "Ġst": 337,
      "ch": 338,
      "bu": 339,
      "Ġ<": 340,
      "ate": 341,
      "ul": 342,
      "pe": 343,
      "fi": 344,
      "em": 345,
      "di": 346,
      "dr": 347,
      "00": 348,
      "Ġ-": 349,
      "Ġcase": 350,
      "urn": 351,
      "Ġreturn": 352,
      "ctx": 353,
      "code": 354,
      "get": 355,
      "pr": 356,
      "tr": 357,
      "Ġr": 358,
      "Ġo": 359,
      "con": 360,
      "ex": 361,
      "ion": 362,
      "ut": 363,
      "av": 364,
      "32": 365,
      "io": 366,
      "Ġ%": 367,
      "ak": 368,
      "ata": 369,
      "ue": 370,
      "Ġq": 371,
      "Ġu": 372,
      "Ġw": 373,
      "Ġ==": 374,
      "reak": 375,
      "lock": 376,
      "))": 377,
      "Ġbreak": 378,
      "Ġh": 379,
      "ed": 380,
      "ty": 381,
      "mm": 382,
      "ing": 383,
      "dev": 384,
      "ss": 385,
      "64": 386,
      "error": 387,
      "(&": 388,
      "ab": 389,
      "\",": 390,
      "rame": 391,
      "else": 392,
      "len": 393,
      "Ġin": 394,
      "log": 395,
      "Ġ>": 396,
      "ce": 397,
      "Ġfor": 398,
      "rc": 399,
      "Ġ|": 400,
      "Ġelse": 401,
      "pa": 402,
      "type": 403,
      "Ġsi": 404,
      "pi": 405,
      "Ġ2": 406,
      "bit": 407,
      "++": 408,
      "ts": 409,
      "th": 410,
      "Ġthe": 411,
      "reg": 412,
      "um": 413,
      "li": 414,
      "data": 415,
      "sc": 416,
      "frame": 417,
      "pc": 418,
      "Ġcon": 419,
      "];": 420,
      "ro": 421,
      "val": 422,
      "ull": 423,
      "is": 424,
      "env": 425,
      "ode": 426,
      "us": 427,
      "str": 428,
      "Ġde": 429,
      "lag": 430,
      "Ġtc": 431,
      "cpu": 432,
      "buf": 433,
      "Ġsize": 434,
      "Ġ#": 435,
      "as": 436,
      "ig": 437,
      "ffset": 438,
      "Ġ!": 439,
      "ge": 440,
      "im": 441,
      "16": 442,
      "il": 443,
      "codec": 444,
      "ream": 445,
      "ir": 446,
      "Ġ&&": 447,
      "if": 448,
      "able": 449,
      "ps": 450,
      "Ġtcg": 451,
      "tex": 452,
      "dex": 453,
      "state": 454,
      "Ġuint": 455,
      "ine": 456,
      "ac": 457,
      "arget": 458,
      "Ġgen": 459,
      "of": 460,
      "mb": 461,
      "][": 462,
      "Ġ(!": 463,
      "addr": 464,
      "Ġstat": 465,
      "emu": 466,
      "Ġch": 467,
      "flag": 468,
      "Ġl": 469,
      "));": 470,
      "],": 471,
      "Ġcpu": 472,
      "bits": 473,
      "ice": 474,
      "Ġ%%": 475,
      "Ġnull": 476,
      "fo": 477,
      "text": 478,
      "up": 479,
      "),": 480,
      "oid": 481,
      "oto": 482,
      "avctx": 483,
      "and": 484,
      "stream": 485,
      "ter": 486,
      "ov": 487,
      "ra": 488,
      "ure": 489,
      "block": 490,
      "gb": 491,
      "out": 492,
      "Ġstatic": 493,
      "amp": 494,
      "read": 495,
      "put": 496,
      "iv": 497,
      "Ġ4": 498,
      "context": 499,
      "Ġff": 500,
      "++)": 501,
      "\");": 502,
      "ide": 503,
      "ol": 504,
      "art": 505,
      "loc": 506,
      "Ġto": 507,
      "Ġgoto": 508,
      "unt": 509,
      "Ġget": 510,
      "Ġ!=": 511,
      "ctor": 512,
      "Ġbu": 513,
      "Ġop": 514,
      "ample": 515,
      "Ġis": 516,
      "index": 517,
      "Ġ\\": 518,
      "sk": 519,
      "end": 520,
      "ster": 521,
      "no": 522,
      "mt": 523,
      "Ġx": 524,
      "fa": 525,
      "ffer": 526,
      "yte": 527,
      "igh": 528,
      "mat": 529,
      "ent": 530,
      "ptr": 531,
      "ext": 532,
      "offset": 533,
      "Ġqemu": 534,
      "sh": 535,
      "ub": 536,
      "pb": 537,
      "Ġconst": 538,
      "Ġar": 539,
      "cket": 540,
      "init": 541,
      "sp": 542,
      "ile": 543,
      "Ġ//": 544,
      "ne": 545,
      "to": 546,
      "Ġvoid": 547,
      "rit": 548,
      "num": 549,
      "Ġ3": 550,
      "].": 551,
      "Ġ||": 552,
      "nt": 553,
      "ort": 554,
      "ci": 555,
      "Ġ((": 556,
      "Ġ>>": 557,
      "count": 558,
      "nel": 559,
      "fd": 560,
      "sig": 561,
      "ree": 562,
      "mem": 563,
      "Ġ+=": 564,
      "add": 565,
      "que": 566,
      "ult": 567,
      "Ġ8": 568,
      "kt": 569,
      "ap": 570,
      "Ġtarget": 571,
      "ip": 572,
      "sample": 573,
      "fmt": 574,
      "ight": 575,
      "rite": 576,
      "Ġ<<": 577,
      "bs": 578,
      "Ġco": 579,
      "ix": 580,
      "Ġad": 581,
      "ret": 582,
      "table": 583,
      "pix": 584,
      "ref": 585,
      "po": 586,
      "Ġe": 587,
      "idth": 588,
      "head": 589,
      "src": 590,
      "name": 591,
      "for": 592,
      "tim": 593,
      "flags": 594,
      "buffer": 595,
      "info": 596,
      "gen": 597,
      "Ġse": 598,
      "list": 599,
      "pre": 600,
      "(\"": 601,
      "Ġbuf": 602,
      "Ġun": 603,
      "ver": 604,
      "max": 605,
      "arg": 606,
      "free": 607,
      "cp": 608,
      "Ġth": 609,
      "mov": 610,
      "Ġmem": 611,
      "line": 612,
      "Ġval": 613,
      "Ġsizeof": 614,
      "per": 615,
      "cture": 616,
      "ation": 617,
      "intf": 618,
      "device": 619,
      "nd": 620,
      "Ġj": 621,
      "base": 622,
      "Ġk": 623,
      "fil": 624,
      "ph": 625,
      "par": 626,
      "Ġerror": 627,
      "Ġex": 628,
      "Ġout": 629,
      "Ġy": 630,
      "Ġchar": 631,
      "header": 632,
      "0000": 633,
      "Ġstr": 634,
      "dst": 635,
      "sn": 636,
      "chan": 637,
      "Ġsrc": 638,
      "map": 639,
      "drv": 640,
      "Ġarg": 641,
      "endi": 642,
      "ta": 643,
      "lu": 644,
      "ob": 645,
      "ow": 646,
      "mv": 647,
      "write": 648,
      "Ġtmp": 649,
      "file": 650,
      "mask": 651,
      "Ġ:": 652,
      "nc": 653,
      "start": 654,
      "width": 655,
      "height": 656,
      "ys": 657,
      "Ġblock": 658,
      "Ġcode": 659,
      "ack": 660,
      "dc": 661,
      "alloc": 662,
      "]);": 663,
      "ost": 664,
      "ly": 665,
      "Ġreg": 666,
      "cur": 667,
      "ory": 668,
      "filter": 669,
      "printf": 670,
      "fault": 671,
      "md": 672,
      "();": 673,
      "tmp": 674,
      "Ġ'": 675,
      "sign": 676,
      "Ġavctx": 677,
      "tion": 678,
      "def": 679,
      "es": 680,
      "endif": 681,
      "packet": 682,
      "Ġoffset": 683,
      "uct": 684,
      "Ġfa": 685,
      "Ġbe": 686,
      "format": 687,
      "ms": 688,
      "stat": 689,
      "picture": 690,
      "bus": 691,
      "load": 692,
      "tx": 693,
      "Ġdo": 694,
      "inval": 695,
      "Ġlen": 696,
      "mode": 697,
      "Ġ16": 698,
      "ister": 699,
      "heck": 700,
      "Ġal": 701,
      "Ġpa": 702,
      "Ġma": 703,
      "Ġwe": 704,
      "Ġsw": 705,
      "Ġenv": 706,
      "Ġ?": 707,
      "Ġne": 708,
      "cb": 709,
      "ert": 710,
      "qu": 711,
      "channel": 712,
      "sub": 713,
      "sl": 714,
      "res": 715,
      "Ġnot": 716,
      "Ġen": 717,
      "000": 718,
      "der": 719,
      "ong": 720,
      "lk": 721,
      "lay": 722,
      "fig": 723,
      "time": 724,
      "me": 725,
      "be": 726,
      "nb": 727,
      "pkt": 728,
      "fe": 729,
      "target": 730,
      "rent": 731,
      "byte": 732,
      "Ġwh": 733,
      "Ġaverror": 734,
      "ram": 735,
      "cr": 736,
      "itch": 737,
      "new": 738,
      "last": 739,
      "lev": 740,
      "ec": 741,
      "Ġof": 742,
      "Ġpr": 743,
      "Ġbyte": 744,
      "uint": 745,
      "tl": 746,
      "Ġframe": 747,
      "vm": 748,
      "level": 749,
      "comp": 750,
      "port": 751,
      "ld": 752,
      "ale": 753,
      "signed": 754,
      "dio": 755,
      "ect": 756,
      "Ġ>=": 757,
      "temp": 758,
      "Ġdst": 759,
      "au": 760,
      "Ġbdrv": 761,
      "irt": 762,
      "Ġpci": 763,
      "ift": 764,
      "sion": 765,
      "tb": 766,
      "ind": 767,
      "idx": 768,
      "insn": 769,
      "sector": 770,
      "Ġaddr": 771,
      "ress": 772,
      "Ġctx": 773,
      "Ġsc": 774,
      "value": 775,
      "ache": 776,
      "){": 777,
      "irq": 778,
      "low": 779,
      "pci": 780,
      "nr": 781,
      "Ġon": 782,
      "Ġswitch": 783,
      "Ġsh": 784,
      "user": 785,
      "ject": 786,
      "ideo": 787,
      "ted": 788,
      "Ġdata": 789,
      "uv": 790,
      "Ġnb": 791,
      "pic": 792,
      "Ġtr": 793,
      "rate": 794,
      "so": 795,
      "opts": 796,
      "ser": 797,
      "region": 798,
      "((": 799,
      "luster": 800,
      "try": 801,
      "pl": 802,
      "Ġcodec": 803,
      "12": 804,
      "Ġerr": 805,
      "Ġavio": 806,
      "ey": 807,
      "ssert": 808,
      "Ġso": 809,
      "Ġmb": 810,
      "ave": 811,
      "eld": 812,
      "lename": 813,
      "stride": 814,
      "Ġfail": 815,
      "Ġ_": 816,
      "Ġand": 817,
      "status": 818,
      "Ġbit": 819,
      "pos": 820,
      "ction": 821,
      "Ġ.": 822,
      "aque": 823,
      "red": 824,
      "ith": 825,
      "bug": 826,
      "linesize": 827,
      "sy": 828,
      "bo": 829,
      "cc": 830,
      "Ġregister": 831,
      "pixel": 832,
      "Ġ5": 833,
      "Ġdefault": 834,
      "req": 835,
      "Ġ|=": 836,
      "min": 837,
      "++;": 838,
      "Ġpix": 839,
      "scale": 840,
      "lc": 841,
      "Ġ6": 842,
      "invalid": 843,
      "dir": 844,
      "ant": 845,
      "pro": 846,
      "ffff": 847,
      "gth": 848,
      "rd": 849,
      "rom": 850,
      "param": 851,
      "os": 852,
      "Ġ*)": 853,
      "inter": 854,
      "])": 855,
      "config": 856,
      "fs": 857,
      "Ġset": 858,
      "loat": 859,
      "Ġunsigned": 860,
      "Ġcheck": 861,
      "10": 862,
      "ive": 863,
      "Ġbs": 864,
      "prop": 865,
      "ath": 866,
      "rl": 867,
      "priv": 868,
      "Ġmax": 869,
      "enc": 870,
      "fl": 871,
      "iov": 872,
      "all": 873,
      "ag": 874,
      "cs": 875,
      "cess": 876,
      "ature": 877,
      "filename": 878,
      "ep": 879,
      "chr": 880,
      "adata": 881,
      "cmd": 882,
      "ft": 883,
      "elper": 884,
      "next": 885,
      "ore": 886,
      "ype": 887,
      "sw": 888,
      "Ġwhile": 889,
      "audio": 890,
      "cache": 891,
      "qemu": 892,
      "Ġas": 893,
      "irtio": 894,
      "tc": 895,
      "one": 896,
      "video": 897,
      "sb": 898,
      "slice": 899,
      "Ġindex": 900,
      "ink": 901,
      "cond": 902,
      "roma": 903,
      "decode": 904,
      "shift": 905,
      "host": 906,
      "Ġcur": 907,
      "Ġ7": 908,
      "act": 909,
      "regs": 910,
      "Ġpre": 911,
      "Ġinit": 912,
      "xf": 913,
      "page": 914,
      "sed": 915,
      "key": 916,
      "und": 917,
      "errp": 918,
      "memory": 919,
      "ial": 920,
      "fdt": 921,
      "ard": 922,
      "col": 923,
      "date": 924,
      "lem": 925,
      "opt": 926,
      "Ġvalue": 927,
      "Ġthis": 928,
      "ve": 929,
      "dict": 930,
      "cluster": 931,
      "Ġmemory": 932,
      "malloc": 933,
      "unk": 934,
      "ifdef": 935,
      "Ġput": 936,
      "ord": 937,
      "Ġit": 938,
      "fp": 939,
      "rect": 940,
      "zer": 941,
      "pts": 942,
      "field": 943,
      "streams": 944,
      "Ġfil": 945,
      "samples": 946,
      "unc": 947,
      "py": 948,
      "struct": 949,
      "helper": 950,
      "Ġnum": 951,
      "Ġpkt": 952,
      "sr": 953,
      "mu": 954,
      "Ġtype": 955,
      "feature": 956,
      "not": 957,
      "br": 958,
      "Ġread": 959,
      "local": 960,
      "24": 961,
      "Ġac": 962,
      "quest": 963,
      "xx": 964,
      "coder": 965,
      "do": 966,
      "current": 967,
      "Ġadd": 968,
      "channels": 969,
      "tab": 970,
      "Ġstruct": 971,
      "opaque": 972,
      "Ġte": 973,
      "Ġat": 974,
      "back": 975,
      "debug": 976,
      "mo": 977,
      "Ġdc": 978,
      "tag": 979,
      "reate": 980,
      "]=": 981,
      "Ġbo": 982,
      "Ġstart": 983,
      "void": 984,
      "Ġnew": 985,
      "ok": 986,
      "Ġflag": 987,
      "vc": 988,
      "lass": 989,
      "du": 990,
      "const": 991,
      "--": 992,
      "vlc": 993,
      "left": 994,
      "Ġ12": 995,
      "Ġ<=": 996,
      "sectors": 997,
      "band": 998,
      "264": 999,
      "Ġno": 1000,
      "ist": 1001,
      "hand": 1002,
      "entry": 1003,
      "Ġpro": 1004,
      "Ġend": 1005,
      "errno": 1006,
      "cep": 1007,
      "Ġ32": 1008,
      "has": 1009,
      "cmp": 1010,
      "xy": 1011,
      "eff": 1012,
      "zero": 1013,
      "ask": 1014,
      "Ġload": 1015,
      "Ġtim": 1016,
      "Ġ~": 1017,
      "Ġheader": 1018,
      "input": 1019,
      "Ġor": 1020,
      "std": 1021,
      "Ġbytestream": 1022,
      "56": 1023,
      "ity": 1024,
      "output": 1025,
      "Ġid": 1026,
      "length": 1027,
      "chroma": 1028,
      "Ġrd": 1029,
      "ber": 1030,
      "hci": 1031,
      "extr": 1032,
      "Ġstream": 1033,
      "ga": 1034,
      "Ġres": 1035,
      "gn": 1036,
      "Ġ10": 1037,
      "ange": 1038,
      "path": 1039,
      "ernel": 1040,
      "string": 1041,
      "Ġ__": 1042,
      "desc": 1043,
      "spa": 1044,
      "Ġpar": 1045,
      "object": 1046,
      "uld": 1047,
      "86": 1048,
      "(*": 1049,
      "ment": 1050,
      "Ġline": 1051,
      "por": 1052,
      "hw": 1053,
      "ane": 1054,
      "pp": 1055,
      "mage": 1056,
      "Ġvirtio": 1057,
      "xff": 1058,
      "eg": 1059,
      "Ġdef": 1060,
      "ign": 1061,
      "intra": 1062,
      "20": 1063,
      "peg": 1064,
      "iver": 1065,
      "ev": 1066,
      "ies": 1067,
      "link": 1068,
      "fg": 1069,
      "rr": 1070,
      "Ġnext": 1071,
      "ips": 1072,
      "\";": 1073,
      "fix": 1074,
      "met": 1075,
      "timer": 1076,
      "ined": 1077,
      "blk": 1078,
      "cli": 1079,
      "Ġdevice": 1080,
      "Ġ**": 1081,
      "Ġcomp": 1082,
      "Ġtra": 1083,
      "Ġfd": 1084,
      "align": 1085,
      "Ġopc": 1086,
      "80": 1087,
      "ition": 1088,
      "lab": 1089,
      "thread": 1090,
      "class": 1091,
      "pred": 1092,
      "wa": 1093,
      "Ġwith": 1094,
      "Ġpc": 1095,
      "address": 1096,
      "Ġsample": 1097,
      "vp": 1098,
      "mc": 1099,
      "mmx": 1100,
      "args": 1101,
      "Ġdi": 1102,
      "bytes": 1103,
      "Ġ)": 1104,
      "Ġfprintf": 1105,
      "queue": 1106,
      "Ġflags": 1107,
      "check": 1108,
      "qp": 1109,
      "cpy": 1110,
      "Ġdis": 1111,
      "Ġmode": 1112,
      "Ġref": 1113,
      "uest": 1114,
      "Ġbuffer": 1115,
      "option": 1116,
      "scsi": 1117,
      "ans": 1118,
      "gr": 1119,
      "nal": 1120,
      "frames": 1121,
      "aio": 1122,
      "Ġrt": 1123,
      "(%": 1124,
      "yuv": 1125,
      "Ġsl": 1126,
      "11": 1127,
      "ception": 1128,
      "Ġassert": 1129,
      "ize": 1130,
      "assert": 1131,
      "Ġ-=": 1132,
      "xmm": 1133,
      "rt": 1134,
      "phys": 1135,
      "ded": 1136,
      "skip": 1137,
      "coded": 1138,
      "dest": 1139,
      "ents": 1140,
      "net": 1141,
      "func": 1142,
      "edge": 1143,
      "Ġ9": 1144,
      "Ġ\"\\": 1145,
      "Ġare": 1146,
      "pcm": 1147,
      "Ġsk": 1148,
      "driver": 1149,
      "Ġthat": 1150,
      "stderr": 1151,
      "ek": 1152,
      "Ġmv": 1153,
      "ler": 1154,
      "open": 1155,
      "Ġpos": 1156,
      "Ġpic": 1157,
      "Ġskip": 1158,
      "dec": 1159,
      "otion": 1160,
      "enable": 1161,
      "comm": 1162,
      "pha": 1163,
      "sizeof": 1164,
      ":%": 1165,
      "null": 1166,
      "create": 1167,
      "Ġup": 1168,
      "vs": 1169,
      "otal": 1170,
      "ls": 1171,
      "',": 1172,
      "rgb": 1173,
      "reset": 1174,
      "Ġob": 1175,
      "Ġwrite": 1176,
      "Ġan": 1177,
      "Ġfloat": 1178,
      "==": 1179,
      "lim": 1180,
      ">>": 1181,
      "]->": 1182,
      "pixels": 1183,
      "'t": 1184,
      "Ġfile": 1185,
      "spr": 1186,
      "fc": 1187,
      "seg": 1188,
      "quant": 1189,
      "Ġwidth": 1190,
      "Ġmemcpy": 1191,
      "Ġio": 1192,
      "Ġhave": 1193,
      "=%": 1194,
      "cel": 1195,
      "request": 1196,
      "Ġsub": 1197,
      "Ġrn": 1198,
      "tin": 1199,
      "**": 1200,
      "Ġinfo": 1201,
      "ding": 1202,
      "ulong": 1203,
      "off": 1204,
      "Ġpi": 1205,
      "invaliddata": 1206,
      "Ġ(*": 1207,
      "Ġdev": 1208,
      "ush": 1209,
      "use": 1210,
      "errup": 1211,
      "fn": 1212,
      "uration": 1213,
      "conf": 1214,
      "mpeg": 1215,
      "Ġtemp": 1216,
      "ust": 1217,
      "Ġtrue": 1218,
      "cow": 1219,
      "mmu": 1220,
      "movq": 1221,
      "Ġvnc": 1222,
      ")))": 1223,
      "Ġfi": 1224,
      "sync": 1225,
      "Ġoutput": 1226,
      "ary": 1227,
      "register": 1228,
      "now": 1229,
      "lb": 1230,
      "om": 1231,
      "atch": 1232,
      "iled": 1233,
      "extradata": 1234,
      "update": 1235,
      "Ġarm": 1236,
      "copy": 1237,
      "pect": 1238,
      "Ġsd": 1239,
      "Ġost": 1240,
      "Ġcan": 1241,
      "Ġconfig": 1242,
      "Ġpacket": 1243,
      "rb": 1244,
      "Ġmov": 1245,
      "scan": 1246,
      "ctl": 1247,
      "ray": 1248,
      "trol": 1249,
      "Ġpixel": 1250,
      "run": 1251,
      "Ġusb": 1252,
      "word": 1253,
      "dsp": 1254,
      "Ġ\"%": 1255,
      "long": 1256,
      "Ġsector": 1257,
      "Ġot": 1258,
      "Ġ&=": 1259,
      "Ġ(!(": 1260,
      "pth": 1261,
      "Ġfilter": 1262,
      "Ġkvm": 1263,
      "Ġlast": 1264,
      "medi": 1265,
      "Ġblk": 1266,
      "alse": 1267,
      "Ġsup": 1268,
      "decoder": 1269,
      "ios": 1270,
      "Ġhas": 1271,
      "strc": 1272,
      "plane": 1273,
      "pict": 1274,
      ")(": 1275,
      "ated": 1276,
      "Ġtime": 1277,
      "Ġfir": 1278,
      "Ġdefined": 1279,
      "cfg": 1280,
      "let": 1281,
      "tinue": 1282,
      "coeff": 1283,
      "Ġfrom": 1284,
      "Ġdecode": 1285,
      "version": 1286,
      "ds": 1287,
      "__": 1288,
      "chine": 1289,
      "Ġcount": 1290,
      "blocks": 1291,
      "order": 1292,
      "Ġbits": 1293,
      "ild": 1294,
      "Ġmemset": 1295,
      "gpr": 1296,
      "lose": 1297,
      "obj": 1298,
      "store": 1299,
      "ported": 1300,
      "Ġchan": 1301,
      "Ġband": 1302,
      "Ġmin": 1303,
      "eno": 1304,
      "errupt": 1305,
      "tcg": 1306,
      "einval": 1307,
      "44": 1308,
      "opc": 1309,
      "Ġlevel": 1310,
      "setg": 1311,
      "dp": 1312,
      "Ġpage": 1313,
      "float": 1314,
      "Ġfirst": 1315,
      "valid": 1316,
      "fir": 1317,
      "Ġfalse": 1318,
      "report": 1319,
      "loop": 1320,
      "Ġcontinue": 1321,
      "old": 1322,
      "Ġspa": 1323,
      "coding": 1324,
      "Ġbytes": 1325,
      "Ġuse": 1326,
      "Ġau": 1327,
      "Ġab": 1328,
      "test": 1329,
      "rx": 1330,
      "Ġpow": 1331,
      "cap": 1332,
      "Ġrs": 1333,
      "uid": 1334,
      "15": 1335,
      "sps": 1336,
      "arm": 1337,
      "itor": 1338,
      "disp": 1339,
      "ml": 1340,
      "Ġmask": 1341,
      "Ġtcgv": 1342,
      "Ġist": 1343,
      "Ġexit": 1344,
      "params": 1345,
      "\"\\": 1346,
      "erty": 1347,
      "pack": 1348,
      "Ġ[": 1349,
      "Ġhw": 1350,
      "Ġqdev": 1351,
      "event": 1352,
      "Ġname": 1353,
      "Ġobject": 1354,
      "sup": 1355,
      "Ġram": 1356,
      "lta": 1357,
      "face": 1358,
      "color": 1359,
      "ri": 1360,
      "codeccontext": 1361,
      "Ġpower": 1362,
      "Ġ(%": 1363,
      "Ġtb": 1364,
      "ctrl": 1365,
      "xb": 1366,
      "Ġpl": 1367,
      "ped": 1368,
      "ai": 1369,
      "pend": 1370,
      "Ġ%%\"": 1371,
      "aps": 1372,
      "dma": 1373,
      "Ġvs": 1374,
      "uff": 1375,
      "we": 1376,
      "Ġstride": 1377,
      "enomem": 1378,
      "ers": 1379,
      "Ġptr": 1380,
      "mon": 1381,
      "rix": 1382,
      "ning": 1383,
      "Ġtable": 1384,
      "Ġalloc": 1385,
      "13": 1386,
      "Ġbool": 1387,
      "..": 1388,
      "Ġdr": 1389,
      "Ġlong": 1390,
      "own": 1391,
      "bdrv": 1392,
      "core": 1393,
      "pm": 1394,
      "Ġby": 1395,
      "vector": 1396,
      "char": 1397,
      "space": 1398,
      "driverstate": 1399,
      "model": 1400,
      "first": 1401,
      "ound": 1402,
      "ify": 1403,
      "Ġaddress": 1404,
      "Ġmo": 1405,
      "Ġ);": 1406,
      "hot": 1407,
      "number": 1408,
      "xa": 1409,
      "Ġz": 1410,
      "Ġ64": 1411,
      "exp": 1412,
      "limit": 1413,
      "db": 1414,
      "Ġsys": 1415,
      "vdev": 1416,
      "xl": 1417,
      "dts": 1418,
      "Ġcb": 1419,
      "age": 1420,
      "exception": 1421,
      "yp": 1422,
      "mplem": 1423,
      "Ġcc": 1424,
      "Ġsn": 1425,
      "den": 1426,
      "top": 1427,
      "Ġhand": 1428,
      "leg": 1429,
      "Ġ$": 1430,
      "ren": 1431,
      "hdr": 1432,
      "<<": 1433,
      "point": 1434,
      "kernel": 1435,
      "26": 1436,
      "enabled": 1437,
      "sum": 1438,
      "ance": 1439,
      "Ġdesc": 1440,
      "idct": 1441,
      "Ġrun": 1442,
      ")));": 1443,
      "Ġdest": 1444,
      "ast": 1445,
      "ns": 1446,
      "Ġvec": 1447,
      "options": 1448,
      "property": 1449,
      "client": 1450,
      "xffff": 1451,
      "Ġlog": 1452,
      "node": 1453,
      "parse": 1454,
      "Ġshift": 1455,
      "label": 1456,
      "Ġinput": 1457,
      "ould": 1458,
      "ual": 1459,
      "Ġonly": 1460,
      ".\\": 1461,
      "excp": 1462,
      "Ġlist": 1463,
      "Ġmap": 1464,
      "(!": 1465,
      "urce": 1466,
      "Ġheight": 1467,
      "Ġpowerpc": 1468,
      "40": 1469,
      "fr": 1470,
      "attr": 1471,
      "Ġsign": 1472,
      "chunk": 1473,
      "Ġsy": 1474,
      "Ġtag": 1475,
      "dis": 1476,
      "gp": 1477,
      "Ġhost": 1478,
      "image": 1479,
      "Ġback": 1480,
      "raw": 1481,
      "02": 1482,
      "Ġcop": 1483,
      "55": 1484,
      "tries": 1485,
      "rip": 1486,
      "pass": 1487,
      "vq": 1488,
      "cal": 1489,
      "Ġvc": 1490,
      "media": 1491,
      "Ġchannel": 1492,
      "track": 1493,
      "are": 1494,
      "Ġ};": 1495,
      "()": 1496,
      "gh": 1497,
      "Ġ15": 1498,
      "sd": 1499,
      "handle": 1500,
      "*)": 1501,
      "Ġle": 1502,
      "Ġspe": 1503,
      "row": 1504,
      "layout": 1505,
      "hd": 1506,
      "rag": 1507,
      "ector": 1508,
      "Ġold": 1509,
      "Ġall": 1510,
      "':": 1511,
      "lash": 1512,
      "sys": 1513,
      "range": 1514,
      "used": 1515,
      "Ġcmd": 1516,
      "Ġformat": 1517,
      "ping": 1518,
      "Ġaudio": 1519,
      "fore": 1520,
      "ake": 1521,
      "cryp": 1522,
      "Ġsamples": 1523,
      "indow": 1524,
      "lac": 1525,
      "matrix": 1526,
      "uble": 1527,
      "delay": 1528,
      "ail": 1529,
      "Ġneed": 1530,
      "sent": 1531,
      "Ġextr": 1532,
      "lette": 1533,
      "mx": 1534,
      "prog": 1535,
      "only": 1536,
      "conne": 1537,
      "server": 1538,
      "her": 1539,
      "Ġopaque": 1540,
      "ops": 1541,
      "ill": 1542,
      "Ġdprintf": 1543,
      "clock": 1544,
      "sel": 1545,
      "find": 1546,
      "Ġoff": 1547,
      "mpu": 1548,
      "qscale": 1549,
      "Ġbase": 1550,
      "handler": 1551,
      "Ġrc": 1552,
      "Ġopen": 1553,
      "Ġfl": 1554,
      "aut": 1555,
      "url": 1556,
      "Ġtci": 1557,
      "depth": 1558,
      "Ġfp": 1559,
      "Ġstate": 1560,
      "ble": 1561,
      "Ġcurrent": 1562,
      "++){": 1563,
      "Ġtrace": 1564,
      "sse": 1565,
      "Ġev": 1566,
      "50": 1567,
      "oc": 1568,
      "rs": 1569,
      "Ġhe": 1570,
      "lete": 1571,
      "mul": 1572,
      "form": 1573,
      "Ġcol": 1574,
      "freep": 1575,
      "drm": 1576,
      "book": 1577,
      "ppc": 1578,
      "Ġcopy": 1579,
      "gic": 1580,
      "Ġoption": 1581,
      "Ġargs": 1582,
      "go": 1583,
      "Ġvis": 1584,
      "arch": 1585,
      "non": 1586,
      "Ġupdate": 1587,
      "Ġspapr": 1588,
      "Ġlength": 1589,
      "ken": 1590,
      "dirty": 1591,
      "opcode": 1592,
      "vert": 1593,
      "ax": 1594,
      "spe": 1595,
      "abort": 1596,
      "prev": 1597,
      "td": 1598,
      "Ġfix": 1599,
      "trans": 1600,
      "motion": 1601,
      "Ġspr": 1602,
      "Ġinter": 1603,
      "Ġguest": 1604,
      "flush": 1605,
      "got": 1606,
      "msi": 1607,
      "Ġ11": 1608,
      "step": 1609,
      "mips": 1610,
      "\"))": 1611,
      "Ġcor": 1612,
      "Ġvp": 1613,
      "ented": 1614,
      "Ġomap": 1615,
      "strcmp": 1616,
      "interrupt": 1617,
      "ell": 1618,
      "main": 1619,
      "cpus": 1620,
      "ise": 1621,
      "Ġxxx": 1622,
      "div": 1623,
      "exit": 1624,
      "alpha": 1625,
      "Ġprev": 1626,
      "nown": 1627,
      "')": 1628,
      "dct": 1629,
      "Ġstatus": 1630,
      "Ġcp": 1631,
      "sid": 1632,
      "inc": 1633,
      "Ġcluster": 1634,
      "Ġinvalid": 1635,
      "Ġlinesize": 1636,
      "Ġqu": 1637,
      "access": 1638,
      "Ġstore": 1639,
      "Ġmat": 1640,
      "Ġvideo": 1641,
      "22": 1642,
      "pps": 1643,
      "ef": 1644,
      "ration": 1645,
      "Ġrm": 1646,
      "avcodeccontext": 1647,
      "stem": 1648,
      "diff": 1649,
      "Ġsysbus": 1650,
      "Ġkernel": 1651,
      "features": 1652,
      "xc": 1653,
      "seek": 1654,
      "ach": 1655,
      "var": 1656,
      "default": 1657,
      "rosk": 1658,
      "padd": 1659,
      "lob": 1660,
      "Ġra": 1661,
      "sa": 1662,
      "sing": 1663,
      "Ġbut": 1664,
      "arning": 1665,
      "Ġext": 1666,
      "Ġver": 1667,
      "can": 1668,
      "ript": 1669,
      "from": 1670,
      "tp": 1671,
      "roup": 1672,
      "od": 1673,
      "Ġimage": 1674,
      "01": 1675,
      "encode": 1676,
      "Ġslice": 1677,
      "Ġts": 1678,
      "Ġqcow": 1679,
      "bitmap": 1680,
      "Ġscsi": 1681,
      "Ġreq": 1682,
      "display": 1683,
      "Ġir": 1684,
      "ence": 1685,
      "Ġvector": 1686,
      "Ġnbd": 1687,
      "cle": 1688,
      "machine": 1689,
      "Ġqdict": 1690,
      "Ġ*/\\": 1691,
      "Ġ24": 1692,
      "mplemented": 1693,
      "socket": 1694,
      "control": 1695,
      "Ġunlock": 1696,
      "formatcontext": 1697,
      "itle": 1698,
      "Ġva": 1699,
      "duration": 1700,
      "Ġone": 1701,
      "wr": 1702,
      "urface": 1703,
      "roska": 1704,
      ")\\": 1705,
      "move": 1706,
      "metadata": 1707,
      "jpeg": 1708,
      "Ġph": 1709,
      "Ġentry": 1710,
      "*/": 1711,
      "ll": 1712,
      "mr": 1713,
      "window": 1714,
      "swap": 1715,
      "Ġpicture": 1716,
      "Ġ20": 1717,
      "irr": 1718,
      "Ġaccess": 1719,
      "Ġlock": 1720,
      "Ġdir": 1721,
      "send": 1722,
      "Ġchunk": 1723,
      "tile": 1724,
      "total": 1725,
      "real": 1726,
      "Ġshould": 1727,
      "dup": 1728,
      "lum": 1729,
      "lot": 1730,
      "files": 1731,
      "Ġoffsetof": 1732,
      "Ġmips": 1733,
      "rep": 1734,
      "Ġavmedia": 1735,
      "mutex": 1736,
      "90": 1737,
      "guest": 1738,
      "over": 1739,
      "Ġ'%": 1740,
      "Ġrequest": 1741,
      "Ġtotal": 1742,
      "Ġkey": 1743,
      "lp": 1744,
      "none": 1745,
      "\\\"": 1746,
      "msg": 1747,
      "Ġnv": 1748,
      "Ġ256": 1749,
      "oll": 1750,
      "Ġprintf": 1751,
      "abs": 1752,
      "common": 1753,
      ")*": 1754,
      "title": 1755,
      "pte": 1756,
      "bd": 1757,
      "uc": 1758,
      "128": 1759,
      "\")": 1760,
      "Ġper": 1761,
      "apshot": 1762,
      "ork": 1763,
      "ang": 1764,
      "Ġme": 1765,
      "Ġexcp": 1766,
      "Ġ},": 1767,
      "2000": 1768,
      "nv": 1769,
      "Ġnumber": 1770,
      "Ġser": 1771,
      "Ġbus": 1772,
      "vga": 1773,
      "array": 1774,
      "frag": 1775,
      "mac": 1776,
      "ioc": 1777,
      "08": 1778,
      "Ġfield": 1779,
      "legal": 1780,
      "led": 1781,
      "active": 1782,
      "cnt": 1783,
      "save": 1784,
      "virtio": 1785,
      "Ġ\",": 1786,
      "Ġ%\"": 1787,
      "va": 1788,
      "scard": 1789,
      "delta": 1790,
      "Ġpo": 1791,
      "Ġfailed": 1792,
      "warning": 1793,
      "Ġali": 1794,
      "Ġirq": 1795,
      "ie": 1796,
      "eric": 1797,
      "Ġover": 1798,
      "job": 1799,
      "backing": 1800,
      "ifi": 1801,
      "Ġcomm": 1802,
      "Ġsm": 1803,
      "Ġppc": 1804,
      "yn": 1805,
      "atio": 1806,
      "Ġavpkt": 1807,
      "Ġerrp": 1808,
      "usb": 1809,
      "connect": 1810,
      "bgr": 1811,
      "iz": 1812,
      "rou": 1813,
      "Ġide": 1814,
      "bp": 1815,
      "part": 1816,
      "Ġlow": 1817,
      "ib": 1818,
      "Ġchr": 1819,
      "000000": 1820,
      "ync": 1821,
      "aspect": 1822,
      "1000": 1823,
      "ysi": 1824,
      "bl": 1825,
      "unsigned": 1826,
      "define": 1827,
      "qui": 1828,
      "lib": 1829,
      "close": 1830,
      "Ġfind": 1831,
      "Ġavcodec": 1832,
      "Ġinsn": 1833,
      "34": 1834,
      "down": 1835,
      "ark": 1836,
      "vd": 1837,
      "entries": 1838,
      "Ġopt": 1839,
      "fifo": 1840,
      "sock": 1841,
      "rence": 1842,
      "jmp": 1843,
      "vfp": 1844,
      "lomb": 1845,
      "ailab": 1846,
      "48": 1847,
      "sg": 1848,
      "cor": 1849,
      "lace": 1850,
      "Ġcli": 1851,
      "mux": 1852,
      "Ġpps": 1853,
      "ins": 1854,
      "Ġport": 1855,
      "img": 1856,
      "ste": 1857,
      "source": 1858,
      "tail": 1859,
      "ause": 1860,
      "fio": 1861,
      "Ġscale": 1862,
      "eded": 1863,
      "ysical": 1864,
      "263": 1865,
      "Ġsp": 1866,
      "Ġtest": 1867,
      "section": 1868,
      "Ġsps": 1869,
      "prob": 1870,
      "Ġsig": 1871,
      "ely": 1872,
      "Ġdebug": 1873,
      "poc": 1874,
      ")[": 1875,
      "supported": 1876,
      "golomb": 1877,
      "ailable": 1878,
      "dictor": 1879,
      "ratio": 1880,
      "Ġvm": 1881,
      "perm": 1882,
      "mallocz": 1883,
      "fx": 1884,
      "Ġiov": 1885,
      "Ġmust": 1886,
      "Ġseek": 1887,
      "Ġdct": 1888,
      "lug": 1889,
      "Ġmotion": 1890,
      "Ġscan": 1891,
      "msr": 1892,
      "sf": 1893,
      "Ġbios": 1894,
      "Ġfill": 1895,
      "bar": 1896,
      "Ġil": 1897,
      "mple": 1898,
      "present": 1899,
      "Ġ==,": 1900,
      "erate": 1901,
      "0000000": 1902,
      "Ġidx": 1903,
      "Ġwill": 1904,
      "riptor": 1905,
      "lit": 1906,
      "ension": 1907,
      "Ġfree": 1908,
      "Ġuv": 1909,
      "luma": 1910,
      "elem": 1911,
      "Ġtrack": 1912,
      "qdev": 1913,
      "Ġaio": 1914,
      "lobal": 1915,
      "nopts": 1916,
      "Ġmpeg": 1917,
      "ump": 1918,
      "Ġ]": 1919,
      "atile": 1920,
      "call": 1921,
      "Ġ++": 1922,
      "Ġ##": 1923,
      "ansl": 1924,
      "ical": 1925,
      "Ġqp": 1926,
      "wd": 1927,
      "+=": 1928,
      "lease": 1929,
      "ich": 1930,
      "paramet": 1931,
      "direct": 1932,
      "Ġenc": 1933,
      "vis": 1934,
      "failed": 1935,
      "sec": 1936,
      "Ġact": 1937,
      "avformatcontext": 1938,
      "Ġillegal": 1939,
      "rm": 1940,
      "ics": 1941,
      "Ġinline": 1942,
      "Ġparam": 1943,
      "Ġnode": 1944,
      "lik": 1945,
      "refcount": 1946,
      "clip": 1947,
      "Ġpath": 1948,
      "ither": 1949,
      "Ġany": 1950,
      "Ġalign": 1951,
      "ick": 1952,
      "Ġsnprintf": 1953,
      "Ġ*(": 1954,
      "Ġtlb": 1955,
      "Ġcoeff": 1956,
      "Ġdisp": 1957,
      "Ġcolor": 1958,
      "unit": 1959,
      "ved": 1960,
      "tlb": 1961,
      "Ġ31": 1962,
      "spapr": 1963,
      "tsp": 1964,
      "Ġ^": 1965,
      "--;": 1966,
      "outine": 1967,
      "390": 1968,
      "system": 1969,
      "Ġasf": 1970,
      "boot": 1971,
      "api": 1972,
      "Ġavpacket": 1973,
      "Ġtodo": 1974,
      "iss": 1975,
      "raph": 1976,
      "plug": 1977,
      "ring": 1978,
      "bitstream": 1979,
      "prec": 1980,
      "ain": 1981,
      "group": 1982,
      "kvm": 1983,
      "resh": 1984,
      "Ġmsr": 1985,
      "****": 1986,
      "fpr": 1987,
      "Ġqxl": 1988,
      "Ġpass": 1989,
      "quence": 1990,
      "wait": 1991,
      "Ġthere": 1992,
      "endian": 1993,
      "qiov": 1994,
      "rp": 1995,
      "auth": 1996,
      "):": 1997,
      "accel": 1998,
      "Ġparse": 1999,
      "laced": 2000,
      "bi": 2001,
      "elf": 2002,
      "high": 2003,
      "Ġnow": 2004,
      "Ġhandle": 2005,
      "pt": 2006,
      "stamp": 2007,
      "ite": 2008,
      "(\"%": 2009,
      "ready": 2010,
      "xe": 2011,
      "strdup": 2012,
      "Ġchroma": 2013,
      "[(": 2014,
      "mod": 2015,
      "lx": 2016,
      "rot": 2017,
      "Ġmon": 2018,
      "print": 2019,
      "palette": 2020,
      "Ġtoo": 2021,
      "clusters": 2022,
      "Ġdone": 2023,
      "avg": 2024,
      "gpio": 2025,
      "14": 2026,
      "cv": 2027,
      "hod": 2028,
      "etch": 2029,
      "serial": 2030,
      "stop": 2031,
      "coun": 2032,
      "fds": 2033,
      "flash": 2034,
      "Ġpb": 2035,
      "Ġpte": 2036,
      "rap": 2037,
      "ifier": 2038,
      "Ġcreate": 2039,
      "Ġdon": 2040,
      "freq": 2041,
      "gain": 2042,
      "eta": 2043,
      "np": 2044,
      "Ġavfilter": 2045,
      "blockdriverstate": 2046,
      "Ġffmin": 2047,
      "Ġisa": 2048,
      "Ġ,": 2049,
      "msa": 2050,
      "isa": 2051,
      "Ġsupported": 2052,
      "Ġpts": 2053,
      "alt": 2054,
      "Ġcontrol": 2055,
      "Ġdec": 2056,
      "hed": 2057,
      "Ġrgb": 2058,
      "Ġ%[": 2059,
      "movi": 2060,
      "30": 2061,
      "vnc": 2062,
      "discard": 2063,
      "bc": 2064,
      "Ġzero": 2065,
      "lect": 2066,
      "lun": 2067,
      "ux": 2068,
      "\"(": 2069,
      "fid": 2070,
      "sm": 2071,
      "mmio": 2072,
      "Ġinitrd": 2073,
      "qdict": 2074,
      "reo": 2075,
      "Ġpred": 2076,
      "Ġlo": 2077,
      "Ġdsp": 2078,
      "setup": 2079,
      "Ġinitial": 2080,
      "Ġleft": 2081,
      "Ġfound": 2082,
      "'s": 2083,
      "surface": 2084,
      "psr": 2085,
      "Ġfilename": 2086,
      "ged": 2087,
      "yv": 2088,
      "Ġ!(": 2089,
      "olatile": 2090,
      "Ġ'\\": 2091,
      "modrm": 2092,
      "virt": 2093,
      "Ġlocal": 2094,
      "Ġcle": 2095,
      "Ġclose": 2096,
      "by": 2097,
      "mult": 2098,
      "exec": 2099,
      "Ġ(((": 2100,
      "Ġfw": 2101,
      "pow": 2102,
      "bands": 2103,
      "side": 2104,
      "ways": 2105,
      "asm": 2106,
      "Ġseg": 2107,
      "coeffs": 2108,
      "yload": 2109,
      "command": 2110,
      "xbf": 2111,
      "ont": 2112,
      "qpel": 2113,
      "256": 2114,
      "hi": 2115,
      "puts": 2116,
      "++,": 2117,
      "codecpar": 2118,
      "Ġhere": 2119,
      "Ġtswap": 2120,
      "Ġused": 2121,
      "Ġ1024": 2122,
      "vec": 2123,
      "child": 2124,
      "Ġwhen": 2125,
      "Ġsupport": 2126,
      "++]": 2127,
      "Ġexception": 2128,
      "lpc": 2129,
      "orm": 2130,
      "simple": 2131,
      "physical": 2132,
      "ose": 2133,
      "rn": 2134,
      "Ġip": 2135,
      "Ġcall": 2136,
      "Ġreal": 2137,
      "00000": 2138,
      "Ġvirt": 2139,
      "Ġcond": 2140,
      "Ġxen": 2141,
      "Ġdouble": 2142,
      "eax": 2143,
      "wb": 2144,
      "igration": 2145,
      "Ġld": 2146,
      "weight": 2147,
      "Ġ512": 2148,
      "Ġdiff": 2149,
      "token": 2150,
      "angle": 2151,
      "pen": 2152,
      "Ġstrlen": 2153,
      "Ġhwaddr": 2154,
      "04": 2155,
      "Ġ...": 2156,
      "unknown": 2157,
      "full": 2158,
      "parent": 2159,
      "Ġnet": 2160,
      "ime": 2161,
      "fer": 2162,
      "pal": 2163,
      "async": 2164,
      "asl": 2165,
      "Ġmp": 2166,
      "Ġ13": 2167,
      "Ġalpha": 2168,
      "unction": 2169,
      "Ġversion": 2170,
      "Ġqobject": 2171,
      "Ġmay": 2172,
      "Ġap": 2173,
      "Ġpart": 2174,
      "Ġnal": 2175,
      "25": 2176,
      "cl": 2177,
      "ucture": 2178,
      "coord": 2179,
      "cbp": 2180,
      "Ġsocket": 2181,
      "Ġreset": 2182,
      "bytestream": 2183,
      "complete": 2184,
      "Ġmm": 2185,
      "cause": 2186,
      "Ġmult": 2187,
      "neon": 2188,
      "Ġacb": 2189,
      "Ġmachine": 2190,
      "Ġrow": 2191,
      "generic": 2192,
      "fter": 2193,
      "Ġmy": 2194,
      "ific": 2195,
      "Ġprint": 2196,
      "mpute": 2197,
      "global": 2198,
      "Ġrange": 2199,
      "Ġsend": 2200,
      "Ġwhich": 2201,
      "xor": 2202,
      "Ġavframe": 2203,
      ")){": 2204,
      "fff": 2205,
      "scr": 2206,
      "Ġregion": 2207,
      "Ġtrans": 2208,
      "dump": 2209,
      "Ġavstream": 2210,
      "Ġefault": 2211,
      "right": 2212,
      "pad": 2213,
      "Ġti": 2214,
      "onent": 2215,
      "movd": 2216,
      "lan": 2217,
      "snapshot": 2218,
      "subtitle": 2219,
      "Ġfixme": 2220,
      "18": 2221,
      "fin": 2222,
      "Ġuser": 2223,
      "internal": 2224,
      "ay": 2225,
      "gin": 2226,
      "tain": 2227,
      "Ġrequi": 2228,
      "Ġblocks": 2229,
      "Ġallocate": 2230,
      "rw": 2231,
      "work": 2232,
      "Ġsave": 2233,
      "brid": 2234,
      "fixme": 2235,
      "ized": 2236,
      "slot": 2237,
      "Ġtop": 2238,
      "listen": 2239,
      "done": 2240,
      "vid": 2241,
      "Ġmatroska": 2242,
      "ten": 2243,
      "Ġmx": 2244,
      "31": 2245,
      "diction": 2246,
      "Ġ128": 2247,
      "sz": 2248,
      "fied": 2249,
      "round": 2250,
      "disas": 2251,
      "unref": 2252,
      "tern": 2253,
      "bpp": 2254,
      "xd": 2255,
      "resp": 2256,
      "disk": 2257,
      "Ġpfl": 2258,
      "tls": 2259,
      "Ġresult": 2260,
      "Ġplane": 2261,
      "eb": 2262,
      "Ġsome": 2263,
      "Ġurl": 2264,
      "420": 2265,
      "pid": 2266,
      "vi": 2267,
      "punp": 2268,
      "method": 2269,
      "punpck": 2270,
      "Ġtimer": 2271,
      "Ġspeci": 2272,
      "partition": 2273,
      "predictor": 2274,
      "ling": 2275,
      "Ġrb": 2276,
      "program": 2277,
      "bios": 2278,
      "Ġsum": 2279,
      "prefix": 2280,
      "flow": 2281,
      "could": 2282,
      "ious": 2283,
      "verify": 2284,
      "compres": 2285,
      "Ġsdl": 2286,
      "Ġextract": 2287,
      "Ġcommand": 2288,
      "implemented": 2289,
      "short": 2290,
      "likely": 2291,
      "Ġ\"\\\"\\": 2292,
      "Ġbad": 2293,
      "interlaced": 2294,
      "Ġcr": 2295,
      "Ġvar": 2296,
      "Ġshort": 2297,
      "Ġtransl": 2298,
      "Ġsock": 2299,
      "profile": 2300,
      "100": 2301,
      "tell": 2302,
      "ative": 2303,
      "ank": 2304,
      "mtc": 2305,
      "hwaccel": 2306,
      "less": 2307,
      "proto": 2308,
      "ccontext": 2309,
      "eio": 2310,
      "nz": 2311,
      "ormat": 2312,
      "Ġvhost": 2313,
      "notifier": 2314,
      "irror": 2315,
      "Ġcs": 2316,
      "msix": 2317,
      "vt": 2318,
      "initial": 2319,
      "nse": 2320,
      "son": 2321,
      "sor": 2322,
      "ses": 2323,
      "Ġjust": 2324,
      "qcow": 2325,
      "signal": 2326,
      "fat": 2327,
      "dx": 2328,
      "release": 2329,
      "Ġ14": 2330,
      "result": 2331,
      "cmdline": 2332,
      "Ġquant": 2333,
      "gid": 2334,
      "imm": 2335,
      "[]": 2336,
      "Ġfe": 2337,
      "Ġmmu": 2338,
      "fast": 2339,
      "\\\\": 2340,
      "iop": 2341,
      "del": 2342,
      "Ġmc": 2343,
      "Ġrefcount": 2344,
      "Ġrtas": 2345,
      "Ġother": 2346,
      "--)": 2347,
      "('": 2348,
      "fb": 2349,
      "fprintf": 2350,
      "Ġvolatile": 2351,
      "Ġdelta": 2352,
      ").": 2353,
      "','": 2354,
      "fw": 2355,
      "qxl": 2356,
      "initrd": 2357,
      "pending": 2358,
      "Ġmake": 2359,
      "Ġdepth": 2360,
      "oft": 2361,
      "uvlinesize": 2362,
      "bh": 2363,
      "poll": 2364,
      "pri": 2365,
      "fields": 2366,
      "*(": 2367,
      "422": 2368,
      "Ġmemoryregion": 2369,
      "\"),": 2370,
      "Ġpxa": 2371,
      "eq": 2372,
      "Ġrename": 2373,
      "ulate": 2374,
      "Ġqlist": 2375,
      "bool": 2376,
      "build": 2377,
      "Ġthan": 2378,
      "change": 2379,
      "erence": 2380,
      "fpu": 2381,
      "ou": 2382,
      "uma": 2383,
      "Ġmac": 2384,
      "structure": 2385,
      "intr": 2386,
      "Ġprop": 2387,
      "ached": 2388,
      "crypto": 2389,
      "Ġevent": 2390,
      "unlock": 2391,
      "insns": 2392,
      "())": 2393,
      "]]": 2394,
      "Ġround": 2395,
      "Ġframes": 2396,
      "Ġinterrupt": 2397,
      "444": 2398,
      "otto": 2399,
      "subregion": 2400,
      "Ġacpi": 2401,
      "Ġdisas": 2402,
      "win": 2403,
      "Ġsce": 2404,
      "Ġsbr": 2405,
      "double": 2406,
      "\\\"\",": 2407,
      "stereo": 2408,
      ")>>": 2409,
      "pdu": 2410,
      "Ġimm": 2411,
      "Ġtile": 2412,
      "Ġmsi": 2413,
      "Ġhigh": 2414,
      "filtersize": 2415,
      "Ġnon": 2416,
      "cpux": 2417,
      "sv": 2418,
      "Ġffmax": 2419,
      "buffers": 2420,
      "Ġthread": 2421,
      "qual": 2422,
      "rough": 2423,
      ")&": 2424,
      "wrap": 2425,
      "Ġem": 2426,
      "bitcontext": 2427,
      "Ġoptions": 2428,
      "Ġmonitor": 2429,
      "};": 2430,
      "Ġsame": 2431,
      "Ġaml": 2432,
      "eth": 2433,
      "aved": 2434,
      "factor": 2435,
      "03": 2436,
      "Ġfmt": 2437,
      "prim": 2438,
      "Ġelem": 2439,
      "ottom": 2440,
      "encoder": 2441,
      "reser": 2442,
      "cell": 2443,
      "Ġstep": 2444,
      "Ġalways": 2445,
      "Ġerrno": 2446,
      "Ġuvlinesize": 2447,
      "Ġig": 2448,
      "sws": 2449,
      "';": 2450,
      "wo": 2451,
      "sequence": 2452,
      "hash": 2453,
      "foreach": 2454,
      "guid": 2455,
      "Ġcl": 2456,
      "Ġfs": 2457,
      "abled": 2458,
      "Ġphys": 2459,
      "aff": 2460,
      "anch": 2461,
      "tran": 2462,
      "mpty": 2463,
      "roy": 2464,
      "allocated": 2465,
      "cmpint": 2466,
      "21": 2467,
      "action": 2468,
      "graph": 2469,
      "ments": 2470,
      "Ġmkt": 2471,
      ")->": 2472,
      "ward": 2473,
      "tach": 2474,
      "clk": 2475,
      "gram": 2476,
      "resample": 2477,
      "visitor": 2478,
      "rle": 2479,
      "drc": 2480,
      "Ġprot": 2481,
      "any": 2482,
      "Ġneon": 2483,
      "Ġmktag": 2484,
      "%\"": 2485,
      "pand": 2486,
      "Ġos": 2487,
      "spar": 2488,
      "Ġnote": 2489,
      "19": 2490,
      "eration": 2491,
      "avpkt": 2492,
      "endor": 2493,
      "Ġbefore": 2494,
      "----": 2495,
      "ware": 2496,
      "509": 2497,
      "ole": 2498,
      "tle": 2499,
      "sizes": 2500,
      "segment": 2501,
      "bridge": 2502,
      "Ġrep": 2503,
      "Ġinc": 2504,
      "ume": 2505,
      "Ġtry": 2506,
      "abil": 2507,
      "Ġalready": 2508,
      "mapping": 2509,
      "aiocb": 2510,
      "Ġflush": 2511,
      "ape": 2512,
      "tailq": 2513,
      "aac": 2514,
      "tm": 2515,
      "acb": 2516,
      "Ġep": 2517,
      "Ġprocess": 2518,
      "watch": 2519,
      "Ġiscsi": 2520,
      "Ġfull": 2521,
      "ssd": 2522,
      "Ġbest": 2523,
      "encdec": 2524,
      "Ġ~(": 2525,
      "vectors": 2526,
      "Ġgb": 2527,
      "Ġinto": 2528,
      "abac": 2529,
      "cpl": 2530,
      "rac": 2531,
      "seq": 2532,
      "thresh": 2533,
      "cpuid": 2534,
      "asf": 2535,
      "adpcm": 2536,
      "magic": 2537,
      "Ġjpeg": 2538,
      "Ġsws": 2539,
      "Ġboot": 2540,
      "Ġchannels": 2541,
      "dlog": 2542,
      "eof": 2543,
      "tt": 2544,
      "xen": 2545,
      "Ġwas": 2546,
      "reference": 2547,
      "Ġdrive": 2548,
      "crypt": 2549,
      "mfc": 2550,
      "ended": 2551,
      "idc": 2552,
      "genccontext": 2553,
      "Ġpalette": 2554,
      "cept": 2555,
      "cfi": 2556,
      "hevc": 2557,
      "Ġpict": 2558,
      "Ġigno": 2559,
      "]));": 2560,
      "slices": 2561,
      "/%": 2562,
      "oth": 2563,
      "descriptor": 2564,
      "Ġcorrect": 2565,
      "arker": 2566,
      "Ġcal": 2567,
      "Ġduration": 2568,
      "movl": 2569,
      "spec": 2570,
      "tainer": 2571,
      "fli": 2572,
      "master": 2573,
      "aw": 2574,
      "wh": 2575,
      "Ġ->": 2576,
      "Ġavpriv": 2577,
      "acy": 2578,
      "sole": 2579,
      "]))": 2580,
      "kind": 2581,
      "Ġbecause": 2582,
      "Ġtiff": 2583,
      "gt": 2584,
      "ute": 2585,
      "remove": 2586,
      "inux": 2587,
      "Ġvb": 2588,
      "Ġrtsp": 2589,
      "Ġblockdriverstate": 2590,
      "aligned": 2591,
      "xffffffff": 2592,
      "dstw": 2593,
      "struction": 2594,
      "destroy": 2595,
      "42": 2596,
      "Ġedge": 2597,
      "Ġvga": 2598,
      "Ġ18": 2599,
      "plan": 2600,
      "Ġmodrm": 2601,
      "ng": 2602,
      "vr": 2603,
      "ator": 2604,
      "Ġeach": 2605,
      "irqs": 2606,
      "fixed": 2607,
      "bil": 2608,
      "ui": 2609,
      "Ġaac": 2610,
      "Ġreser": 2611,
      "sive": 2612,
      "coef": 2613,
      "Ġdma": 2614,
      "Ġlink": 2615,
      "iw": 2616,
      "Ġast": 2617,
      "Ġps": 2618,
      "Ġro": 2619,
      "Ġneeded": 2620,
      "tbl": 2621,
      "rdma": 2622,
      "Ġtranslation": 2623,
      "Ġenum": 2624,
      "rrr": 2625,
      ")\",": 2626,
      "dyn": 2627,
      "mix": 2628,
      "tick": 2629,
      "erge": 2630,
      "Ġmet": 2631,
      "anup": 2632,
      "pcr": 2633,
      "Ġbug": 2634,
      "Ġpriv": 2635,
      "mmxt": 2636,
      "Ġbacking": 2637,
      "sch": 2638,
      "wl": 2639,
      "rece": 2640,
      "Ġpg": 2641,
      "Ġvlc": 2642,
      "available": 2643,
      "rerr": 2644,
      "Ġbr": 2645,
      "Ġwrit": 2646,
      "Ġcould": 2647,
      "reslevel": 2648,
      "Ġclient": 2649,
      "sparc": 2650,
      "]+": 2651,
      "esc": 2652,
      "ke": 2653,
      "Ġthen": 2654,
      "139": 2655,
      "single": 2656,
      "]*": 2657,
      "Ġimplemented": 2658,
      "sible": 2659,
      "ternal": 2660,
      "Ġserial": 2661,
      ")];": 2662,
      "with": 2663,
      "Ġnr": 2664,
      "refetch": 2665,
      "names": 2666,
      "Ġdoes": 2667,
      "extra": 2668,
      "iscsi": 2669,
      "power": 2670,
      "my": 2671,
      "Ġaut": 2672,
      "Ġafter": 2673,
      "onse": 2674,
      "loor": 2675,
      "pool": 2676,
      "rtp": 2677,
      "rerror": 2678,
      "[-": 2679,
      "wap": 2680,
      "Ġflash": 2681,
      "Ġgo": 2682,
      "Ġhelper": 2683,
      "Ġ>>=": 2684,
      "apter": 2685,
      "iovec": 2686,
      "dt": 2687,
      "Ġfo": 2688,
      "Ġvalid": 2689,
      "parser": 2690,
      "Ġallow": 2691,
      "Ġcbp": 2692,
      "ks": 2693,
      "kv": 2694,
      "trunc": 2695,
      "Ġabort": 2696,
      "8000": 2697,
      "mi": 2698,
      "Ġvdev": 2699,
      "Ġoc": 2700,
      "notify": 2701,
      "sprite": 2702,
      "maining": 2703,
      "ating": 2704,
      "Ġpri": 2705,
      "cy": 2706,
      "cabac": 2707,
      "dd": 2708,
      "ry": 2709,
      "reen": 2710,
      "apic": 2711,
      "Ġcompute": 2712,
      "Ġatom": 2713,
      "realize": 2714,
      "vendor": 2715,
      "Ġ22": 2716,
      "Ġ*)&": 2717,
      "dither": 2718,
      "Ġvfio": 2719,
      "lirp": 2720,
      "compat": 2721,
      "nof": 2722,
      "Ġcache": 2723,
      "Ġfin": 2724,
      "Ġmatch": 2725,
      "Ġdb": 2726,
      "avail": 2727,
      "Ġ!!": 2728,
      "Ġexp": 2729,
      "select": 2730,
      "noaccess": 2731,
      "Ġparamet": 2732,
      "transp": 2733,
      "ting": 2734,
      "rescale": 2735,
      "Ġ(;": 2736,
      "tect": 2737,
      "Ġstop": 2738,
      "prot": 2739,
      "avs": 2740,
      "cpustate": 2741,
      "match": 2742,
      "legacy": 2743,
      "Ġavcodeccontext": 2744,
      "avfilter": 2745,
      "00000000": 2746,
      "timestamp": 2747,
      "backend": 2748,
      "reply": 2749,
      "70": 2750,
      "ttp": 2751,
      "Ġass": 2752,
      "Ġqtailq": 2753,
      "Ġhdr": 2754,
      "append": 2755,
      "Ġspec": 2756,
      "dv": 2757,
      "ular": 2758,
      "scal": 2759,
      "Ġcontext": 2760,
      "found": 2761,
      "fill": 2762,
      "clear": 2763,
      "onents": 2764,
      "tra": 2765,
      "Ġexec": 2766,
      "1024": 2767,
      "iwmmxt": 2768,
      "rv": 2769,
      "prid": 2770,
      "Ġdelay": 2771,
      "Ġchange": 2772,
      "coroutine": 2773,
      "insert": 2774,
      "bad": 2775,
      "orb": 2776,
      "Ġmore": 2777,
      "conv": 2778,
      "Ġgenerate": 2779,
      "threads": 2780,
      "33": 2781,
      "uffff": 2782,
      "andi": 2783,
      "Ġdv": 2784,
      "sts": 2785,
      "iommu": 2786,
      "throt": 2787,
      "Ġshow": 2788,
      "uccess": 2789,
      "Ġdisplay": 2790,
      "xhci": 2791,
      "Ġ*=": 2792,
      "Ġwa": 2793,
      "Ġscal": 2794,
      "agate": 2795,
      "parameter": 2796,
      "ca": 2797,
      "man": 2798,
      "alf": 2799,
      "\",\"": 2800,
      "Ġsecond": 2801,
      "rectangle": 2802,
      "Ġfdt": 2803,
      "gray": 2804,
      "Ġavailable": 2805,
      "Ġmapping": 2806,
      "transform": 2807,
      "gy": 2808,
      "drive": 2809,
      "mapped": 2810,
      "__,": 2811,
      "ufffd": 2812,
      "score": 2813,
      "Ġelf": 2814,
      "Ġapp": 2815,
      "Ġqmp": 2816,
      "Ġ255": 2817,
      "Ġopts": 2818,
      "sty": 2819,
      "Ġss": 2820,
      "ctb": 2821,
      "chip": 2822,
      "matroska": 2823,
      "begin": 2824,
      "parameters": 2825,
      "rtc": 2826,
      "writ": 2827,
      "values": 2828,
      "proxy": 2829,
      "Ġorder": 2830,
      "edi": 2831,
      "Ġrw": 2832,
      "Ġ480": 2833,
      "Ġencode": 2834,
      "irrus": 2835,
      "Ġicodec": 2836,
      "Ġusing": 2837,
      "ports": 2838,
      "Ġreserved": 2839,
      "bps": 2840,
      "avframe": 2841,
      "Ġpixels": 2842,
      "Ġinstruction": 2843,
      "Ġ21": 2844,
      "nos": 2845,
      "post": 2846,
      "bose": 2847,
      "pected": 2848,
      "tn": 2849,
      "rel": 2850,
      "addi": 2851,
      "Ġ17": 2852,
      "Ġqio": 2853,
      "ove": 2854,
      "Ġunit": 2855,
      "Ġyuv": 2856,
      "stats": 2857,
      "Ġorig": 2858,
      ";)": 2859,
      "big": 2860,
      "codebook": 2861,
      "probe": 2862,
      "aa": 2863,
      "huff": 2864,
      "cold": 2865,
      "dimm": 2866,
      "payload": 2867,
      "Ġregs": 2868,
      "99": 2869,
      "Ġrx": 2870,
      "Ġprix": 2871,
      ",%": 2872,
      "Ġabs": 2873,
      "Ġavformat": 2874,
      "Ġstl": 2875,
      "console": 2876,
      "Ġvalues": 2877,
      "cd": 2878,
      "nic": 2879,
      "qrt": 2880,
      "Ġsr": 2881,
      "dim": 2882,
      "refs": 2883,
      "pmadd": 2884,
      "padding": 2885,
      "68": 2886,
      "]),": 2887,
      "oriz": 2888,
      "needed": 2889,
      "Ġdststride": 2890,
      "rational": 2891,
      "bg": 2892,
      "efs": 2893,
      "ioctl": 2894,
      "asi": 2895,
      "asecmp": 2896,
      "Ġconne": 2897,
      "Ġadpcm": 2898,
      "bin": 2899,
      "hy": 2900,
      "Ġ][": 2901,
      "amic": 2902,
      "xfer": 2903,
      "Ġclip": 2904,
      "dinfo": 2905,
      "esp": 2906,
      "goto": 2907,
      "ias": 2908,
      "soft": 2909,
      "vol": 2910,
      "search": 2911,
      "attern": 2912,
      "enter": 2913,
      "hotplug": 2914,
      "!\\": 2915,
      "function": 2916,
      "Ġrom": 2917,
      "ingle": 2918,
      "neg": 2919,
      "Ġabi": 2920,
      "tap": 2921,
      "rec": 2922,
      "hex": 2923,
      "unsupported": 2924,
      "Ġqpc": 2925,
      "return": 2926,
      "ensions": 2927,
      "Ġsegment": 2928,
      "reserved": 2929,
      "Ġwait": 2930,
      "]];": 2931,
      "ima": 2932,
      "nbd": 2933,
      "propagate": 2934,
      "pmaddwd": 2935,
      "second": 2936,
      "Ġmultip": 2937,
      "trace": 2938,
      "the": 2939,
      "task": 2940,
      "Ġcm": 2941,
      "Ġsingle": 2942,
      "orig": 2943,
      "Ġfunc": 2944,
      "Ġgot": 2945,
      "trap": 2946,
      "pop": 2947,
      "draw": 2948,
      "Ġrate": 2949,
      "inear": 2950,
      "packets": 2951,
      "decoded": 2952,
      "Ġprevious": 2953,
      "cu": 2954,
      "ws": 2955,
      "encoding": 2956,
      "Ġdecoder": 2957,
      "proc": 2958,
      "okup": 2959,
      "Ġcannot": 2960,
      "Ġclear": 2961,
      "hv": 2962,
      "Ġ40": 2963,
      "verbose": 2964,
      "feed": 2965,
      "Ġbitmap": 2966,
      "disascontext": 2967,
      "bottom": 2968,
      "Ġloop": 2969,
      "Ġimplem": 2970,
      "Ġrece": 2971,
      "ormal": 2972,
      "'\\": 2973,
      "mg": 2974,
      "demux": 2975,
      "lap": 2976,
      "strcasecmp": 2977,
      "Ġdescriptor": 2978,
      "Ġserver": 2979,
      "oformat": 2980,
      "defined": 2981,
      ":\"": 2982,
      "pol": 2983,
      "rement": 2984,
      "Ġmigration": 2985,
      "Ġque": 2986,
      "blocksize": 2987,
      "Ġarray": 2988,
      "Ġpoint": 2989,
      "Ġsrcstride": 2990,
      "transfer": 2991,
      "inet": 2992,
      "stfs": 2993,
      "Ġvq": 2994,
      "codes": 2995,
      "Ġgetbitcontext": 2996,
      "app": 2997,
      "Ġcodebook": 2998,
      "rects": 2999,
      "Ġspace": 3000,
      "28": 3001,
      "hing": 3002,
      "realloc": 3003,
      "item": 3004,
      "Ġavoid": 3005,
      "dram": 3006,
      "Ġthem": 3007,
      "Ġprec": 3008,
      "Ġprefix": 3009,
      "memoryregion": 3010,
      "branch": 3011,
      "Ġvisit": 3012,
      "ough": 3013,
      "threshold": 3014,
      "mjpeg": 3015,
      "Ġlabel": 3016,
      "Ġgr": 3017,
      "Ġrdma": 3018,
      "gg": 3019,
      "known": 3020,
      "nut": 3021,
      "inputs": 3022,
      "Ġrefe": 3023,
      "Ġsection": 3024,
      "comple": 3025,
      "Ġsource": 3026,
      "Ġdevicestate": 3027,
      "Ġsectors": 3028,
      "Ġcoroutine": 3029,
      "Ġimplement": 3030,
      "mig": 3031,
      "external": 3032,
      "lyph": 3033,
      "board": 3034,
      "Ġattr": 3035,
      "Ġreslevel": 3036,
      "offs": 3037,
      "Ġcalc": 3038,
      "cm": 3039,
      "mit": 3040,
      "Ġlib": 3041,
      "stack": 3042,
      "strnc": 3043,
      "sigset": 3044,
      "nx": 3045,
      "srcformat": 3046,
      "Ġunimplemented": 3047,
      "Ġqueue": 3048,
      "fram": 3049,
      ");\\": 3050,
      "Ġcap": 3051,
      "Ġtwo": 3052,
      "com": 3053,
      "cursor": 3054,
      "msd": 3055,
      "200": 3056,
      "Ġmirror": 3057,
      "lav": 3058,
      "dist": 3059,
      "bso": 3060,
      "Ġregisters": 3061,
      "Ġactual": 3062,
      "(;": 3063,
      "bm": 3064,
      "break": 3065,
      "pitch": 3066,
      "Ġpthread": 3067,
      "irk": 3068,
      "fragment": 3069,
      "quality": 3070,
      "23": 3071,
      "lt": 3072,
      "sin": 3073,
      "Ġmxf": 3074,
      "avio": 3075,
      "mmy": 3076,
      "psrl": 3077,
      "mbaff": 3078,
      "Ġaviocontext": 3079,
      "calc": 3080,
      "hp": 3081,
      "pwrite": 3082,
      "tv": 3083,
      "Ġpack": 3084,
      "Ġdx": 3085,
      "ency": 3086,
      "counter": 3087,
      "ioport": 3088,
      "06": 3089,
      "Ġacc": 3090,
      "Ġpd": 3091,
      "arge": 3092,
      "unused": 3093,
      "convert": 3094,
      "iod": 3095,
      "Ġstring": 3096,
      "Ġsignal": 3097,
      "Ġoverflow": 3098,
      "alle": 3099,
      "push": 3100,
      "Ġus": 3101,
      "packed": 3102,
      "receive": 3103,
      "toyv": 3104,
      "progress": 3105,
      "());": 3106,
      "96": 3107,
      "ced": 3108,
      "vram": 3109,
      "sense": 3110,
      "Ġvd": 3111,
      "Ġdump": 3112,
      "maps": 3113,
      "dsty": 3114,
      "strncmp": 3115,
      "Ġlimit": 3116,
      "ery": 3117,
      "dent": 3118,
      "Ġbet": 3119,
      "idr": 3120,
      "Ġ23": 3121,
      "Ġlit": 3122,
      "Ġlum": 3123,
      "Ġcpustate": 3124,
      "Ġ<<=": 3125,
      "compare": 3126,
      "picref": 3127,
      "._": 3128,
      "Ġ;": 3129,
      "Ġpp": 3130,
      "allow": 3131,
      "exc": 3132,
      "ution": 3133,
      "compress": 3134,
      "********": 3135,
      "ient": 3136,
      "samp": 3137,
      "xattr": 3138,
      "Ġnc": 3139,
      "Ġhard": 3140,
      "ssage": 3141,
      "stri": 3142,
      "Ġ\"\\\"\\\\": 3143,
      "Ġsin": 3144,
      "Ġmsg": 3145,
      "Ġ1000": 3146,
      "oter": 3147,
      "offsets": 3148,
      "Ġsync": 3149,
      "bilinear": 3150,
      "07": 3151,
      "800": 3152,
      "migration": 3153,
      "Ġpal": 3154,
      "curr": 3155,
      "fidp": 3156,
      "ared": 3157,
      "wt": 3158,
      "Ġtd": 3159,
      "Ġwork": 3160,
      "ifn": 3161,
      "ivec": 3162,
      "Ġentries": 3163,
      "ght": 3164,
      "issing": 3165,
      "compressed": 3166,
      "esn": 3167,
      "lv": 3168,
      "Ġssize": 3169,
      "Ġresp": 3170,
      "Ġgp": 3171,
      "Ġstrerror": 3172,
      "Ġri": 3173,
      "Ġehci": 3174,
      "Ġunknown": 3175,
      "Ġtimestamp": 3176,
      "counts": 3177,
      "transport": 3178,
      "klass": 3179,
      "qh": 3180,
      "sar": 3181,
      "Ġcf": 3182,
      "Ġter": 3183,
      "Ġfrag": 3184,
      "unlikely": 3185,
      "Ġdist": 3186,
      "Ġdie": 3187,
      "Ġextradata": 3188,
      "Ġasm": 3189,
      "keyframe": 3190,
      "super": 3191,
      "che": 3192,
      "late": 3193,
      "Ġ(&": 3194,
      "ater": 3195,
      "Ġbpp": 3196,
      "alias": 3197,
      "events": 3198,
      "Ġdirect": 3199,
      "ifndef": 3200,
      "vlan": 3201,
      "Ġslot": 3202,
      "org": 3203,
      "Ġpad": 3204,
      "props": 3205,
      "Ġsigned": 3206,
      "(),": 3207,
      "]][": 3208,
      "fop": 3209,
      "Ġcmp": 3210,
      "ority": 3211,
      "Ġ19": 3212,
      "++);": 3213,
      "Ġcpus": 3214,
      "Ġdoesn": 3215,
      "Ġdstw": 3216,
      "reds": 3217,
      "Ġsetup": 3218,
      "Ġrequire": 3219,
      ".%": 3220,
      "htab": 3221,
      "pread": 3222,
      "rtsp": 3223,
      "sasl": 3224,
      "Ġhead": 3225,
      "Ġffm": 3226,
      "tables": 3227,
      "cblk": 3228,
      "Ġencoded": 3229,
      "Ġ(\"": 3230,
      "atom": 3231,
      "Ġdiv": 3232,
      "condi": 3233,
      "scall": 3234,
      "Ġarch": 3235,
      "dirac": 3236,
      "auto": 3237,
      "Ġraw": 3238,
      "ization": 3239,
      "hc": 3240,
      "decref": 3241,
      "ebml": 3242,
      "Ġauth": 3243,
      "throttle": 3244,
      "17": 3245,
      "empty": 3246,
      "hflags": 3247,
      "icount": 3248,
      "Ġel": 3249,
      "ambd": 3250,
      "very": 3251,
      "Ġbound": 3252,
      "itional": 3253,
      "Ġdrv": 3254,
      "sumed": 3255,
      "area": 3256,
      "ambda": 3257,
      "ee": 3258,
      "oi": 3259,
      "Ġasync": 3260,
      "Ġrrr": 3261,
      "devfn": 3262,
      "root": 3263,
      "Ġfixed": 3264,
      "Ġvirtual": 3265,
      "hist": 3266,
      "Ġsvq": 3267,
      "ication": 3268,
      "ived": 3269,
      "speci": 3270,
      "Ġparameters": 3271,
      "35": 3272,
      "omap": 3273,
      "recv": 3274,
      "Ġright": 3275,
      "fail": 3276,
      "meta": 3277,
      "session": 3278,
      "Ġfeature": 3279,
      "vide": 3280,
      "Ġcfg": 3281,
      "Ġsch": 3282,
      "Ġgic": 3283,
      "Ġvtd": 3284,
      "note": 3285,
      "Ġpayload": 3286,
      "Ġplan": 3287,
      "Ġsnapshot": 3288,
      "mipsstate": 3289,
      "fatal": 3290,
      "have": 3291,
      "Ġiv": 3292,
      "dule": 3293,
      "protocol": 3294,
      "vice": 3295,
      "inv": 3296,
      "inst": 3297,
      "Ġprefetch": 3298,
      "Ġbuild": 3299,
      "formance": 3300,
      "');": 3301,
      "mar": 3302,
      "lems": 3303,
      "Ġfun": 3304,
      "coefs": 3305,
      "elif": 3306,
      "Ġintra": 3307,
      "noise": 3308,
      "mds": 3309,
      "Ġencoding": 3310,
      "backup": 3311,
      "Ġprogram": 3312,
      "points": 3313,
      "\"));": 3314,
      ";\\": 3315,
      "rnd": 3316,
      "udp": 3317,
      "sei": 3318,
      "Ġds": 3319,
      "Ġhap": 3320,
      "Ġhow": 3321,
      "logfile": 3322,
      "bufsize": 3323,
      "four": 3324,
      "Ġeb": 3325,
      "allocate": 3326,
      "mouse": 3327,
      "Ġhandler": 3328,
      "Ġreference": 3329,
      "bank": 3330,
      "Ġfn": 3331,
      "ities": 3332,
      "ily": 3333,
      "Ġcoun": 3334,
      "dstformat": 3335,
      "crop": 3336,
      "Ġactive": 3337,
      "8139": 3338,
      "ba": 3339,
      "ehci": 3340,
      "reco": 3341,
      "Ġcy": 3342,
      "Ġvaddr": 3343,
      "urb": 3344,
      "uri": 3345,
      "ecx": 3346,
      "components": 3347,
      "Ġproxy": 3348,
      "Ġcompres": 3349,
      "(%%": 3350,
      "Ġsmall": 3351,
      "Ġspecial": 3352,
      "Ġsince": 3353,
      "merge": 3354,
      "upc": 3355,
      "adv": 3356,
      "cont": 3357,
      "edx": 3358,
      "++];": 3359,
      "sche": 3360,
      "ish": 3361,
      "acpi": 3362,
      "best": 3363,
      "Ġproto": 3364,
      "process": 3365,
      "lbw": 3366,
      "Ġsystem": 3367,
      "punpcklbw": 3368,
      "qmp": 3369,
      "Ġcnt": 3370,
      "dia": 3371,
      "abi": 3372,
      "bitrate": 3373,
      "Ġopn": 3374,
      "Ġprid": 3375,
      "zeroes": 3376,
      "Ġmodel": 3377,
      "frm": 3378,
      "Ġvisitor": 3379,
      "paddd": 3380,
      "4000": 3381,
      "cirrus": 3382,
      "Ġimg": 3383,
      "Ġ--": 3384,
      "term": 3385,
      "Ġyet": 3386,
      "dat": 3387,
      "mxf": 3388,
      "pdev": 3389,
      "drop": 3390,
      "Ġhp": 3391,
      "ces": 3392,
      "Ġlarge": 3393,
      "Ġesc": 3394,
      "Ġscsw": 3395,
      "da": 3396,
      "elems": 3397,
      "oice": 3398,
      "Ġbd": 3399,
      "arith": 3400,
      "Ġqiov": 3401,
      "gbc": 3402,
      "Ġoutbuf": 3403,
      "syn": 3404,
      "Ġ*)(": 3405,
      "private": 3406,
      "psrad": 3407,
      "primary": 3408,
      "mis": 3409,
      "cts": 3410,
      "Ġrex": 3411,
      "Ġgroup": 3412,
      "Ġxhci": 3413,
      "changed": 3414,
      "Ġextra": 3415,
      "upcast": 3416,
      "750": 3417,
      "bat": 3418,
      "Ġsa": 3419,
      "armv": 3420,
      "Ġthrough": 3421,
      "phb": 3422,
      "flt": 3423,
      "##": 3424,
      ")/": 3425,
      "success": 3426,
      "Ġpdu": 3427,
      "ally": 3428,
      "tered": 3429,
      "Ġstrc": 3430,
      "Ġrv": 3431,
      "Ġwant": 3432,
      "usage": 3433,
      "extended": 3434,
      "verse": 3435,
      "layer": 3436,
      "disable": 3437,
      "hid": 3438,
      "Ġdim": 3439,
      "Ġ25": 3440,
      "Ġthey": 3441,
      "Ġthese": 3442,
      "Ġextent": 3443,
      "36": 3444,
      "vfio": 3445,
      "attach": 3446,
      "Ġmagic": 3447,
      "(((": 3448,
      "Ġhevc": 3449,
      "beta": 3450,
      "rlim": 3451,
      "wn": 3452,
      "Ġbp": 3453,
      "Ġavi": 3454,
      "anular": 3455,
      "logic": 3456,
      "Ġ28": 3457,
      "psub": 3458,
      "sses": 3459,
      "ebx": 3460,
      "anularity": 3461,
      "Ġrtp": 3462,
      "Ġmod": 3463,
      "permut": 3464,
      "Ġmetadata": 3465,
      "pxa": 3466,
      "Ġbig": 3467,
      "Ġpost": 3468,
      "Ġgraph": 3469,
      "Ġour": 3470,
      "Ġwould": 3471,
      "Ġhz": 3472,
      "plx": 3473,
      "101": 3474,
      "webso": 3475,
      "Ġbackup": 3476,
      "mid": 3477,
      "Ġcblk": 3478,
      "Ġqerr": 3479,
      "Ġwr": 3480,
      "shake": 3481,
      "split": 3482,
      "ldq": 3483,
      "tracks": 3484,
      "](": 3485,
      "lat": 3486,
      "pq": 3487,
      "Ġsure": 3488,
      "Ġtext": 3489,
      "Ġfunction": 3490,
      "Ġke": 3491,
      "sbr": 3492,
      "vertical": 3493,
      "Ġspecified": 3494,
      "ldst": 3495,
      "decoding": 3496,
      "Ġenable": 3497,
      "cannot": 3498,
      "overlap": 3499,
      "Ġli": 3500,
      "deblock": 3501,
      "lop": 3502,
      "Ġrec": 3503,
      "Ġgdb": 3504,
      "cpumipsstate": 3505,
      "Ġtoken": 3506,
      "argv": 3507,
      "Ġalso": 3508,
      "tags": 3509,
      "Ġprofile": 3510,
      "Ġpcm": 3511,
      "Ġdisk": 3512,
      "Ġinitialize": 3513,
      "compression": 3514,
      "rev": 3515,
      "rector": 3516,
      "Ġfid": 3517,
      "Ġpoll": 3518,
      "Ġmul": 3519,
      "need": 3520,
      "interle": 3521,
      "again": 3522,
      "xfff": 3523,
      "cleanup": 3524,
      "tis": 3525,
      "unable": 3526,
      "unmap": 3527,
      "Ġdinfo": 3528,
      "export": 3529,
      "srs": 3530,
      "response": 3531,
      "Ġsockaddr": 3532,
      "crc": 3533,
      "hds": 3534,
      "rection": 3535,
      "adc": 3536,
      "lave": 3537,
      "avrational": 3538,
      "olden": 3539,
      "Ġbeen": 3540,
      "Ġenough": 3541,
      "timeout": 3542,
      "Ġdca": 3543,
      "ibble": 3544,
      "38": 3545,
      "json": 3546,
      "wav": 3547,
      "dequant": 3548,
      "peat": 3549,
      "valpha": 3550,
      "imum": 3551,
      "Ġ30": 3552,
      "Ġsequence": 3553,
      "Ġselect": 3554,
      "uvbuf": 3555,
      "Ġpredictor": 3556,
      "Ġdevices": 3557,
      "skipped": 3558,
      "Ġdiffe": 3559,
      "orbis": 3560,
      "'re": 3561,
      "80000000": 3562,
      "wi": 3563,
      "},": 3564,
      "Ġvmd": 3565,
      "Ġqcrypto": 3566,
      "pair": 3567,
      "Ġdecoding": 3568,
      "period": 3569,
      "blt": 3570,
      "Ġreply": 3571,
      "uart": 3572,
      "ym": 3573,
      "requ": 3574,
      "amily": 3575,
      "icc": 3576,
      "setprop": 3577,
      "Ġlinux": 3578,
      "Ġopcode": 3579,
      "extension": 3580,
      "eger": 3581,
      "monitor": 3582,
      "self": 3583,
      "tensa": 3584,
      "dynamic": 3585,
      "spi": 3586,
      "Ġbeta": 3587,
      "lots": 3588,
      "Ġremove": 3589,
      "Ġvf": 3590,
      "Ġ100": 3591,
      "erride": 3592,
      "Ġfault": 3593,
      "Ġobj": 3594,
      "speed": 3595,
      "Ġignore": 3596,
      "flight": 3597,
      "orizont": 3598,
      ",\"": 3599,
      "]],": 3600,
      "msp": 3601,
      "pd": 3602,
      "Ġfb": 3603,
      "Ġretval": 3604,
      "pegenccontext": 3605,
      "Ġrai": 3606,
      "zeros": 3607,
      "listener": 3608,
      "abilities": 3609,
      "caps": 3610,
      "Ġape": 3611,
      "Ġagain": 3612,
      "Ġbar": 3613,
      "ciph": 3614,
      "Ġsearch": 3615,
      "checksum": 3616,
      "scantable": 3617,
      "Ġopenpic": 3618,
      "binfo": 3619,
      "Ġpend": 3620,
      "Ġmpegenccontext": 3621,
      "Ġov": 3622,
      "Ġqapi": 3623,
      "Ġoperation": 3624,
      "static": 3625,
      "dual": 3626,
      "iscsilun": 3627,
      "cf": 3628,
      "fy": 3629,
      "vhost": 3630,
      "lookup": 3631,
      "aries": 3632,
      "Ġmany": 3633,
      "Ġvhd": 3634,
      "unpack": 3635,
      "expr": 3636,
      "Ġpresent": 3637,
      "cancel": 3638,
      "Ġtransfer": 3639,
      "cand": 3640,
      "ynos": 3641,
      "Ġer": 3642,
      "Ġfast": 3643,
      "Ġprob": 3644,
      "Ġiommu": 3645,
      "Ġtimeout": 3646,
      "dbg": 3647,
      "Ġvmstate": 3648,
      "altivec": 3649,
      "final": 3650,
      "planes": 3651,
      "ti": 3652,
      "Ġsmp": 3653,
      "Ġmig": 3654,
      "Ġdecoded": 3655,
      "extent": 3656,
      "...": 3657,
      "nodes": 3658,
      "Ġhardware": 3659,
      "cipher": 3660,
      "ia": 3661,
      "tk": 3662,
      "uch": 3663,
      "Ġ];": 3664,
      "unix": 3665,
      "chapter": 3666,
      "Ġhf": 3667,
      "pcidevice": 3668,
      "Ġsb": 3669,
      "encrypt": 3670,
      "Ġtx": 3671,
      "Ġgl": 3672,
      "Ġhttp": 3673,
      "location": 3674,
      "query": 3675,
      "compose": 3676,
      "epel": 3677,
      "Ġmatrix": 3678,
      "Ġcounter": 3679,
      "'))": 3680,
      "hz": 3681,
      "tcp": 3682,
      "vchr": 3683,
      "sist": 3684,
      "unimplemented": 3685,
      "pes": 3686,
      "Ġcontainer": 3687,
      "Ġ\"%\"": 3688,
      "Ġmodi": 3689,
      "Ġfour": 3690,
      "nofail": 3691,
      "completion": 3692,
      "Ġdifferent": 3693,
      "orizontal": 3694,
      "!=": 3695,
      "slirp": 3696,
      "vlum": 3697,
      "incr": 3698,
      "Ġmarker": 3699,
      "framep": 3700,
      "Ġtcp": 3701,
      "cision": 3702,
      "Ġflv": 3703,
      "Ġiovec": 3704,
      "hyper": 3705,
      "ass": 3706,
      "wise": 3707,
      "remaining": 3708,
      "prix": 3709,
      "transl": 3710,
      "Ġffserver": 3711,
      "Ġcore": 3712,
      "prediction": 3713,
      "Ġhash": 3714,
      "Ġdriver": 3715,
      "scratch": 3716,
      "Ġhappen": 3717,
      "Ġebml": 3718,
      "jo": 3719,
      "mirror": 3720,
      "smb": 3721,
      "Ġ(-": 3722,
      "Ġsasl": 3723,
      "orts": 3724,
      "Ġmis": 3725,
      "bute": 3726,
      "Ġconvert": 3727,
      "mdct": 3728,
      "csr": 3729,
      "brcondi": 3730,
      "Ġpossible": 3731,
      "Ġpool": 3732,
      "ability": 3733,
      "4210": 3734,
      "requency": 3735,
      "(-": 3736,
      ")-": 3737,
      "dprintf": 3738,
      "efault": 3739,
      "lsb": 3740,
      "Ġclock": 3741,
      "Ġavcol": 3742,
      "Ġ\");": 3743,
      "Ġinet": 3744,
      "performance": 3745,
      "dststride": 3746,
      "busdev": 3747,
      "subband": 3748,
      "syscall": 3749,
      "lba": 3750,
      "10000": 3751,
      "aded": 3752,
      "uuid": 3753,
      "Ġic": 3754,
      "ens": 3755,
      "Ġfall": 3756,
      ")),": 3757,
      "devs": 3758,
      "Ġinlink": 3759,
      "Ġdead": 3760,
      "reader": 3761,
      "allocz": 3762,
      "Ġwithout": 3763,
      "Ġaligned": 3764,
      "Ġpartition": 3765,
      "Ġmultiple": 3766,
      "60": 3767,
      "fm": 3768,
      "ibute": 3769,
      "marker": 3770,
      "saddr": 3771,
      "Ġiter": 3772,
      "Ġavg": 3773,
      "Ġmark": 3774,
      "Ġluma": 3775,
      "Ġsee": 3776,
      "Ġsel": 3777,
      "quirk": 3778,
      "ressive": 3779,
      "Ġenabled": 3780,
      "packssd": 3781,
      "iew": 3782,
      "Ġldl": 3783,
      "bigendian": 3784,
      "Ġraise": 3785,
      "packssdw": 3786,
      "lj": 3787,
      "inline": 3788,
      "Ġcx": 3789,
      "Ġcause": 3790,
      "Ġase": 3791,
      "fft": 3792,
      "Ġnut": 3793,
      "container": 3794,
      "script": 3795,
      "srcw": 3796,
      "filterpos": 3797,
      "component": 3798,
      "minus": 3799,
      "ibm": 3800,
      "(__": 3801,
      "cat": 3802,
      "floor": 3803,
      "lr": 3804,
      "ton": 3805,
      "Ġ\"/": 3806,
      "Ġdyn": 3807,
      "avr": 3808,
      "ident": 3809,
      "ollow": 3810,
      "Ġxmm": 3811,
      "Ġnothing": 3812,
      "ldl": 3813,
      "interval": 3814,
      "Ġcomplete": 3815,
      "Ġnvme": 3816,
      "eflags": 3817,
      "glyph": 3818,
      "uyv": 3819,
      "Ġmkv": 3820,
      "Ġvmx": 3821,
      "mpe": 3822,
      "Ġdmv": 3823,
      "Ġstw": 3824,
      "Ġstuff": 3825,
      "ulated": 3826,
      "Ġlpc": 3827,
      "raise": 3828,
      "show": 3829,
      "Ġsrcw": 3830,
      "Ġcoded": 3831,
      "filters": 3832,
      "440": 3833,
      "Ġoffs": 3834,
      "rectory": 3835,
      "255": 3836,
      "512": 3837,
      ">=": 3838,
      "sce": 3839,
      "Ġscore": 3840,
      "Ġtail": 3841,
      "Ġavs": 3842,
      "Ġdrc": 3843,
      "outbuf": 3844,
      "Ġffabs": 3845,
      "nder": 3846,
      "Ġpcidevice": 3847,
      "flv": 3848,
      "Ġabove": 3849,
      "Ġpriu": 3850,
      "Ġpending": 3851,
      "cert": 3852,
      "vreg": 3853,
      "restore": 3854,
      "reached": 3855,
      "enu": 3856,
      "Ġpes": 3857,
      "icast": 3858,
      "Ġdts": 3859,
      "bucket": 3860,
      "Ġuart": 3861,
      "Ġxvid": 3862,
      "Ġsec": 3863,
      "Ġsense": 3864,
      "Ġjob": 3865,
      "Ġfactor": 3866,
      "mpegenccontext": 3867,
      "??": 3868,
      "nop": 3869,
      "ergy": 3870,
      "Ġsurface": 3871,
      "encoded": 3872,
      "Ġtls": 3873,
      "Ġavformatcontext": 3874,
      "avx": 3875,
      "thing": 3876,
      "ility": 3877,
      "devicestate": 3878,
      "Ġ::": 3879,
      "formation": 3880,
      "feat": 3881,
      "modi": 3882,
      "Ġstreams": 3883,
      "Ġpackets": 3884,
      "cx": 3885,
      "eob": 3886,
      "native": 3887,
      "delete": 3888,
      "Ġtpm": 3889,
      "lea": 3890,
      "Ġnormal": 3891,
      "Ġohci": 3892,
      "uess": 3893,
      "Ġword": 3894,
      "Ġforce": 3895,
      "pau": 3896,
      "mote": 3897,
      "grab": 3898,
      "Ġcontroller": 3899,
      "multi": 3900,
      "priu": 3901,
      "pxor": 3902,
      "rsp": 3903,
      "Ġ48": 3904,
      "Ġoutlink": 3905,
      "Ġfiles": 3906,
      "Ġdirty": 3907,
      "roups": 3908,
      "framerate": 3909,
      "golden": 3910,
      "hint": 3911,
      "half": 3912,
      "ible": 3913,
      "rice": 3914,
      "xinc": 3915,
      "sen": 3916,
      "Ġtab": 3917,
      "Ġfr": 3918,
      "Ġdown": 3919,
      "Ġuhci": 3920,
      "Ġexist": 3921,
      "dsth": 3922,
      "erties": 3923,
      "Ġbitrate": 3924,
      "interlace": 3925,
      "wrn": 3926,
      "cid": 3927,
      "enot": 3928,
      "ito": 3929,
      "Ġpstrc": 3930,
      "Ġavdiscard": 3931,
      "elen": 3932,
      "Ġvert": 3933,
      "Ġhls": 3934,
      "acct": 3935,
      "until": 3936,
      "resync": 3937,
      "savevm": 3938,
      "Ġimmedi": 3939,
      "Ġreceived": 3940,
      "strict": 3941,
      "permutation": 3942,
      "loppy": 3943,
      ")+": 3944,
      "88": 3945,
      "just": 3946,
      "lfe": 3947,
      "lambda": 3948,
      "ous": 3949,
      "tree": 3950,
      "Ġbgr": 3951,
      "Ġfloor": 3952,
      "icit": 3953,
      "Ġdp": 3954,
      "Ġste": 3955,
      "ults": 3956,
      "Ġogg": 3957,
      "Ġwindow": 3958,
      "iso": 3959,
      "ished": 3960,
      "apt": 3961,
      "srcstride": 3962,
      "Ġblockdriver": 3963,
      "mono": 3964,
      "Ġneeds": 3965,
      "like": 3966,
      "mspel": 3967,
      "menu": 3968,
      "pnum": 3969,
      "inbuf": 3970,
      "Ġfop": 3971,
      "Ġmmap": 3972,
      "Ġrtl": 3973,
      "Ġqdecref": 3974,
      "ason": 3975,
      "Ġargc": 3976,
      "Ġblockdev": 3977,
      "tbr": 3978,
      "plus": 3979,
      "words": 3980,
      "goti": 3981,
      "Ġiscsilun": 3982,
      "Ġapply": 3983,
      "psrlq": 3984,
      "dm": 3985,
      "fac": 3986,
      "slots": 3987,
      "Ġavfmt": 3988,
      "Ġmmx": 3989,
      "Ġnnz": 3990,
      "Ġstrip": 3991,
      "Ġ63": 3992,
      "ween": 3993,
      "Ġsyn": 3994,
      "Ġeven": 3995,
      "ppcstate": 3996,
      "snapshots": 3997,
      "\"(*": 3998,
      "//": 3999,
      "gdb": 4000,
      "nibble": 4001,
      "iter": 4002,
      "compute": 4003,
      "umb": 4004,
      "using": 4005,
      "strip": 4006,
      "dexec": 4007,
      "Ġgener": 4008,
      "Ġbegin": 4009,
      "msmpeg": 4010,
      "osition": 4011,
      "Ġpages": 4012,
      "chunks": 4013,
      "delayed": 4014,
      "Ġhpet": 4015,
      "52": 4016,
      "jump": 4017,
      "linux": 4018,
      "lector": 4019,
      "Ġfollow": 4020,
      "come": 4021,
      "opp": 4022,
      "Ġgiv": 4023,
      "Ġ\"\",": 4024,
      "exact": 4025,
      "ues": 4026,
      "Ġind": 4027,
      "Ġ#%": 4028,
      "outputs": 4029,
      "ntax": 4030,
      "memcmp": 4031,
      "Ġ:\"": 4032,
      "Ġidct": 4033,
      "Ġblkdbg": 4034,
      "convbuffer": 4035,
      "63": 4036,
      ":\",": 4037,
      "ner": 4038,
      "here": 4039,
      "Ġrtc": 4040,
      "iocb": 4041,
      "Ġ\\\"": 4042,
      "bswap": 4043,
      "lower": 4044,
      "decodecontext": 4045,
      "pages": 4046,
      "grp": 4047,
      "Ġmovnt": 4048,
      "pendent": 4049,
      "vision": 4050,
      "priority": 4051,
      "--------": 4052,
      "Ġignored": 4053,
      "76": 4054,
      "dflag": 4055,
      "tf": 4056,
      "Ġ],": 4057,
      "Ġsmb": 4058,
      "avc": 4059,
      "ssp": 4060,
      "mbs": 4061,
      "mbol": 4062,
      "Ġseq": 4063,
      "Ġknow": 4064,
      "])*": 4065,
      "Ġtempor": 4066,
      "increment": 4067,
      "paddw": 4068,
      "macaddr": 4069,
      "Ġcoeffs": 4070,
      "259": 4071,
      "allel": 4072,
      "Ġbetween": 4073,
      "Ġprotocol": 4074,
      "]\"": 4075,
      "bt": 4076,
      "vring": 4077,
      "voice": 4078,
      "zag": 4079,
      "leak": 4080,
      "Ġpid": 4081,
      "Ġgtk": 4082,
      "Ġdraw": 4083,
      "Ġqpci": 4084,
      "igzag": 4085,
      "Ġlp": 4086,
      "Ġdstformat": 4087,
      "uvid": 4088,
      "iovector": 4089,
      "ording": 4090,
      "dictionary": 4091,
      "Ġscaler": 4092,
      "style": 4093,
      "'\",": 4094,
      "after": 4095,
      "eip": 4096,
      "wp": 4097,
      "star": 4098,
      "sidual": 4099,
      "Ġavc": 4100,
      "elp": 4101,
      "pec": 4102,
      "Ġrle": 4103,
      "Ġhpte": 4104,
      "than": 4105,
      "ument": 4106,
      "framesize": 4107,
      "roblock": 4108,
      "Ġea": 4109,
      "quad": 4110,
      "vmc": 4111,
      "Ġdiscard": 4112,
      "Ġdisabled": 4113,
      "armstate": 4114,
      "initialized": 4115,
      "allowed": 4116,
      "-+": 4117,
      "97": 4118,
      "ered": 4119,
      "nip": 4120,
      "Ġuntil": 4121,
      "Ġsse": 4122,
      "Ġam": 4123,
      "orage": 4124,
      "Ġbm": 4125,
      "Ġman": 4126,
      "Ġvst": 4127,
      "avf": 4128,
      "Ġlater": 4129,
      "Ġ???": 4130,
      "vmstate": 4131,
      "cmphex": 4132,
      "segv": 4133,
      "Ġioreq": 4134,
      "Ġallocated": 4135,
      "Ġleast": 4136,
      "recogn": 4137,
      "websock": 4138,
      "/(": 4139,
      "500": 4140,
      "dy": 4141,
      "mq": 4142,
      "enum": 4143,
      "Ġapic": 4144,
      "Ġremaining": 4145,
      "Ġplace": 4146,
      "alg": 4147,
      "undef": 4148,
      "mpv": 4149,
      "Ġdflag": 4150,
      "make": 4151,
      "Ġrl": 4152,
      "expected": 4153,
      "Ġqscale": 4154,
      "Ġcpuid": 4155,
      "andard": 4156,
      "prom": 4157,
      "alignment": 4158,
      "rgba": 4159,
      "booke": 4160,
      "callback": 4161,
      "surfaces": 4162,
      "enotsup": 4163,
      "\"(%": 4164,
      "ger": 4165,
      "gop": 4166,
      "mant": 4167,
      "Ġits": 4168,
      "Ġsaved": 4169,
      "Ġpitch": 4170,
      "ates": 4171,
      "utdown": 4172,
      "Ġqstring": 4173,
      "Ġwp": 4174,
      "lend": 4175,
      "loglevel": 4176,
      "endptr": 4177,
      "bsf": 4178,
      "Ġbitstream": 4179,
      "mmxext": 4180,
      "cells": 4181,
      "connector": 4182,
      "bv": 4183,
      "qlist": 4184,
      "Ġtap": 4185,
      "cost": 4186,
      "Ġgd": 4187,
      "Ġvlan": 4188,
      "pointer": 4189,
      "Ġexpected": 4190,
      "2048": 4191,
      "decor": 4192,
      "running": 4193,
      "visor": 4194,
      "ternate": 4195,
      "singlestep": 4196,
      "Ġspecific": 4197,
      "8259": 4198,
      "::\"": 4199,
      "npc": 4200,
      "su": 4201,
      "restart": 4202,
      "repeat": 4203,
      "Ġimp": 4204,
      "Ġopp": 4205,
      "forward": 4206,
      "Ġcompat": 4207,
      "rtas": 4208,
      "'):": 4209,
      "overflow": 4210,
      "stead": 4211,
      "execute": 4212,
      "Ġconnect": 4213,
      "fourcc": 4214,
      "Ġmigrate": 4215,
      "Ġmovntq": 4216,
      "mangle": 4217,
      "qobject": 4218,
      "xp": 4219,
      "Ġ/=": 4220,
      "chs": 4221,
      "shri": 4222,
      "template": 4223,
      "invalidate": 4224,
      "Ġsetting": 4225,
      "dummy": 4226,
      "Ġpointer": 4227,
      "Ġ^=": 4228,
      "keys": 4229,
      "Ġterm": 4230,
      "cq": 4231,
      "creds": 4232,
      "fps": 4233,
      "numa": 4234,
      "wmv": 4235,
      "Ġslirp": 4236,
      "Ġtm": 4237,
      "Ġbin": 4238,
      "leep": 4239,
      "cook": 4240,
      "elcome": 4241,
      "ceil": 4242,
      "sci": 4243,
      "screen": 4244,
      "Ġevery": 4245,
      "press": 4246,
      "Ġcursor": 4247,
      "safe": 4248,
      "dxva": 4249,
      "Ġotherwise": 4250,
      "Ġvhdx": 4251,
      "Ġvmxnet": 4252,
      "<=": 4253,
      "play": 4254,
      "vpe": 4255,
      "Ġsvga": 4256,
      "Ġbps": 4257,
      "loss": 4258,
      "Ġglobal": 4259,
      "Ġqemuiovector": 4260,
      "force": 4261,
      "Ġargv": 4262,
      "message": 4263,
      "rdwr": 4264,
      "Ġprog": 4265,
      "queues": 4266,
      "Ġposition": 4267,
      "Ġpiix": 4268,
      "Ġtables": 4269,
      "machinestate": 4270,
      "Ġmsix": 4271,
      ")],": 4272,
      "]>>": 4273,
      "cre": 4274,
      "est": 4275,
      "epc": 4276,
      "ture": 4277,
      "vps": 4278,
      "zrle": 4279,
      "Ġrestore": 4280,
      "etype": 4281,
      "otag": 4282,
      "peer": 4283,
      "types": 4284,
      "override": 4285,
      "Ġcoef": 4286,
      "Ġchardriverstate": 4287,
      "Ġalt": 4288,
      "ldub": 4289,
      "Ġlines": 4290,
      "sysmem": 4291,
      "progressive": 4292,
      "ticks": 4293,
      "Ġpstrcpy": 4294,
      "27": 4295,
      "imp": 4296,
      "nm": 4297,
      "pfx": 4298,
      "ssi": 4299,
      "tol": 4300,
      "xed": 4301,
      "enos": 4302,
      "cty": 4303,
      "Ġbank": 4304,
      "Ġfc": 4305,
      "Ġmr": 4306,
      "Ġgain": 4307,
      "Ġvenc": 4308,
      "utf": 4309,
      "psy": 4310,
      "Ġ\\\\": 4311,
      "touv": 4312,
      "uintptr": 4313,
      "xfc": 4314,
      "Ġmove": 4315,
      "chardev": 4316,
      "corr": 4317,
      "virtual": 4318,
      "Ġcondition": 4319,
      "planar": 4320,
      "\")));": 4321,
      "29": 4322,
      "bstate": 4323,
      "fh": 4324,
      "hflag": 4325,
      "tce": 4326,
      "view": 4327,
      "Ġspl": 4328,
      "Ġbro": 4329,
      "Ġreport": 4330,
      "Ġvms": 4331,
      "Ġvfp": 4332,
      "sched": 4333,
      "Ġconsumed": 4334,
      "signo": 4335,
      "crn": 4336,
      "swb": 4337,
      "Ġrequired": 4338,
      "Ġ!!(": 4339,
      "Ġgraphic": 4340,
      "gl": 4341,
      "tached": 4342,
      "zstream": 4343,
      "Ġrelease": 4344,
      "ether": 4345,
      "cker": 4346,
      "Ġway": 4347,
      "Ġinstead": 4348,
      "shli": 4349,
      "ipv": 4350,
      "Ġencoder": 4351,
      "Ġpcie": 4352,
      "sym": 4353,
      "way": 4354,
      "Ġioctl": 4355,
      "__);": 4356,
      "Ġbands": 4357,
      "Ġphysical": 4358,
      "Ġsmk": 4359,
      "bias": 4360,
      "coming": 4361,
      "buckets": 4362,
      "ahead": 4363,
      "esi": 4364,
      "pfd": 4365,
      "patch": 4366,
      "sus": 4367,
      "tcr": 4368,
      "ule": 4369,
      "ubuf": 4370,
      "xop": 4371,
      "rets": 4372,
      "ination": 4373,
      "ora": 4374,
      "lack": 4375,
      "Ġinformation": 4376,
      "pas": 4377,
      "psw": 4378,
      "Ġlsi": 4379,
      "blocker": 4380,
      "countdown": 4381,
      "Ġunsupported": 4382,
      "Ġexc": 4383,
      "luks": 4384,
      "Ġbelow": 4385,
      "Ġcomple": 4386,
      "Ġassume": 4387,
      "ches": 4388,
      "Ġstereo": 4389,
      "bid": 4390,
      "mot": 4391,
      "ud": 4392,
      "vaddr": 4393,
      "Ġeth": 4394,
      "Ġich": 4395,
      "onito": 4396,
      "Ġms": 4397,
      "Ġgnut": 4398,
      "Ġ\"#": 4399,
      "mppc": 4400,
      "lusive": 4401,
      "crm": 4402,
      "Ġbswap": 4403,
      "chrtoyv": 4404,
      "====": 4405,
      "Ġptrdiff": 4406,
      "Ġdriveinfo": 4407,
      "Ġ(;;)": 4408,
      "Ġresponse": 4409,
      "Ġgnutls": 4410,
      "05": 4411,
      "bal": 4412,
      "eac": 4413,
      "hb": 4414,
      "nnz": 4415,
      "sregs": 4416,
      "incts": 4417,
      "Ġahci": 4418,
      "Ġavdictionary": 4419,
      "elist": 4420,
      "Ġhalf": 4421,
      "reginfo": 4422,
      "offsetof": 4423,
      "shr": 4424,
      "adding": 4425,
      "slb": 4426,
      "qemufile": 4427,
      "Ġreading": 4428,
      "gpf": 4429,
      "sdl": 4430,
      "Ġinterface": 4431,
      "clut": 4432,
      "Ġproperty": 4433,
      "dimensions": 4434,
      "Ġcompressed": 4435,
      "http": 4436,
      "stctl": 4437,
      "Ġcrc": 4438,
      "Ġssd": 4439,
      "Ġsdram": 4440,
      "Ġdtext": 4441,
      "iformat": 4442,
      "Ġarith": 4443,
      "Ġempty": 4444,
      "Ġens": 4445,
      "Ġprediction": 4446,
      "backward": 4447,
      "front": 4448,
      "replace": 4449,
      "Ġcleanup": 4450,
      "othread": 4451,
      "Ġsplit": 4452,
      "eagain": 4453,
      "ield": 4454,
      "mmap": 4455,
      "Ġlike": 4456,
      "dend": 4457,
      "Ġsf": 4458,
      "Ġbmv": 4459,
      "Ġmot": 4460,
      "ulation": 4461,
      "Ġcont": 4462,
      "psll": 4463,
      "Ġoptim": 4464,
      "Ġqemuopts": 4465,
      "ness": 4466,
      "lines": 4467,
      "Ġtrk": 4468,
      "service": 4469,
      "position": 4470,
      "Ġcurr": 4471,
      "disposition": 4472,
      "(!(": 4473,
      "555": 4474,
      "Ġdirac": 4475,
      "overlay": 4476,
      "Ġmedia": 4477,
      "nvenc": 4478,
      "Ġfeed": 4479,
      "Ġimplementation": 4480,
      "Ġcalculate": 4481,
      "ched": 4482,
      "hal": 4483,
      "pattern": 4484,
      "qio": 4485,
      "welcome": 4486,
      "Ġlet": 4487,
      "Ġlayout": 4488,
      "Ġivi": 4489,
      "Ġreject": 4490,
      "Ġpop": 4491,
      "Ġmissing": 4492,
      "Ġdid": 4493,
      "trc": 4494,
      "condexec": 4495,
      "pipe": 4496,
      "Ġstrto": 4497,
      "espec": 4498,
      "Ġprobe": 4499,
      "Ġspeed": 4500,
      "Ġmeans": 4501,
      "secure": 4502,
      "Ġkeep": 4503,
      "Ġvmdk": 4504,
      "patchwelcome": 4505,
      "Ġensure": 4506,
      "ea": 4507,
      "family": 4508,
      "iid": 4509,
      "slave": 4510,
      "Ġvring": 4511,
      "Ġconf": 4512,
      "geotag": 4513,
      "Ġisn": 4514,
      "Ġxc": 4515,
      "loader": 4516,
      "cbpc": 4517,
      "compno": 4518,
      "Ġbdrvqcow": 4519,
      "regions": 4520,
      "hwctx": 4521,
      "yuva": 4522,
      "lerate": 4523,
      "requested": 4524,
      "expand": 4525,
      "Ġ$\"": 4526,
      "vaapi": 4527,
      "powerpc": 4528,
      "Ġfuncc": 4529,
      "fmts": 4530,
      "*)(": 4531,
      "city": 4532,
      "ored": 4533,
      "vdi": 4534,
      "Ġcsr": 4535,
      "Ġpattern": 4536,
      "adt": 4537,
      "Ġvsrc": 4538,
      "Ġnd": 4539,
      "Ġdy": 4540,
      "iomem": 4541,
      "pacity": 4542,
      "allocation": 4543,
      "subsample": 4544,
      "vmx": 4545,
      "fsr": 4546,
      "extract": 4547,
      "Ġcomponent": 4548,
      "Ġsdhc": 4549,
      "Ġmovie": 4550,
      "Ġconnection": 4551,
      "Ġfragment": 4552,
      "srsconf": 4553,
      "[((": 4554,
      "duct": 4555,
      "izer": 4556,
      "mch": 4557,
      "pin": 4558,
      "vsid": 4559,
      "dered": 4560,
      "Ġfif": 4561,
      "itask": 4562,
      "Ġpe": 4563,
      "Ġpng": 4564,
      "six": 4565,
      "conn": 4566,
      "Ġ%#": 4567,
      "Ġlu": 4568,
      "ivi": 4569,
      "extend": 4570,
      "shl": 4571,
      "shared": 4572,
      "Ġ36": 4573,
      "bufferref": 4574,
      "preset": 4575,
      "symbol": 4576,
      "lcd": 4577,
      "errupts": 4578,
      "uffix": 4579,
      "nvram": 4580,
      "Ġfooter": 4581,
      "misc": 4582,
      "]){": 4583,
      "ahci": 4584,
      "qa": 4585,
      "icy": 4586,
      "Ġdither": 4587,
      "butt": 4588,
      "pare": 4589,
      "this": 4590,
      "andom": 4591,
      "Ġiso": 4592,
      "inity": 4593,
      "Ġsrcformat": 4594,
      "Ġwhat": 4595,
      "chron": 4596,
      "segs": 4597,
      "Ġsubtitle": 4598,
      "eventfd": 4599,
      "attrs": 4600,
      "rows": 4601,
      "Ġlook": 4602,
      "virtqueue": 4603,
      "marsh": 4604,
      "lz": 4605,
      "nan": 4606,
      "Ġcg": 4607,
      "Ġsg": 4608,
      "Ġsoft": 4609,
      "Ġtt": 4610,
      "Ġtlen": 4611,
      "Ġpadding": 4612,
      "Ġmjpeg": 4613,
      "Ġwv": 4614,
      "psd": 4615,
      "outlink": 4616,
      "descr": 4617,
      "Ġsigset": 4618,
      "Ġrgba": 4619,
      "specific": 4620,
      "Ġindic": 4621,
      "button": 4622,
      "gpu": 4623,
      "kb": 4624,
      "lsock": 4625,
      "mkv": 4626,
      "pf": 4627,
      "Ġfetch": 4628,
      "buff": 4629,
      "trk": 4630,
      "Ġqvirtio": 4631,
      "Ġislit": 4632,
      "(\"\\": 4633,
      "Ġkv": 4634,
      "filtercode": 4635,
      "serted": 4636,
      "interface": 4637,
      "optind": 4638,
      "Ġslices": 4639,
      "Ġrequested": 4640,
      "bf": 4641,
      "qint": 4642,
      "zigzag": 4643,
      "Ġendian": 4644,
      "remote": 4645,
      "instr": 4646,
      "Ġfram": 4647,
      "Ġmt": 4648,
      "Ġdu": 4649,
      "Ġrtmp": 4650,
      "strstart": 4651,
      "rack": 4652,
      "inition": 4653,
      "Ġeither": 4654,
      "headers": 4655,
      "Ġparent": 4656,
      "ccw": 4657,
      "565": 4658,
      "requests": 4659,
      "Ġdrop": 4660,
      "Ġextension": 4661,
      "element": 4662,
      "Ġclut": 4663,
      "Ġwritten": 4664,
      "sampling": 4665,
      "Ġfeatures": 4666,
      "-+-+": 4667,
      "qbus": 4668,
      "targ": 4669,
      "inlink": 4670,
      "atial": 4671,
      "Ġtv": 4672,
      "integer": 4673,
      "Ġfli": 4674,
      "Ġpm": 4675,
      "idle": 4676,
      "Ġmpc": 4677,
      "Ġgid": 4678,
      "uring": 4679,
      "Ġrce": 4680,
      "Ġwhere": 4681,
      "ssse": 4682,
      "Ġffalign": 4683,
      "Ġxer": 4684,
      "Ġeof": 4685,
      "Ġnever": 4686,
      "before": 4687,
      "Ġpcibus": 4688,
      "Ġbuffers": 4689,
      "resetvalue": 4690,
      "Ġchanged": 4691,
      "vari": 4692,
      "route": 4693,
      "precincts": 4694,
      "Ġvirtqueue": 4695,
      "compatible": 4696,
      "Ġdbdma": 4697,
      "Ġactually": 4698,
      "(;;)": 4699,
      "interleaved": 4700,
      "decorr": 4701,
      "Ġfifo": 4702,
      "59": 4703,
      "tight": 4704,
      "vcpu": 4705,
      "xvid": 4706,
      "resize": 4707,
      "resid": 4708,
      "sth": 4709,
      "Ġcre": 4710,
      "amask": 4711,
      "around": 4712,
      "Ġ\"-": 4713,
      "edata": 4714,
      "stra": 4715,
      "igger": 4716,
      "Ġlv": 4717,
      "olution": 4718,
      "endpoint": 4719,
      "redp": 4720,
      "Ġprovide": 4721,
      "colorspace": 4722,
      "scaling": 4723,
      "af": 4724,
      "fpe": 4725,
      "vmd": 4726,
      "xm": 4727,
      "xtensa": 4728,
      "Ġavpicture": 4729,
      "anal": 4730,
      "passes": 4731,
      "scsw": 4732,
      "acl": 4733,
      "negoti": 4734,
      "mvd": 4735,
      "Ġblocksize": 4736,
      "busy": 4737,
      "box": 4738,
      "properties": 4739,
      "brcond": 4740,
      "segments": 4741,
      "pectr": 4742,
      "261": 4743,
      "password": 4744,
      "Ġexecution": 4745,
      "Ġsmbios": 4746,
      "400": 4747,
      "83": 4748,
      ":\\": 4749,
      "bmds": 4750,
      "qtest": 4751,
      "Ġ]=": 4752,
      "idate": 4753,
      "footer": 4754,
      "devices": 4755,
      "Ġjmp": 4756,
      "Ġjump": 4757,
      "Ġstrchr": 4758,
      "Ġstrtol": 4759,
      "writev": 4760,
      "mean": 4761,
      "Ġdefine": 4762,
      "granularity": 4763,
      "edgev": 4764,
      "Ġcommon": 4765,
      "grouplist": 4766,
      "watchpoint": 4767,
      "fun": 4768,
      "pit": 4769,
      "sdp": 4770,
      "tid": 4771,
      "vmsd": 4772,
      "Ġlayer": 4773,
      "Ġboth": 4774,
      "Ġffio": 4775,
      "loon": 4776,
      "ants": 4777,
      "anted": 4778,
      "gettime": 4779,
      "Ġqtest": 4780,
      "dstblock": 4781,
      "Ġ60": 4782,
      "objectclass": 4783,
      "ription": 4784,
      "vdpau": 4785,
      "Ġnodes": 4786,
      "rng": 4787,
      "Ġvari": 4788,
      "Ġinclu": 4789,
      "Ġatomic": 4790,
      "cflags": 4791,
      "dnow": 4792,
      "fu": 4793,
      "pg": 4794,
      "pfl": 4795,
      "pflash": 4796,
      "rex": 4797,
      "Ġperror": 4798,
      "alen": 4799,
      "ases": 4800,
      "Ġcases": 4801,
      "Ġ..": 4802,
      "ftell": 4803,
      "dog": 4804,
      "domain": 4805,
      "Ġboard": 4806,
      "linker": 4807,
      "Ġtrap": 4808,
      "commit": 4809,
      "Ġfields": 4810,
      "Ġcoeffic": 4811,
      "primaries": 4812,
      "escape": 4813,
      "1394": 4814,
      "recognition": 4815,
      "card": 4816,
      "hpte": 4817,
      "lut": 4818,
      "pio": 4819,
      "vms": 4820,
      "volatile": 4821,
      "Ġsof": 4822,
      "intel": 4823,
      "amelen": 4824,
      "Ġpcr": 4825,
      "idsp": 4826,
      "Ġnand": 4827,
      "Ġintr": 4828,
      "Ġins": 4829,
      "acc": 4830,
      "faults": 4831,
      "Ġest": 4832,
      "Ġdsth": 4833,
      "configuration": 4834,
      "Ġparser": 4835,
      "timers": 4836,
      "Ġdeviceclass": 4837,
      "Ġinternal": 4838,
      "paddusb": 4839,
      "tiles": 4840,
      "Ġvmcb": 4841,
      "Ġldq": 4842,
      "within": 4843,
      "softmmu": 4844,
      "breakpoint": 4845,
      "Ġwrong": 4846,
      "Ġfidp": 4847,
      "Ġmismatch": 4848,
      "targphys": 4849,
      "-=": 4850,
      "sqrt": 4851,
      "wc": 4852,
      "erand": 4853,
      "Ġreason": 4854,
      "Ġstq": 4855,
      "trail": 4856,
      "Ġ26": 4857,
      "Ġ27": 4858,
      "Ġden": 4859,
      "spice": 4860,
      "pose": 4861,
      "Ġchardev": 4862,
      "Ġ':": 4863,
      "Ġiomem": 4864,
      "Ġcmdline": 4865,
      "handlers": 4866,
      "socketaddress": 4867,
      "Ġnvram": 4868,
      "Ġuvsrc": 4869,
      "Ġbadframe": 4870,
      "Ġallowed": 4871,
      "exclusive": 4872,
      "instance": 4873,
      "sthrough": 4874,
      "cuvid": 4875,
      "iothread": 4876,
      "missing": 4877,
      "smp": 4878,
      "uvalpha": 4879,
      "inner": 4880,
      "Ġcu": 4881,
      "Ġcpsr": 4882,
      "Ġbottom": 4883,
      "locty": 4884,
      "Ġrel": 4885,
      "Ġpin": 4886,
      "Ġmight": 4887,
      "Ġstill": 4888,
      "ably": 4889,
      "Ġsimp": 4890,
      "strto": 4891,
      "termin": 4892,
      "splat": 4893,
      "Ġsei": 4894,
      "Ġsecs": 4895,
      "basedev": 4896,
      "Ġcodes": 4897,
      "Ġmain": 4898,
      "Ġsomet": 4899,
      "xfffc": 4900,
      "Ġaud": 4901,
      "frac": 4902,
      "Ġinterlaced": 4903,
      "ically": 4904,
      "specified": 4905,
      ")<<": 4906,
      "fsp": 4907,
      "prefetch": 4908,
      "qc": 4909,
      "qstring": 4910,
      "zlib": 4911,
      "Ġctr": 4912,
      "Ġsz": 4913,
      "ids": 4914,
      "tection": 4915,
      "unce": 4916,
      "Ġok": 4917,
      "avi": 4918,
      "Ġhuff": 4919,
      "geo": 4920,
      "pixbuf": 4921,
      "Ġwhole": 4922,
      "Ġfilm": 4923,
      "Ġ**)&": 4924,
      "Ġcompno": 4925,
      "Ġuses": 4926,
      "Ġcurrently": 4927,
      "nonblock": 4928,
      "Ġparams": 4929,
      "flip": 4930,
      "marshal": 4931,
      "Ġdummy": 4932,
      "=\"": 4933,
      "[%": 4934,
      "bx": 4935,
      "px": 4936,
      "pel": 4937,
      "pvr": 4938,
      "tas": 4939,
      "vop": 4940,
      "Ġsvm": 4941,
      "Ġtak": 4942,
      "Ġttbr": 4943,
      "codsty": 4944,
      "adst": 4945,
      "Ġmerge": 4946,
      "Ġ\"+": 4947,
      "union": 4948,
      "prm": 4949,
      "iocontext": 4950,
      "above": 4951,
      "argc": 4952,
      "Ġyscale": 4953,
      "Ġmaximum": 4954,
      "colum": 4955,
      "Ġdisable": 4956,
      "mediate": 4957,
      "Ġhandled": 4958,
      "divx": 4959,
      "reslevelno": 4960,
      "cessed": 4961,
      "Ġimmediate": 4962,
      "dh": 4963,
      "gfx": 4964,
      "hls": 4965,
      "ih": 4966,
      "madd": 4967,
      "qtd": 4968,
      "vio": 4969,
      "vnet": 4970,
      "renc": 4971,
      "Ġcand": 4972,
      "ordered": 4973,
      "Ġpush": 4974,
      "colo": 4975,
      "Ġ\"<": 4976,
      "fis": 4977,
      "regbp": 4978,
      "mdma": 4979,
      "Ġmaster": 4980,
      "Ġprim": 4981,
      "evt": 4982,
      "Ġcompare": 4983,
      "sdt": 4984,
      "Ġcorrected": 4985,
      "Ġgood": 4986,
      "adcast": 4987,
      "negotiate": 4988,
      "Ġiomemtype": 4989,
      "aes": 4990,
      "dpy": 4991,
      "revision": 4992,
      "residual": 4993,
      "Ġ00": 4994,
      "Ġbx": 4995,
      "Ġnop": 4996,
      "under": 4997,
      "ategy": 4998,
      "getlength": 4999,
      "Ġhd": 5000,
      "scf": 5001,
      "cpuarmstate": 5002,
      "accept": 5003,
      "share": 5004,
      "shutdown": 5005,
      "initfn": 5006,
      "forced": 5007,
      "phdr": 5008,
      "Ġerrors": 5009,
      "Ġ655": 5010,
      "Ġ~((": 5011,
      "edgeh": 5012,
      "previous": 5013,
      "izing": 5014,
      "Ġorigin": 5015,
      "secondary": 5016,
      "chapters": 5017,
      "sistent": 5018,
      "bn": 5019,
      "ho": 5020,
      "lin": 5021,
      "norm": 5022,
      "pv": 5023,
      "vbasedev": 5024,
      "Ġtp": 5025,
      "Ġbonito": 5026,
      "Ġft": 5027,
      "Ġprom": 5028,
      "Ġnone": 5029,
      "Ġduring": 5030,
      "pcms": 5031,
      "Ġls": 5032,
      "readb": 5033,
      "bsub": 5034,
      "formats": 5035,
      "hwdef": 5036,
      "medium": 5037,
      "vqs": 5038,
      "Ġcallback": 5039,
      "Ġmethod": 5040,
      "cycle": 5041,
      "Ġfinal": 5042,
      "scaler": 5043,
      "lavio": 5044,
      "deblocking": 5045,
      "mark": 5046,
      "ostreams": 5047,
      "ohci": 5048,
      "raddr": 5049,
      "storage": 5050,
      "sem": 5051,
      "Ġcvt": 5052,
      "Ġtprintf": 5053,
      "ctr": 5054,
      "Ġbnd": 5055,
      "Ġpas": 5056,
      "Ġvia": 5057,
      "Ġ1000000": 5058,
      "setsize": 5059,
      "avcodec": 5060,
      "atapi": 5061,
      "Ġwin": 5062,
      "Ġsimple": 5063,
      "isr": 5064,
      "Ġdetect": 5065,
      "outpicref": 5066,
      "protect": 5067,
      "fltp": 5068,
      "quantize": 5069,
      "Ġallocation": 5070,
      "rentry": 5071,
      "Ġroot": 5072,
      "truncate": 5073,
      "Ġ4096": 5074,
      "schedule": 5075,
      "psllq": 5076,
      "bsi": 5077,
      "fmul": 5078,
      "qsv": 5079,
      "reorder": 5080,
      "incoming": 5081,
      "dependent": 5082,
      "Ġsx": 5083,
      "its": 5084,
      "other": 5085,
      "fier": 5086,
      "ement": 5087,
      "addl": 5088,
      "Ġexynos": 5089,
      "Ġsrcslice": 5090,
      "Ġ'/": 5091,
      "syntax": 5092,
      "ftp": 5093,
      "Ġatoi": 5094,
      "Ġconfiguration": 5095,
      "Ġevents": 5096,
      "Ġmean": 5097,
      "Ġmessage": 5098,
      "Ġlowpass": 5099,
      "Ġpassword": 5100,
      "samplerate": 5101,
      "enosys": 5102,
      "Ġkvmppc": 5103,
      "010": 5104,
      "77": 5105,
      "eval": 5106,
      "fstat": 5107,
      "iops": 5108,
      "qt": 5109,
      "qiv": 5110,
      "slow": 5111,
      "Ġsnow": 5112,
      "Ġfps": 5113,
      "Ġfmov": 5114,
      "aml": 5115,
      "Ġmid": 5116,
      "otlb": 5117,
      "chown": 5118,
      "ioreq": 5119,
      "Ġwrap": 5120,
      "))))": 5121,
      "Ġchrom": 5122,
      "toh": 5123,
      "toy": 5124,
      "dca": 5125,
      "Ġneg": 5126,
      "Ġbackend": 5127,
      "crypted": 5128,
      "Ġmpegts": 5129,
      "multip": 5130,
      "partitions": 5131,
      "Ġbranch": 5132,
      "Ġgpio": 5133,
      "+\"": 5134,
      "53": 5135,
      "groups": 5136,
      "rtl": 5137,
      "Ġgsi": 5138,
      "Ġ\".": 5139,
      "Ġudp": 5140,
      "Ġwarning": 5141,
      "userdef": 5142,
      "Ġmbn": 5143,
      "sysbus": 5144,
      "Ġvectors": 5145,
      "xendev": 5146,
      "=\\\"": 5147,
      "bro": 5148,
      "fpcr": 5149,
      "lld": 5150,
      "ni": 5151,
      "Ġcert": 5152,
      "alac": 5153,
      "Ġmpu": 5154,
      "setcond": 5155,
      "Ġring": 5156,
      "Ġrcc": 5157,
      "thumb": 5158,
      "strips": 5159,
      "cpuppcstate": 5160,
      "readv": 5161,
      "shmem": 5162,
      "sigreturn": 5163,
      "Ġcolo": 5164,
      "movie": 5165,
      "Ġ',": 5166,
      "bound": 5167,
      "Ġdefinition": 5168,
      "Ġ**)": 5169,
      "Ġfdctrl": 5170,
      "capabilities": 5171,
      "Ġrequests": 5172,
      "Ġdctelem": 5173,
      "Ġalignment": 5174,
      "capacity": 5175,
      "demuxer": 5176,
      "atomic": 5177,
      "Ġboundary": 5178,
      "center": 5179,
      "day": 5180,
      "horizontal": 5181,
      "isc": 5182,
      "sbits": 5183,
      "tpm": 5184,
      "vorbis": 5185,
      "onic": 5186,
      "Ġfloppy": 5187,
      "Ġrect": 5188,
      "always": 5189,
      "Ġmant": 5190,
      "Ġmux": 5191,
      "Ġgpr": 5192,
      "Ġvdi": 5193,
      "Ġ\"'": 5194,
      "Ġstack": 5195,
      "chn": 5196,
      "Ġwm": 5197,
      "ntsty": 5198,
      "refresh": 5199,
      "Ġjson": 5200,
      "filt": 5201,
      "plicit": 5202,
      "samplesref": 5203,
      "srch": 5204,
      "Ġclusters": 5205,
      "Ġextended": 5206,
      "workaround": 5207,
      "Ġscaling": 5208,
      "Ġplanes": 5209,
      "bidir": 5210,
      "8750": 5211,
      "dmv": 5212,
      "normal": 5213,
      "pw": 5214,
      "Ġslow": 5215,
      "Ġsuccess": 5216,
      "Ġtake": 5217,
      "Ġtick": 5218,
      "Ġbt": 5219,
      "adapt": 5220,
      "chg": 5221,
      "bulk": 5222,
      "Ġrice": 5223,
      "Ġown": 5224,
      "Ġqh": 5225,
      "))));": 5226,
      "Ġhton": 5227,
      "Ġside": 5228,
      "illegal": 5229,
      "Ġchild": 5230,
      "Ġlr": 5231,
      "texture": 5232,
      "Ġxinc": 5233,
      "subframe": 5234,
      "reqs": 5235,
      "edgecv": 5236,
      "openpic": 5237,
      "Ġobt": 5238,
      "sysctl": 5239,
      "Ġbased": 5240,
      "Ġvaapi": 5241,
      "windows": 5242,
      "correct": 5243,
      "Ġqpel": 5244,
      "Ġanything": 5245,
      "Ġtswapl": 5246,
      "finish": 5247,
      "olean": 5248,
      "Ġpgm": 5249,
      "passthrough": 5250,
      "93": 5251,
      "csock": 5252,
      "fetch": 5253,
      "hrd": 5254,
      "ii": 5255,
      "pat": 5256,
      "Ġnic": 5257,
      "true": 5258,
      "assign": 5259,
      "Ġgeneric": 5260,
      "Ġffmpeg": 5261,
      "too": 5262,
      "Ġadv": 5263,
      "byteu": 5264,
      "condition": 5265,
      "fpel": 5266,
      "limits": 5267,
      "Ġccid": 5268,
      "xffffff": 5269,
      "ranges": 5270,
      "reserve": 5271,
      "Ġstrcpy": 5272,
      "Ġfbdev": 5273,
      "Ġprobably": 5274,
      "Ġgiven": 5275,
      "Ġtemporary": 5276,
      "geotags": 5277,
      "Ġctrl": 5278,
      "54": 5279,
      "nk": 5280,
      "poutbuf": 5281,
      "vui": 5282,
      "Ġtaddr": 5283,
      "itu": 5284,
      "algo": 5285,
      "Ġavail": 5286,
      "Ġvorbis": 5287,
      "emulated": 5288,
      "001": 5289,
      "atalog": 5290,
      "Ġqmul": 5291,
      "Ġhack": 5292,
      "bitmask": 5293,
      "tsptr": 5294,
      "Ġsizes": 5295,
      "assigned": 5296,
      "nore": 5297,
      "Ġselector": 5298,
      "linear": 5299,
      "rbd": 5300,
      "clientstate": 5301,
      "wrid": 5302,
      "sfb": 5303,
      "guidcmp": 5304,
      "Ġattrs": 5305,
      "psrlw": 5306,
      "ientation": 5307,
      "Ġgdk": 5308,
      "Ġprogress": 5309,
      "balloon": 5310,
      "3000": 5311,
      "ging": 5312,
      "lic": 5313,
      "lang": 5314,
      "svq": 5315,
      "yield": 5316,
      "reordered": 5317,
      "Ġsaddr": 5318,
      "energy": 5319,
      "Ġbc": 5320,
      "Ġfarg": 5321,
      "idstr": 5322,
      "Ġmfx": 5323,
      "mach": 5324,
      "directory": 5325,
      "mmmx": 5326,
      "Ġconta": 5327,
      "strlc": 5328,
      "fdset": 5329,
      "Ġesp": 5330,
      "Ġsepar": 5331,
      "precision": 5332,
      "Ġexport": 5333,
      "timeval": 5334,
      "Ġtran": 5335,
      "minor": 5336,
      "])->": 5337,
      "fscontext": 5338,
      "Ġformatconvbuffer": 5339,
      "units": 5340,
      "prefixes": 5341,
      "swscontext": 5342,
      "descriptors": 5343,
      "Ġfinish": 5344,
      "Ġexponent": 5345,
      "superblock": 5346,
      "strlcat": 5347,
      "gob": 5348,
      "lm": 5349,
      "sdram": 5350,
      "uous": 5351,
      "war": 5352,
      "wake": 5353,
      "zz": 5354,
      "Ġet": 5355,
      "retry": 5356,
      "detach": 5357,
      "Ġ*_": 5358,
      "Ġsuch": 5359,
      "Ġai": 5360,
      "Ġasc": 5361,
      "Ġaction": 5362,
      "Ġprc": 5363,
      "Ġgv": 5364,
      "Ġglyph": 5365,
      "Ġretry": 5366,
      "Ġinf": 5367,
      "dataplane": 5368,
      "strlen": 5369,
      "bufs": 5370,
      "gest": 5371,
      "),\"": 5372,
      "ivity": 5373,
      "olute": 5374,
      "sigaction": 5375,
      "memop": 5376,
      "pixfmt": 5377,
      "heads": 5378,
      "Ġexpect": 5379,
      "Ġargument": 5380,
      "startcode": 5381,
      "Ġbeing": 5382,
      "Ġnecess": 5383,
      "temps": 5384,
      "aud": 5385,
      "aged": 5386,
      "Ġwrites": 5387,
      "Ġhandling": 5388,
      "smk": 5389,
      "Ġrequires": 5390,
      "tickptr": 5391,
      "Ġsecondary": 5392,
      "Ġsrch": 5393,
      "hybrid": 5394,
      "Ġdxva": 5395,
      "Ġ\\\"%": 5396,
      "Ġluks": 5397,
      "Ġyscaleyuv": 5398,
      "=&": 5399,
      "_##": 5400,
      "dpl": 5401,
      "ients": 5402,
      "saved": 5403,
      "vst": 5404,
      "rename": 5405,
      "redir": 5406,
      "render": 5407,
      "Ġstd": 5408,
      "consumed": 5409,
      "utim": 5410,
      "Ġhot": 5411,
      "Ġhist": 5412,
      "mmco": 5413,
      "Ġsimm": 5414,
      "mbmode": 5415,
      "Ġ33": 5416,
      "sigsegv": 5417,
      "Ġpair": 5418,
      "Ġadditional": 5419,
      "handshake": 5420,
      "Ġdestination": 5421,
      "multicast": 5422,
      "programs": 5423,
      "Ġextractfloat": 5424,
      "bilin": 5425,
      "Ġparameter": 5426,
      "postcopy": 5427,
      "Ġdynamic": 5428,
      "Ġvertical": 5429,
      "started": 5430,
      "suspend": 5431,
      "Ġbdrvqcowstate": 5432,
      "95": 5433,
      ":::\"": 5434,
      "hcall": 5435,
      "niov": 5436,
      "oose": 5437,
      "pk": 5438,
      "smc": 5439,
      "uage": 5440,
      "venc": 5441,
      "reopen": 5442,
      "Ġbh": 5443,
      "Ġbat": 5444,
      "Ġrest": 5445,
      "aris": 5446,
      "alk": 5447,
      "Ġstar": 5448,
      "Ġstandard": 5449,
      "Ġoe": 5450,
      "Ġuc": 5451,
      "Ġwc": 5452,
      "Ġinst": 5453,
      "states": 5454,
      "fork": 5455,
      "aux": 5456,
      "lowpass": 5457,
      "pcibus": 5458,
      "plication": 5459,
      "intercept": 5460,
      "swr": 5461,
      "Ġpredict": 5462,
      "fpscr": 5463,
      "Ġcompile": 5464,
      "Ġpcnet": 5465,
      "ustom": 5466,
      "__)": 5467,
      "Ġabout": 5468,
      "realized": 5469,
      "Ġperm": 5470,
      "frags": 5471,
      "fragments": 5472,
      "rounding": 5473,
      "sparcstate": 5474,
      "huffman": 5475,
      "translate": 5476,
      "74": 5477,
      "bed": 5478,
      "dl": 5479,
      "frequency": 5480,
      "mer": 5481,
      "qobj": 5482,
      "sx": 5483,
      "sof": 5484,
      "tco": 5485,
      "vencrypt": 5486,
      "xstate": 5487,
      "->_": 5488,
      "atform": 5489,
      "comb": 5490,
      "Ġvio": 5491,
      "urf": 5492,
      "laiocb": 5493,
      "ross": 5494,
      "rain": 5495,
      "Ġ80": 5496,
      "ipd": 5497,
      "Ġeval": 5498,
      "predict": 5499,
      "mvp": 5500,
      "Ġ'-": 5501,
      "Ġswf": 5502,
      "Ġswap": 5503,
      "indx": 5504,
      "swf": 5505,
      "rxbuf": 5506,
      "Ġinterle": 5507,
      "Ġvery": 5508,
      "Ġnvdimm": 5509,
      "connected": 5510,
      "Ġescape": 5511,
      ".\");": 5512,
      "37": 5513,
      "386": 5514,
      "40000000": 5515,
      "601": 5516,
      "82": 5517,
      "92": 5518,
      "bind": 5519,
      "catalog": 5520,
      "dsi": 5521,
      "fadt": 5522,
      "mk": 5523,
      "pur": 5524,
      "qq": 5525,
      "ssion": 5526,
      "vbe": 5527,
      "Ġsan": 5528,
      "Ġalac": 5529,
      "Ġfpcr": 5530,
      "copi": 5531,
      "Ġmquant": 5532,
      "Ġvol": 5533,
      "Ġintel": 5534,
      "Ġqtype": 5535,
      "Ġwav": 5536,
      "ings": 5537,
      "thr": 5538,
      "codecid": 5539,
      "Ġlba": 5540,
      "upling": 5541,
      "blockalign": 5542,
      "ipred": 5543,
      "Ġmemmove": 5544,
      "Ġnotifier": 5545,
      "Ġchecksum": 5546,
      "enccontext": 5547,
      "colors": 5548,
      "lacing": 5549,
      "Ġ2048": 5550,
      "Ġtransform": 5551,
      "Ġinstructions": 5552,
      "policy": 5553,
      "Ġgranularity": 5554,
      "Ġattribute": 5555,
      "Ġreslevelno": 5556,
      "keysym": 5557,
      "analy": 5558,
      ";\"": 5559,
      "bb": 5560,
      "cmpu": 5561,
      "nsec": 5562,
      "rtmp": 5563,
      "xvmc": 5564,
      "zyn": 5565,
      "Ġfrequency": 5566,
      "Ġhdev": 5567,
      "errors": 5568,
      "piix": 5569,
      "readonly": 5570,
      "Ġbuff": 5571,
      "ights": 5572,
      "fdctrl": 5573,
      "Ġeintr": 5574,
      "Ġbuflen": 5575,
      "writeb": 5576,
      "flat": 5577,
      "Ġready": 5578,
      "lsps": 5579,
      "=%\"": 5580,
      "nvic": 5581,
      "Ġmmco": 5582,
      "volume": 5583,
      "Ġbetter": 5584,
      "Ġiteration": 5585,
      "Ġrejected": 5586,
      "Ġcandidate": 5587,
      "pch": 5588,
      "psci": 5589,
      "qcrypto": 5590,
      "sat": 5591,
      "vfree": 5592,
      "xfe": 5593,
      "Ġics": 5594,
      "Ġaf": 5595,
      "Ġtree": 5596,
      "intc": 5597,
      "leted": 5598,
      "Ġpf": 5599,
      "ateg": 5600,
      "Ġ-(": 5601,
      "ceed": 5602,
      "ash": 5603,
      "ifa": 5604,
      "Ġchoose": 5605,
      "raction": 5606,
      "Ġconstant": 5607,
      "Ġcoding": 5608,
      "Ġeaddr": 5609,
      "Ġmemtx": 5610,
      "parallel": 5611,
      "Ġstructure": 5612,
      "msub": 5613,
      "Ġdolog": 5614,
      "subauth": 5615,
      "submit": 5616,
      "irqchip": 5617,
      "ffffff": 5618,
      "actual": 5619,
      "Ġvirtiodevice": 5620,
      "206": 5621,
      "Ġslb": 5622,
      "chars": 5623,
      "Ġspice": 5624,
      "Ġavfilterbufferref": 5625,
      "Ġlookup": 5626,
      "buffersink": 5627,
      "Ġbootsector": 5628,
      "relli": 5629,
      "reclen": 5630,
      "procmask": 5631,
      "apply": 5632,
      "psubd": 5633,
      ")((": 5634,
      "gsi": 5635,
      "kstart": 5636,
      "rps": 5637,
      "tfs": 5638,
      "vbuf": 5639,
      "Ġ=>": 5640,
      "defaults": 5641,
      "Ġ(++": 5642,
      "Ġct": 5643,
      "Ġcirrus": 5644,
      "Ġsqrt": 5645,
      "Ġpoc": 5646,
      "Ġmost": 5647,
      "Ġmeta": 5648,
      "opd": 5649,
      "Ġguess": 5650,
      "Ġnuma": 5651,
      "Ġntoh": 5652,
      "anon": 5653,
      "uninit": 5654,
      "Ġoi": 5655,
      "strl": 5656,
      "asub": 5657,
      "ofs": 5658,
      "Ġchain": 5659,
      "Ġadded": 5660,
      "Ġwere": 5661,
      "vmy": 5662,
      "pcie": 5663,
      "Ġonen": 5664,
      "product": 5665,
      "cached": 5666,
      "Ġitask": 5667,
      "Ġsuper": 5668,
      "Ġzsig": 5669,
      "arest": 5670,
      "Ġoptional": 5671,
      "lumtoyv": 5672,
      "sockopt": 5673,
      "issa": 5674,
      "Ġmulti": 5675,
      "Ġrounding": 5676,
      "Ġdisascontext": 5677,
      "avfilterlink": 5678,
      "asic": 5679,
      "theora": 5680,
      "applet": 5681,
      "nxhd": 5682,
      "Ġcompression": 5683,
      "Ġmodified": 5684,
      ">\\": 5685,
      "bmap": 5686,
      "bprint": 5687,
      "cla": 5688,
      "fit": 5689,
      "qs": 5690,
      "dead": 5691,
      "sect": 5692,
      "Ġ*((": 5693,
      "Ġcredp": 5694,
      "Ġsu": 5695,
      "Ġasig": 5696,
      "Ġtask": 5697,
      "amaged": 5698,
      "sifields": 5699,
      "idge": 5700,
      "Ġ/**": 5701,
      "sets": 5702,
      "avpicture": 5703,
      "ioh": 5704,
      "Ġwi": 5705,
      "Ġhy": 5706,
      "mms": 5707,
      "imdct": 5708,
      "mbn": 5709,
      "Ġlc": 5710,
      "Ġlun": 5711,
      "blockdev": 5712,
      "Ġcow": 5713,
      "Ġcodsty": 5714,
      "refcounts": 5715,
      "Ġunused": 5716,
      "phase": 5717,
      "Ġyalpha": 5718,
      "msb": 5719,
      "Ġbyteiocontext": 5720,
      "compr": 5721,
      "bugs": 5722,
      "lement": 5723,
      "metry": 5724,
      "111": 5725,
      "attribute": 5726,
      "Ġvcard": 5727,
      "Ġquirk": 5728,
      "tpel": 5729,
      "reshold": 5730,
      "ddd": 5731,
      "written": 5732,
      "****************": 5733,
      "Ġtermin": 5734,
      "psubw": 5735,
      "Ġbroken": 5736,
      "Ġcoefficients": 5737,
      "analyse": 5738,
      "strlcpy": 5739,
      "vbi": 5740,
      "Ġuri": 5741,
      "rem": 5742,
      "inode": 5743,
      "stdio": 5744,
      "Ġimx": 5745,
      "sep": 5746,
      "sens": 5747,
      "Ġ*,": 5748,
      "ately": 5749,
      "Ġredu": 5750,
      "icp": 5751,
      "icro": 5752,
      "unless": 5753,
      "Ġuvalpha": 5754,
      "lier": 5755,
      "asas": 5756,
      "Ġtcgreg": 5757,
      "oflag": 5758,
      "gbp": 5759,
      "nom": 5760,
      "prepend": 5761,
      "Ġthrot": 5762,
      "Ġexact": 5763,
      "Ġswit": 5764,
      "boolean": 5765,
      "chrsrc": 5766,
      "chrmmx": 5767,
      "network": 5768,
      "comment": 5769,
      "tcgcontext": 5770,
      "Ġkeyframe": 5771,
      "quire": 5772,
      "vncstate": 5773,
      "Ġloaded": 5774,
      "clone": 5775,
      "Ġsocketaddress": 5776,
      "Ġfinished": 5777,
      "writel": 5778,
      "demuxcontext": 5779,
      "Ġdirectly": 5780,
      "Ġheads": 5781,
      "advise": 5782,
      "content": 5783,
      "Ġtailq": 5784,
      "Ġinclude": 5785,
      "Ġsomething": 5786,
      "Ġnecessary": 5787,
      "Ġhotplug": 5788,
      ",&": 5789,
      "ah": 5790,
      "dvd": 5791,
      "false": 5792,
      "iq": 5793,
      "lsp": 5794,
      "more": 5795,
      "miss": 5796,
      "oci": 5797,
      "qr": 5798,
      "svm": 5799,
      "suffix": 5800,
      "tuc": 5801,
      "alternate": 5802,
      "Ġge": 5803,
      "Ġgu": 5804,
      "Ġvt": 5805,
      "Ġns": 5806,
      "Ġinterrupts": 5807,
      "setmask": 5808,
      "Ġoss": 5809,
      "exynos": 5810,
      "express": 5811,
      "Ġwor": 5812,
      "Ġhorizontal": 5813,
      "Ġ29": 5814,
      "Ġcontain": 5815,
      "cidevice": 5816,
      "vmcb": 5817,
      "compli": 5818,
      "actl": 5819,
      "brk": 5820,
      "queued": 5821,
      "(%[": 5822,
      "edgech": 5823,
      "Ġverify": 5824,
      "Ġservice": 5825,
      "presentation": 5826,
      "Ġdspfunc": 5827,
      "movdqa": 5828,
      "diskstate": 5829,
      "192": 5830,
      "Ġreplay": 5831,
      "Ġcalled": 5832,
      "Ġtranslationblock": 5833,
      "Ġbridge": 5834,
      "Ġaccording": 5835,
      "hypertas": 5836,
      "Ġsanity": 5837,
      "aped": 5838,
      "cstat": 5839,
      "gu": 5840,
      "guess": 5841,
      "qmat": 5842,
      "random": 5843,
      "sun": 5844,
      "wte": 5845,
      "xalpha": 5846,
      "Ġscr": 5847,
      "itation": 5848,
      "Ġavprobe": 5849,
      "Ġavrational": 5850,
      "leno": 5851,
      "tsc": 5852,
      "uments": 5853,
      "Ġlm": 5854,
      "putil": 5855,
      "Ġxattr": 5856,
      "filtered": 5857,
      "dclk": 5858,
      "signature": 5859,
      "Ġfaster": 5860,
      "msav": 5861,
      "resses": 5862,
      "tempor": 5863,
      "swscale": 5864,
      "Ġparsing": 5865,
      "Ġfloating": 5866,
      "quantizer": 5867,
      "405": 5868,
      "Ġevt": 5869,
      "archstate": 5870,
      "Ġphase": 5871,
      "Ġident": 5872,
      "ibility": 5873,
      "Ġaiocb": 5874,
      "respon": 5875,
      "Ġauto": 5876,
      "pwritev": 5877,
      "Ġstrcmp": 5878,
      "Ġcontent": 5879,
      "Ġhyper": 5880,
      "wtelem": 5881,
      "'ve": 5882,
      "09": 5883,
      "bet": 5884,
      "dpp": 5885,
      "ear": 5886,
      "fctl": 5887,
      "nor": 5888,
      "pret": 5889,
      "rce": 5890,
      "sdr": 5891,
      "tu": 5892,
      "vv": 5893,
      "wj": 5894,
      "xpos": 5895,
      "Ġiss": 5896,
      "detect": 5897,
      "secs": 5898,
      "Ġbmp": 5899,
      "Ġbmds": 5900,
      "Ġremov": 5901,
      "Ġpflash": 5902,
      "Ġvdp": 5903,
      "Ġdh": 5904,
      "Ġrxd": 5905,
      "ssh": 5906,
      "cpusparcstate": 5907,
      "ives": 5908,
      "shm": 5909,
      "Ġseem": 5910,
      "lummmx": 5911,
      "quir": 5912,
      "0001": 5913,
      "pktl": 5914,
      "posit": 5915,
      "hwaddr": 5916,
      "exponent": 5917,
      "Ġrunning": 5918,
      "Ġsignature": 5919,
      "ifiers": 5920,
      "Ġclean": 5921,
      "Ġmacroblock": 5922,
      "Ġemms": 5923,
      "Ġemulation": 5924,
      "gtk": 5925,
      "Ġwriting": 5926,
      "Ġpriority": 5927,
      "Ġyuvtab": 5928,
      "synchron": 5929,
      "Ġfollowing": 5930,
      "Ġswitched": 5931,
      ")]);": 5932,
      "39": 5933,
      "asc": 5934,
      "ful": 5935,
      "kbd": 5936,
      "rad": 5937,
      "Ġsnd": 5938,
      "Ġbmap": 5939,
      "Ġfpu": 5940,
      "amped": 5941,
      "Ġmix": 5942,
      "ffect": 5943,
      "otrack": 5944,
      "Ġrri": 5945,
      "Ġhelp": 5946,
      "uswb": 5947,
      "ignore": 5948,
      "Ġlj": 5949,
      "Ġlut": 5950,
      "blockjob": 5951,
      "siginfo": 5952,
      "Ġcom": 5953,
      "Ġyuyv": 5954,
      "curity": 5955,
      "subsystem": 5956,
      "tling": 5957,
      "Ġ56": 5958,
      "flate": 5959,
      "qemuopts": 5960,
      "fpregs": 5961,
      "inputvisitor": 5962,
      "blkdev": 5963,
      "decay": 5964,
      "dispatch": 5965,
      "packuswb": 5966,
      "Ġtags": 5967,
      "connection": 5968,
      "Ġoptarg": 5969,
      "Ġincrement": 5970,
      "Ġoccur": 5971,
      "waves": 5972,
      "((\"": 5973,
      "bpc": 5974,
      "bnd": 5975,
      "cpe": 5976,
      "efl": 5977,
      "same": 5978,
      "spectr": 5979,
      "vsrc": 5980,
      "vbv": 5981,
      "Ġloc": 5982,
      "Ġlikely": 5983,
      "Ġtget": 5984,
      "amps": 5985,
      "Ġpit": 5986,
      "Ġvect": 5987,
      "unspecified": 5988,
      "drom": 5989,
      "ctxt": 5990,
      "prd": 5991,
      "Ġrk": 5992,
      "Ġqerror": 5993,
      "Ġqual": 5994,
      "screds": 5995,
      "islit": 5996,
      "ilvr": 5997,
      "rax": 5998,
      "extu": 5999,
      "Ġsent": 6000,
      "Ġunaligned": 6001,
      "Ġthreshold": 6002,
      "movz": 6003,
      "subpacket": 6004,
      "scaled": 6005,
      "intermediate": 6006,
      "Ġchecked": 6007,
      "Ġheaders": 6008,
      "Ġarea": 6009,
      "**)": 6010,
      "<<(": 6011,
      "repz": 6012,
      "Ġperform": 6013,
      "muxer": 6014,
      "biweight": 6015,
      "Ġcris": 6016,
      "Ġreceive": 6017,
      "Ġelbg": 6018,
      "termine": 6019,
      "corrup": 6020,
      "straint": 6021,
      "Ġprimary": 6022,
      "copied": 6023,
      "clo": 6024,
      "cas": 6025,
      "dmtc": 6026,
      "fication": 6027,
      "namelen": 6028,
      "slist": 6029,
      "sram": 6030,
      "taddr": 6031,
      "vent": 6032,
      "yst": 6033,
      "|=": 6034,
      "inject": 6035,
      "oring": 6036,
      "Ġfat": 6037,
      "Ġflac": 6038,
      "Ġpt": 6039,
      "sioc": 6040,
      "alhd": 6041,
      "elbg": 6042,
      "Ġvsid": 6043,
      "Ġnfds": 6044,
      "Ġ\"\");": 6045,
      "icient": 6046,
      "Ġdl": 6047,
      "Ġdup": 6048,
      "peek": 6049,
      "codeblocks": 6050,
      "Ġuid": 6051,
      "Ġxb": 6052,
      "ytes": 6053,
      "sper": 6054,
      "Ġswr": 6055,
      "cryst": 6056,
      "chrdstw": 6057,
      "switch": 6058,
      "Ġprepare": 6059,
      "description": 6060,
      "8618": 6061,
      "Ġdirectory": 6062,
      "Ġskipped": 6063,
      "deccontext": 6064,
      "Ġpixelformat": 6065,
      "pictq": 6066,
      "xbzrle": 6067,
      "Ġflat": 6068,
      "waiting": 6069,
      "Ġreally": 6070,
      "findclk": 6071,
      "Ġprocessing": 6072,
      "Ġncq": 6073,
      "Ġstuffing": 6074,
      "sence": 6075,
      "crystalhd": 6076,
      "]\\": 6077,
      "bcr": 6078,
      "dar": 6079,
      "ogram": 6080,
      "two": 6081,
      "vf": 6082,
      "wma": 6083,
      "reverse": 6084,
      "Ġci": 6085,
      "ond": 6086,
      "Ġpde": 6087,
      "siz": 6088,
      "Ġvid": 6089,
      "Ġstored": 6090,
      "getres": 6091,
      "Ġqed": 6092,
      "Ġwma": 6093,
      "roblocks": 6094,
      "Ġdetermine": 6095,
      "Ġ42": 6096,
      "numeric": 6097,
      "Ġ((*": 6098,
      "Ġdomain": 6099,
      "bochs": 6100,
      "tcet": 6101,
      "acter": 6102,
      "Ġfiltered": 6103,
      "Ġbook": 6104,
      "Ġnomem": 6105,
      "links": 6106,
      "rri": 6107,
      "clients": 6108,
      "Ġoutputstream": 6109,
      "ctlr": 6110,
      "xaf": 6111,
      "Ġcorrespon": 6112,
      "Ġcommit": 6113,
      "sglist": 6114,
      "children": 6115,
      "punpckldq": 6116,
      "Ġclone": 6117,
      "Ġincre": 6118,
      "schp": 6119,
      "Ġdvbsub": 6120,
      "binary": 6121,
      "breakpoints": 6122,
      "history": 6123,
      "Ġgeneral": 6124,
      "]\"=&": 6125,
      "Ġcompatibility": 6126,
      "Ġrxdw": 6127,
      "+(": 6128,
      "66": 6129,
      "]++;": 6130,
      "cases": 6131,
      "dquant": 6132,
      "lnk": 6133,
      "mf": 6134,
      "vtd": 6135,
      "deint": 6136,
      "deprec": 6137,
      "Ġca": 6138,
      "Ġctb": 6139,
      "Ġsic": 6140,
      "Ġserrno": 6141,
      "enet": 6142,
      "Ġreached": 6143,
      "adjust": 6144,
      "Ġnorm": 6145,
      "emms": 6146,
      "Ġoact": 6147,
      "uting": 6148,
      "typen": 6149,
      "strategy": 6150,
      "asce": 6151,
      "Ġarmv": 6152,
      "fdct": 6153,
      "Ġadjust": 6154,
      "dstv": 6155,
      "Ġonce": 6156,
      "syms": 6157,
      "interpol": 6158,
      "epoll": 6159,
      "chrdsth": 6160,
      "Ġaspect": 6161,
      "nother": 6162,
      "brary": 6163,
      "yuvtab": 6164,
      ":%\"": 6165,
      "Ġsubframe": 6166,
      "median": 6167,
      "Ġaux": 6168,
      "axis": 6169,
      "Ġinterpol": 6170,
      "Ġcorr": 6171,
      "clamped": 6172,
      "avfiltercontext": 6173,
      "sari": 6174,
      "Ġoperations": 6175,
      "Ġmanag": 6176,
      "ceildiv": 6177,
      "Ġoptimize": 6178,
      "Ġcontains": 6179,
      "Ġquality": 6180,
      "typename": 6181,
      "20000": 6182,
      "280": 6183,
      "[!": 6184,
      "gs": 6185,
      "ied": 6186,
      "ource": 6187,
      "rst": 6188,
      "rlimit": 6189,
      "ww": 6190,
      "Ġlace": 6191,
      "remov": 6192,
      "sted": 6193,
      "strerror": 6194,
      "stamps": 6195,
      "Ġipm": 6196,
      "Ġiops": 6197,
      "Ġsco": 6198,
      "Ġanother": 6199,
      "ctts": 6200,
      "Ġfrac": 6201,
      "Ġgive": 6202,
      "diag": 6203,
      "tract": 6204,
      "Ġrsp": 6205,
      "Ġrlevel": 6206,
      "Ġqint": 6207,
      "Ġhbitmap": 6208,
      "lient": 6209,
      "isol": 6210,
      "ifs": 6211,
      "Ġchapter": 6212,
      "ntl": 6213,
      "Ġexternal": 6214,
      "Ġenergy": 6215,
      "Ġtrigger": 6216,
      "pixelformat": 6217,
      "hostname": 6218,
      "Ġcurframe": 6219,
      "Ġtypes": 6220,
      "notifiers": 6221,
      "Ġlinear": 6222,
      "lsf": 6223,
      "Ġsubstream": 6224,
      "clean": 6225,
      "macroblock": 6226,
      "Ġaiocontext": 6227,
      "Ġipd": 6228,
      "Ġmpv": 6229,
      "Ġexecute": 6230,
      "supervisor": 6231,
      "failure": 6232,
      "Ġerase": 6233,
      "Ġvmsvga": 6234,
      "geometry": 6235,
      "rellis": 6236,
      "bmp": 6237,
      "categ": 6238,
      "dtext": 6239,
      "hdev": 6240,
      "halt": 6241,
      "mware": 6242,
      "nics": 6243,
      "place": 6244,
      "png": 6245,
      "qb": 6246,
      "ymo": 6247,
      "Ġsrr": 6248,
      "ori": 6249,
      "Ġrender": 6250,
      "Ġpaddr": 6251,
      "Ġpvr": 6252,
      "Ġinteger": 6253,
      "heep": 6254,
      "icon": 6255,
      "unregister": 6256,
      "Ġqtd": 6257,
      "(&(": 6258,
      "Ġincorrect": 6259,
      "ilin": 6260,
      "ifr": 6261,
      "Ġxl": 6262,
      "cia": 6263,
      "Ġ88": 6264,
      "timing": 6265,
      "mvc": 6266,
      "resource": 6267,
      "Ġwhether": 6268,
      "condjmp": 6269,
      "srr": 6270,
      "]==": 6271,
      "Ġ96": 6272,
      "Ġbandno": 6273,
      "capability": 6274,
      "Ġinvalidate": 6275,
      "):\"": 6276,
      "Ġloss": 6277,
      "Ġtswapal": 6278,
      "finished": 6279,
      "Ġemulate": 6280,
      "Ġfunn": 6281,
      "Ġfourcc": 6282,
      "iidicc": 6283,
      "zynqmp": 6284,
      "ymous": 6285,
      "-%": 6286,
      "78": 6287,
      "fsize": 6288,
      "fseek": 6289,
      "glob": 6290,
      "qid": 6291,
      "tms": 6292,
      "uy": 6293,
      "Ġlegacy": 6294,
      "stage": 6295,
      "Ġcss": 6296,
      "Ġslavio": 6297,
      "encrypted": 6298,
      "Ġ}\\": 6299,
      "intp": 6300,
      "Ġfg": 6301,
      "Ġfsize": 6302,
      "Ġfreq": 6303,
      "lode": 6304,
      "Ġresource": 6305,
      "Ġptype": 6306,
      "Ġports": 6307,
      "alp": 6308,
      "anule": 6309,
      "Ġ10000": 6310,
      "Ġ\"{": 6311,
      "Ġrad": 6312,
      "exist": 6313,
      "Ġhtab": 6314,
      "iler": 6315,
      "Ġoperand": 6316,
      "Ġxtensa": 6317,
      "Ġcomb": 6318,
      "Ġeq": 6319,
      "modes": 6320,
      "Ġshared": 6321,
      "ccfg": 6322,
      "samplesa": 6323,
      "Ġpcms": 6324,
      "Ġdevfn": 6325,
      "tcgv": 6326,
      "package": 6327,
      "Ġhwdef": 6328,
      "explode": 6329,
      "Ġhostname": 6330,
      "lumfiltersize": 6331,
      "virtiodevice": 6332,
      "steps": 6333,
      "Ġavfiltercontext": 6334,
      "bypass": 6335,
      "ificate": 6336,
      "ification": 6337,
      "migrate": 6338,
      "hpet": 6339,
      "Ġinsert": 6340,
      "language": 6341,
      "dmfc": 6342,
      "gi": 6343,
      "gx": 6344,
      "hu": 6345,
      "nak": 6346,
      "pde": 6347,
      "qov": 6348,
      "reuse": 6349,
      "invert": 6350,
      "stall": 6351,
      "seen": 6352,
      "Ġsregs": 6353,
      "attached": 6354,
      "orrect": 6355,
      "Ġtre": 6356,
      "amr": 6357,
      "Ġphdr": 6358,
      "alarm": 6359,
      "cod": 6360,
      "zexp": 6361,
      "idt": 6362,
      "Ġ\"=": 6363,
      "unmarshal": 6364,
      "Ġrr": 6365,
      "Ġrnd": 6366,
      "continue": 6367,
      "expi": 6368,
      "scc": 6369,
      "usr": 6370,
      "buflen": 6371,
      "bufptr": 6372,
      "readw": 6373,
      "Ġffurl": 6374,
      "nearest": 6375,
      "Ġcost": 6376,
      "timespec": 6377,
      "dcl": 6378,
      "ffffffff": 6379,
      "Ġchecks": 6380,
      "chrfiltersize": 6381,
      "module": 6382,
      "Ġstartcode": 6383,
      "istics": 6384,
      "Ġprotection": 6385,
      "lengths": 6386,
      "Ġioh": 6387,
      "4096": 6388,
      "incorrect": 6389,
      "simpleq": 6390,
      "Ġquantize": 6391,
      "cmos": 6392,
      "special": 6393,
      "Ġplanar": 6394,
      "synth": 6395,
      "revents": 6396,
      "Ġoriginal": 6397,
      "wakeup": 6398,
      ")\");": 6399,
      "dwt": 6400,
      "fro": 6401,
      "hq": 6402,
      "hard": 6403,
      "lice": 6404,
      "mce": 6405,
      "nem": 6406,
      "runt": 6407,
      "rusage": 6408,
      "spc": 6409,
      "sra": 6410,
      "surf": 6411,
      "ubits": 6412,
      "vx": 6413,
      "xchg": 6414,
      "zy": 6415,
      "sto": 6416,
      "Ġaexp": 6417,
      "Ġtex": 6418,
      "amf": 6419,
      "cop": 6420,
      "cover": 6421,
      "Ġmu": 6422,
      "opname": 6423,
      "setting": 6424,
      "chro": 6425,
      "concat": 6426,
      "devep": 6427,
      "pcmp": 6428,
      "acquire": 6429,
      "Ġlambda": 6430,
      "Ġ((!": 6431,
      "arger": 6432,
      "film": 6433,
      "parc": 6434,
      "writefn": 6435,
      "tbflag": 6436,
      "Ġscreen": 6437,
      "cssid": 6438,
      "keycode": 6439,
      "Ġstarting": 6440,
      "cmpstr": 6441,
      "Ġloader": 6442,
      "Ġparallel": 6443,
      "Ġsubstr": 6444,
      "cryption": 6445,
      "Ġnvic": 6446,
      "partial": 6447,
      "blue": 6448,
      "Ġmulticast": 6449,
      "Ġquantization": 6450,
      "Ġmcf": 6451,
      "escaped": 6452,
      "nofid": 6453,
      "calculate": 6454,
      "counters": 6455,
      "allest": 6456,
      "Ġlumsrc": 6457,
      "Ġdistance": 6458,
      "Ġdimensions": 6459,
      "Ġfourxm": 6460,
      "residue": 6461,
      "Ġmantissa": 6462,
      "Ġhtonl": 6463,
      "bedded": 6464,
      "compliance": 6465,
      "Ġxlnx": 6466,
      "/*": 6467,
      "768": 6468,
      "85": 6469,
      "800000": 6470,
      "aic": 6471,
      "blend": 6472,
      "dont": 6473,
      "green": 6474,
      "hole": 6475,
      "horiz": 6476,
      "iargs": 6477,
      "pmsav": 6478,
      "sco": 6479,
      "tw": 6480,
      "tmr": 6481,
      "xml": 6482,
      "Ġlocation": 6483,
      "ener": 6484,
      "Ġasign": 6485,
      "Ġbw": 6486,
      "Ġpat": 6487,
      "arter": 6488,
      "siv": 6489,
      "mpt": 6490,
      "Ġrot": 6491,
      "avmedia": 6492,
      "Ġchip": 6493,
      "Ġlarger": 6494,
      "terms": 6495,
      "gbrp": 6496,
      "olve": 6497,
      "Ġyou": 6498,
      "Ġoffsets": 6499,
      "Ġweight": 6500,
      "substr": 6501,
      "bytecontext": 6502,
      "pics": 6503,
      "Ġfailure": 6504,
      "redu": 6505,
      "sbd": 6506,
      "divid": 6507,
      "Ġquery": 6508,
      "efer": 6509,
      "Ġsysbusdevice": 6510,
      "Ġoverlap": 6511,
      "Ġconditional": 6512,
      "[]){": 6513,
      "interleave": 6514,
      "join": 6515,
      "ilinx": 6516,
      "fskip": 6517,
      "flac": 6518,
      "gc": 6519,
      "nf": 6520,
      "uhci": 6521,
      "Ġsram": 6522,
      "Ġpk": 6523,
      "Ġpsy": 6524,
      "adapter": 6525,
      "Ġmuch": 6526,
      "icub": 6527,
      "Ġdnxhd": 6528,
      "dirent": 6529,
      "aving": 6530,
      "avlc": 6531,
      "live": 6532,
      "ofday": 6533,
      "Ġ(!*": 6534,
      "Ġtokstart": 6535,
      "Ġopd": 6536,
      "Ġxan": 6537,
      "sigmask": 6538,
      "forw": 6539,
      "Ġunix": 6540,
      "maxval": 6541,
      "Ġexplicit": 6542,
      "Ġoutptr": 6543,
      "Ġalternate": 6544,
      "quarter": 6545,
      "resume": 6546,
      "beused": 6547,
      "serv": 6548,
      "Ġassign": 6549,
      "pagesize": 6550,
      "Ġbox": 6551,
      "Ġnoise": 6552,
      "pping": 6553,
      "mcw": 6554,
      "Ġzpci": 6555,
      "anceled": 6556,
      "Ġchunks": 6557,
      "warnings": 6558,
      "Ġpteg": 6559,
      "couldn": 6560,
      "graphic": 6561,
      "9999": 6562,
      "Ġcapabilities": 6563,
      "mission": 6564,
      "trailer": 6565,
      "Ġpassed": 6566,
      "Ġchromstride": 6567,
      "Ġticks": 6568,
      "deprecation": 6569,
      "Ġipmi": 6570,
      "7750": 6571,
      "[],": 6572,
      "cavs": 6573,
      "ever": 6574,
      "gregs": 6575,
      "help": 6576,
      "ised": 6577,
      "ltp": 6578,
      "mil": 6579,
      "oargs": 6580,
      "rma": 6581,
      "rpath": 6582,
      "tss": 6583,
      "inserted": 6584,
      "decr": 6585,
      "decomp": 6586,
      "Ġcpl": 6587,
      "Ġssi": 6588,
      "Ġaurb": 6589,
      "ors": 6590,
      "orientation": 6591,
      "Ġpx": 6592,
      "Ġpatch": 6593,
      "Ġmalloc": 6594,
      "ffs": 6595,
      "Ġvui": 6596,
      "lays": 6597,
      "Ġstage": 6598,
      "drain": 6599,
      "Ġreturned": 6600,
      "Ġrval": 6601,
      "Ġqsimpleq": 6602,
      "bitmode": 6603,
      "Ġconversion": 6604,
      "addrs": 6605,
      "Ġffswap": 6606,
      "Ġops": 6607,
      "Ġaddend": 6608,
      "retval": 6609,
      "posix": 6610,
      "preter": 6611,
      "movaps": 6612,
      "statfs": 6613,
      "Ġaddrlo": 6614,
      "lowres": 6615,
      "minance": 6616,
      "dirfd": 6617,
      "Ġaccept": 6618,
      "Ġ127": 6619,
      "linkat": 6620,
      "codingset": 6621,
      "*)&": 6622,
      "Ġless": 6623,
      "Ġupdated": 6624,
      "Ġvpx": 6625,
      "canf": 6626,
      "lumfilter": 6627,
      "Ġpbdev": 6628,
      "Ġinitialized": 6629,
      "Ġvalidate": 6630,
      "Ġassum": 6631,
      "cuda": 6632,
      "eeprom": 6633,
      "Ġsafe": 6634,
      "Ġreclen": 6635,
      "Ġprovided": 6636,
      "Ġseems": 6637,
      "Ġtreat": 6638,
      "nemonic": 6639,
      "reduce": 6640,
      "1000000": 6641,
      "]+=": 6642,
      "bge": 6643,
      "cing": 6644,
      "dac": 6645,
      "farg": 6646,
      "fcc": 6647,
      "hit": 6648,
      "nchannels": 6649,
      "yc": 6650,
      "Ġzeros": 6651,
      "Ġzexp": 6652,
      "Ġipts": 6653,
      "semb": 6654,
      "Ġsdr": 6655,
      "Ġfm": 6656,
      "Ġfit": 6657,
      "iteration": 6658,
      "Ġpav": 6659,
      "Ġplay": 6660,
      "Ġptimer": 6661,
      "adma": 6662,
      "ffabs": 6663,
      "digest": 6664,
      "Ġrps": 6665,
      "Ġqsv": 6666,
      "Ġuvmy": 6667,
      "Ġwatch": 6668,
      "Ġwanted": 6669,
      "locked": 6670,
      "mmc": 6671,
      "imate": 6672,
      "Ġxy": 6673,
      "Ġxmv": 6674,
      "Ġcoefs": 6675,
      "Ġear": 6676,
      "gener": 6677,
      "parsing": 6678,
      "masking": 6679,
      "levels": 6680,
      "dirp": 6681,
      "rdonly": 6682,
      "configure": 6683,
      "fsstring": 6684,
      "bandno": 6685,
      "tinu": 6686,
      "Ġsdhci": 6687,
      "Ġconfigure": 6688,
      "Ġ\"%%": 6689,
      ")*(": 6690,
      "Ġcolors": 6691,
      "Ġmaybe": 6692,
      "Ġwritable": 6693,
      "portsc": 6694,
      "Ġkeys": 6695,
      "Ġmodify": 6696,
      "Ġadvance": 6697,
      "Ġinfinity": 6698,
      "Ġmanagement": 6699,
      "51": 6700,
      "dw": 6701,
      "floppy": 6702,
      "grow": 6703,
      "hf": 6704,
      "oom": 6705,
      "qmax": 6706,
      "rfds": 6707,
      "ttl": 6708,
      "yy": 6709,
      "yalpha": 6710,
      "decompress": 6711,
      "Ġsprintf": 6712,
      "Ġ{\"": 6713,
      "Ġfake": 6714,
      "Ġfamily": 6715,
      "Ġreorder": 6716,
      "Ġremain": 6717,
      "simd": 6718,
      "cos": 6719,
      "Ġmak": 6720,
      "anced": 6721,
      "Ġ\":": 6722,
      "Ġdpy": 6723,
      "Ġdpp": 6724,
      "Ġdprint": 6725,
      "ions": 6726,
      "Ġqdm": 6727,
      "Ġinv": 6728,
      "logfilename": 6729,
      "usrc": 6730,
      "reamble": 6731,
      "blocking": 6732,
      "shape": 6733,
      "sigframe": 6734,
      "Ġ8280": 6735,
      "Ġeax": 6736,
      "intfr": 6737,
      "mvbp": 6738,
      "ncq": 6739,
      "formatconvbuffer": 6740,
      "Ġpixman": 6741,
      "Ġreadline": 6742,
      "Ġtimespec": 6743,
      "mcast": 6744,
      "owner": 6745,
      "topright": 6746,
      "Ġlogout": 6747,
      "\\\"\"": 6748,
      "Ġnvenc": 6749,
      "Ġiovcnt": 6750,
      "Ġavfilterlink": 6751,
      "Ġnetwork": 6752,
      "worker": 6753,
      "Ġmemoryregionsection": 6754,
      "Ġaccum": 6755,
      "Ġsignals": 6756,
      "vlumbufsize": 6757,
      "Ġavdictionaryentry": 6758,
      "funcs": 6759,
      "Ġvariable": 6760,
      "beto": 6761,
      "ceildivpow": 6762,
      ")]": 6763,
      "43": 6764,
      "58": 6765,
      "aer": 6766,
      "dgram": 6767,
      "equal": 6768,
      "fwd": 6769,
      "hor": 6770,
      "hue": 6771,
      "kym": 6772,
      "pmode": 6773,
      "tally": 6774,
      "xregs": 6775,
      "zal": 6776,
      "retrace": 6777,
      "Ġicp": 6778,
      "see": 6779,
      "Ġcard": 6780,
      "Ġclass": 6781,
      "Ġcrm": 6782,
      "Ġtval": 6783,
      "Ġfclose": 6784,
      "arn": 6785,
      "idwt": 6786,
      "trop": 6787,
      "sscanf": 6788,
      "pause": 6789,
      "Ġ200": 6790,
      "library": 6791,
      "pcc": 6792,
      "iguous": 6793,
      "psraw": 6794,
      "readfn": 6795,
      "ski": 6796,
      "Ġqemufile": 6797,
      "spatial": 6798,
      "ipher": 6799,
      "Ġthus": 6800,
      "Ġthose": 6801,
      "Ġkbd": 6802,
      "quit": 6803,
      "fec": 6804,
      "reddither": 6805,
      "Ġ6800": 6806,
      "chrfilter": 6807,
      "fpstatus": 6808,
      "xxx": 6809,
      "118": 6810,
      "pcmcia": 6811,
      "scanf": 6812,
      "validate": 6813,
      "capture": 6814,
      "Ġpowerpccpu": 6815,
      "Ġopening": 6816,
      "rsdp": 6817,
      "Ġspatial": 6818,
      "Ġexceptions": 6819,
      "Ġpartial": 6820,
      "ttmb": 6821,
      "Ġchanges": 6822,
      "relative": 6823,
      "cancelled": 6824,
      "vlumfiltersize": 6825,
      "translation": 6826,
      "hints": 6827,
      "Ġhuffman": 6828,
      "columns": 6829,
      "Ġcorresponding": 6830,
      "kymist": 6831,
      "011": 6832,
      "]<<": 6833,
      "bicub": 6834,
      "dword": 6835,
      "fcmp": 6836,
      "hub": 6837,
      "nreslevel": 6838,
      "pmv": 6839,
      "pfn": 6840,
      "qi": 6841,
      "qmin": 6842,
      "vl": 6843,
      "vscsi": 6844,
      "wk": 6845,
      "Ġie": 6846,
      "Ġiop": 6847,
      "Ġ(~": 6848,
      "Ġcd": 6849,
      "Ġcv": 6850,
      "Ġty": 6851,
      "Ġbmdma": 6852,
      "itxf": 6853,
      "Ġpio": 6854,
      "Ġpls": 6855,
      "Ġmpa": 6856,
      "Ġnan": 6857,
      "unplug": 6858,
      "lare": 6859,
      "drconnector": 6860,
      "uture": 6861,
      "Ġqc": 6862,
      "Ġinserted": 6863,
      "pace": 6864,
      "ther": 6865,
      "Ġtcet": 6866,
      "Ġlbr": 6867,
      "));\\": 6868,
      "snap": 6869,
      "Ġ'.": 6870,
      "Ġbeh": 6871,
      "loads": 6872,
      "crf": 6873,
      "Ġputbitcontext": 6874,
      "Ġpktl": 6875,
      "vlcs": 6876,
      "Ġresolution": 6877,
      "(%%\"": 6878,
      "Ġskipping": 6879,
      "uses": 6880,
      "Ġfilters": 6881,
      "Ġtimeval": 6882,
      "Ġ(%%\"": 6883,
      "layouts": 6884,
      "Ġfpstatus": 6885,
      "Ġmedi": 6886,
      "cntl": 6887,
      "Ġposix": 6888,
      "Ġxenfb": 6889,
      "Ġmxg": 6890,
      "Ġcrop": 6891,
      "sonic": 6892,
      "Ġproper": 6893,
      "segmentation": 6894,
      "scalar": 6895,
      "excitation": 6896,
      "Ġivshmem": 6897,
      "Ġhowever": 6898,
      "Ġbmvtype": 6899,
      "Ġframerate": 6900,
      "fspath": 6901,
      "Ġsrcsliceh": 6902,
      "cmpuint": 6903,
      "quiry": 6904,
      "nreslevels": 6905,
      "itxfm": 6906,
      "100000": 6907,
      "300": 6908,
      "91": 6909,
      "abuf": 6910,
      "isi": 6911,
      "lw": 6912,
      "sol": 6913,
      "snd": 6914,
      "wfourcc": 6915,
      "xmit": 6916,
      "yond": 6917,
      "standard": 6918,
      "erator": 6919,
      "Ġaarch": 6920,
      "Ġtl": 6921,
      "Ġtw": 6922,
      "integ": 6923,
      "Ġbi": 6924,
      "Ġpnum": 6925,
      "Ġ\"[": 6926,
      "unquantize": 6927,
      "unassigned": 6928,
      "Ġdmar": 6929,
      "Ġsti": 6930,
      "Ġqlit": 6931,
      "bitexact": 6932,
      "roll": 6933,
      "Ġdepend": 6934,
      "Ġdeshake": 6935,
      "imr": 6936,
      "Ġtcgarg": 6937,
      "addrlen": 6938,
      "Ġll": 6939,
      "Ġldu": 6940,
      "Ġcpuppcstate": 6941,
      "streamcontext": 6942,
      "idestate": 6943,
      "ighted": 6944,
      "pbdev": 6945,
      "adds": 6946,
      "Ġadapt": 6947,
      "Ġsens": 6948,
      "prealloc": 6949,
      "cplx": 6950,
      "movcontext": 6951,
      "Ġkqemu": 6952,
      "Ġsrcu": 6953,
      "curl": 6954,
      "Ġenccfg": 6955,
      "below": 6956,
      "pcihp": 6957,
      "interp": 6958,
      "Ġitself": 6959,
      "265": 6960,
      "Ġmapped": 6961,
      "Ġleave": 6962,
      "Ġformats": 6963,
      "divu": 6964,
      "Ġquad": 6965,
      "Ġmatches": 6966,
      "seekable": 6967,
      "lumsrc": 6968,
      "Ġalias": 6969,
      "probedata": 6970,
      "diskreq": 6971,
      "initializing": 6972,
      "Ġelement": 6973,
      "hevclc": 6974,
      "whence": 6975,
      "Ġprecno": 6976,
      "dential": 6977,
      "lvl": 6978,
      "finalize": 6979,
      "completionfunc": 6980,
      "Ġamf": 6981,
      "creat": 6982,
      "halfpel": 6983,
      "lzw": 6984,
      "Ġgidsetsize": 6985,
      "vmdk": 6986,
      "fua": 6987,
      "synchronize": 6988,
      "Ġcorrup": 6989,
      ")==": 6990,
      "47": 6991,
      "[*": 6992,
      "bap": 6993,
      "df": 6994,
      "euid": 6995,
      "hsave": 6996,
      "ka": 6997,
      "kf": 6998,
      "lwd": 6999,
      "ogg": 7000,
      "xbe": 7001,
      "yuy": 7002,
      "Ġutf": 7003,
      "remap": 7004,
      "inot": 7005,
      "Ġiq": 7006,
      "denom": 7007,
      "Ġtty": 7008,
      "Ġbl": 7009,
      "Ġbcond": 7010,
      "Ġpfx": 7011,
      "sis": 7012,
      "Ġavpixelformat": 7013,
      "Ġmfi": 7014,
      "Ġga": 7015,
      "hest": 7016,
      "uni": 7017,
      "Ġdmin": 7018,
      "Ġqmat": 7019,
      "Ġud": 7020,
      "Ġho": 7021,
      "Ġhint": 7022,
      "pcache": 7023,
      "Ġconsole": 7024,
      "ighest": 7025,
      "iron": 7026,
      "upper": 7027,
      "ivgen": 7028,
      "Ġ44": 7029,
      "addq": 7030,
      "Ġundefined": 7031,
      "cpreginfo": 7032,
      "Ġoutside": 7033,
      "Ġsrcv": 7034,
      "lump": 7035,
      "txp": 7036,
      "slt": 7037,
      "tlscreds": 7038,
      "indic": 7039,
      "Ġsclp": 7040,
      "platform": 7041,
      "127": 7042,
      "fsfid": 7043,
      "Ġassigned": 7044,
      "keyframes": 7045,
      "mula": 7046,
      "Ġacce": 7047,
      "Ġattached": 7048,
      "Ġcomponents": 7049,
      "Ġarmcpu": 7050,
      "Ġarmcpreginfo": 7051,
      "Ġsupports": 7052,
      "130": 7053,
      "Ġsyscall": 7054,
      "Ġcorrection": 7055,
      "realtime": 7056,
      "Ġpermission": 7057,
      "Ġregions": 7058,
      "punpcklwd": 7059,
      "vtt": 7060,
      "Ġthreads": 7061,
      "tmf": 7062,
      "codebooks": 7063,
      "Ġworks": 7064,
      "ensation": 7065,
      "Ġfront": 7066,
      "cookies": 7067,
      "qiochannel": 7068,
      "Ġ':')": 7069,
      "Ġinstance": 7070,
      "Ġntohl": 7071,
      "anonymous": 7072,
      "inotify": 7073,
      "110": 7074,
      "80000": 7075,
      "dpb": 7076,
      "dtb": 7077,
      "gd": 7078,
      "hr": 7079,
      "hift": 7080,
      "ire": 7081,
      "lsi": 7082,
      "lhw": 7083,
      "nw": 7084,
      "pan": 7085,
      "ptype": 7086,
      "pblocks": 7087,
      "scon": 7088,
      "svc": 7089,
      "vect": 7090,
      "Ġ@": 7091,
      "selector": 7092,
      "Ġcare": 7093,
      "Ġsad": 7094,
      "Ġtis": 7095,
      "Ġ{\\": 7096,
      "Ġifile": 7097,
      "Ġfopen": 7098,
      "Ġpol": 7099,
      "arry": 7100,
      "sider": 7101,
      "Ġvers": 7102,
      "atex": 7103,
      "Ġqem": 7104,
      "devaddr": 7105,
      "rcv": 7106,
      "lied": 7107,
      "ands": 7108,
      "srcslice": 7109,
      "Ġundef": 7110,
      "Ġunless": 7111,
      "snr": 7112,
      "chans": 7113,
      "Ġ::\"": 7114,
      "Ġswcr": 7115,
      "Ġenter": 7116,
      "ather": 7117,
      "Ġcurbits": 7118,
      "Ġpicref": 7119,
      "registers": 7120,
      "enoent": 7121,
      "dispose": 7122,
      "Ġalloca": 7123,
      "Ġzsign": 7124,
      "canmmx": 7125,
      "cvt": 7126,
      "Ġclosesocket": 7127,
      "which": 7128,
      "Ġedges": 7129,
      "received": 7130,
      "record": 7131,
      "Ġcapability": 7132,
      "Ġlumstride": 7133,
      "Ġpostcopy": 7134,
      "jobs": 7135,
      "Ġself": 7136,
      "cookie": 7137,
      "impl": 7138,
      "Ġpeer": 7139,
      "Ġremoved": 7140,
      "Ġincrease": 7141,
      "tropy": 7142,
      "\"::\"": 7143,
      ".\",": 7144,
      "]*(": 7145,
      "black": 7146,
      "kick": 7147,
      "nand": 7148,
      "Ġii": 7149,
      "Ġiotlb": 7150,
      "into": 7151,
      "intctl": 7152,
      "Ġbsh": 7153,
      "Ġredo": 7154,
      "Ġrecv": 7155,
      "arp": 7156,
      "sicp": 7157,
      "Ġavpixfmt": 7158,
      "Ġmch": 7159,
      "Ġmisc": 7160,
      "Ġmnemonic": 7161,
      "ffm": 7162,
      "Ġ\"\";": 7163,
      "iclk": 7164,
      "Ġdsh": 7165,
      "direction": 7166,
      "Ġ-((": 7167,
      "Ġrbd": 7168,
      "Ġuvmx": 7169,
      "Ġhnm": 7170,
      "Ġdequant": 7171,
      "cpuobj": 7172,
      "iling": 7173,
      "ampling": 7174,
      "readl": 7175,
      "Ġequal": 7176,
      "times": 7177,
      "(\"/": 7178,
      "Ġblockbackend": 7179,
      "dcr": 7180,
      "dclient": 7181,
      "Ġ'=": 7182,
      "subbands": 7183,
      "feof": 7184,
      "crs": 7185,
      "fffffff": 7186,
      "rdft": 7187,
      "csum": 7188,
      "keyboard": 7189,
      "fpop": 7190,
      "Ġaddresses": 7191,
      "mooth": 7192,
      "egid": 7193,
      "even": 7194,
      "Ġdiffer": 7195,
      "netdev": 7196,
      "Ġusbredir": 7197,
      "mlp": 7198,
      "weighted": 7199,
      "disabled": 7200,
      "Ġopened": 7201,
      "ellaris": 7202,
      "Ġprevent": 7203,
      "Ġirqs": 7204,
      "Ġlower": 7205,
      "Ġchrfilter": 7206,
      "blur": 7207,
      "Ġ++)": 7208,
      "Ġanyway": 7209,
      "Ġsegments": 7210,
      "Ġtrying": 7211,
      "Ġcorrectly": 7212,
      "Ġrocker": 7213,
      "Ġprior": 7214,
      "throttling": 7215,
      "Ġcapture": 7216,
      "Ġbounds": 7217,
      "Ġplanep": 7218,
      "bats": 7219,
      "vchrfiltersize": 7220,
      "vchrbufsize": 7221,
      "Ġwords": 7222,
      "Ġeverything": 7223,
      "Ġdidn": 7224,
      "Ġstrtoull": 7225,
      "linder": 7226,
      "broken": 7227,
      "purpose": 7228,
      "Ġthrottle": 7229,
      "runtime": 7230,
      "Ġversatile": 7231,
      "sicpal": 7232,
      "Ġavpixfmtdescriptor": 7233,
      "10000000": 7234,
      "72": 7235,
      "84": 7236,
      "9118": 7237,
      "bw": 7238,
      "bla": 7239,
      "cup": 7240,
      "cred": 7241,
      "ior": 7242,
      "iec": 7243,
      "jni": 7244,
      "msk": 7245,
      "mquant": 7246,
      "pse": 7247,
      "qpci": 7248,
      "sink": 7249,
      "trellis": 7250,
      "vma": 7251,
      "xef": 7252,
      "requi": 7253,
      "restrict": 7254,
      "inprogress": 7255,
      "erial": 7256,
      "des": 7257,
      "Ġsscanf": 7258,
      "Ġbink": 7259,
      "Ġreverse": 7260,
      "Ġpam": 7261,
      "Ġpwt": 7262,
      "sired": 7263,
      "heap": 7264,
      "may": 7265,
      "getbitcontext": 7266,
      "Ġrp": 7267,
      "ioeventfd": 7268,
      "Ġqadd": 7269,
      "thp": 7270,
      "Ġ!\\": 7271,
      "irb": 7272,
      "Ġlfe": 7273,
      "shu": 7274,
      "memslot": 7275,
      "refl": 7276,
      "Ġeffect": 7277,
      "Ġyc": 7278,
      "Ġydst": 7279,
      "mvfr": 7280,
      "tions": 7281,
      "defs": 7282,
      "meg": 7283,
      "crtc": 7284,
      "comps": 7285,
      "Ġsche": 7286,
      "videobuf": 7287,
      "sbpro": 7288,
      "Ġcurl": 7289,
      "Ġaccount": 7290,
      "mount": 7291,
      "]={": 7292,
      "bandwidth": 7293,
      "istered": 7294,
      "Ġtimes": 7295,
      "outputvisitor": 7296,
      "objects": 7297,
      "nals": 7298,
      "dsm": 7299,
      "dbl": 7300,
      "urlcontext": 7301,
      "Ġperiod": 7302,
      "ynth": 7303,
      "usbdevice": 7304,
      "Ġdeclare": 7305,
      "virtiop": 7306,
      "tokens": 7307,
      "Ġmacio": 7308,
      "Ġreplace": 7309,
      "Ġvbv": 7310,
      "cyls": 7311,
      "transports": 7312,
      "Ġshowwaves": 7313,
      "Ġqiochannel": 7314,
      "websocket": 7315,
      "uyvy": 7316,
      "senter": 7317,
      "Ġexisting": 7318,
      "Ġ:\"=": 7319,
      "terminal": 7320,
      "Ġtransp": 7321,
      "scope": 7322,
      "integers": 7323,
      "required": 7324,
      ",(": 7325,
      "411": 7326,
      "://": 7327,
      "cdb": 7328,
      "dregs": 7329,
      "dpcm": 7330,
      "eos": 7331,
      "gv": 7332,
      "lh": 7333,
      "ncpy": 7334,
      "pty": 7335,
      "tbs": 7336,
      "uw": 7337,
      "vcpus": 7338,
      "wmask": 7339,
      "wrd": 7340,
      "zu": 7341,
      "inf": 7342,
      "Ġclk": 7343,
      "Ġcustom": 7344,
      "ativity": 7345,
      "Ġfabs": 7346,
      "Ġfuture": 7347,
      "Ġfcntl": 7348,
      "Ġrestart": 7349,
      "adj": 7350,
      "Ġmicro": 7351,
      "icache": 7352,
      "fiq": 7353,
      "direntry": 7354,
      "Ġrma": 7355,
      "mmmu": 7356,
      "rcparams": 7357,
      "lies": 7358,
      "rocker": 7359,
      "envp": 7360,
      "Ġdelete": 7361,
      "ifname": 7362,
      "blocked": 7363,
      "Ġopreg": 7364,
      "noop": 7365,
      "sphb": 7366,
      "(\"\");": 7367,
      "Ġthp": 7368,
      "Ġknown": 7369,
      "Ġoutpicref": 7370,
      "Ġstrncpy": 7371,
      "Ġsrcy": 7372,
      "Ġarguments": 7373,
      "Ġblocked": 7374,
      "busb": 7375,
      "Ġeno": 7376,
      "Ġprdt": 7377,
      "rdt": 7378,
      "Ġacl": 7379,
      "Ġloading": 7380,
      "ppnt": 7381,
      "Ġrefstride": 7382,
      "Ġ\"\\\"": 7383,
      "Ġcancel": 7384,
      "eventfds": 7385,
      "Ġallocating": 7386,
      "Ġlogic": 7387,
      "Ġsyntax": 7388,
      "replay": 7389,
      "nvdimm": 7390,
      "Ġchrdstw": 7391,
      "smram": 7392,
      "Ġinitialization": 7393,
      "Ġnalsize": 7394,
      "while": 7395,
      "Ġprivate": 7396,
      "Ġassoci": 7397,
      "Ġdelayed": 7398,
      "Ġabsolute": 7399,
      "Ġmultiply": 7400,
      "distance": 7401,
      "Ġcycle": 7402,
      "halted": 7403,
      "-+-+-+-+": 7404,
      "Ġ65536": 7405,
      "mkdir": 7406,
      "pretty": 7407,
      "Ġxbzrle": 7408,
      "heepdog": 7409,
      "Ġloaderparams": 7410,
      "Ġpavgb": 7411,
      "megasas": 7412,
      "%.": 7413,
      "cavlc": 7414,
      "gem": 7415,
      "jor": 7416,
      "lush": 7417,
      "mrs": 7418,
      "qntsty": 7419,
      "sreg": 7420,
      "tns": 7421,
      "vas": 7422,
      "vdsp": 7423,
      "xer": 7424,
      "zd": 7425,
      "zen": 7426,
      "inance": 7427,
      "semi": 7428,
      "Ġcpy": 7429,
      "Ġcsock": 7430,
      "atype": 7431,
      "Ġtally": 7432,
      "ones": 7433,
      "ctype": 7434,
      "Ġbfi": 7435,
      "arse": 7436,
      "alty": 7437,
      "cores": 7438,
      "adow": 7439,
      "Ġmdct": 7440,
      "Ġmiss": 7441,
      "ffst": 7442,
      "Ġgrow": 7443,
      "urther": 7444,
      "Ġdt": 7445,
      "Ġdpl": 7446,
      "Ġdamaged": 7447,
      "setres": 7448,
      "Ġwmv": 7449,
      "ssf": 7450,
      "Ġinside": 7451,
      "logical": 7452,
      "regb": 7453,
      "Ġconver": 7454,
      "routing": 7455,
      "Ġdependent": 7456,
      "accur": 7457,
      "Ġlx": 7458,
      "Ġlseek": 7459,
      "streaminfo": 7460,
      "Ġgetbytecontext": 7461,
      "Ġxface": 7462,
      "Ġsex": 7463,
      "Ġsession": 7464,
      "prep": 7465,
      "Ġbufp": 7466,
      "basename": 7467,
      "Ġexceed": 7468,
      "dstat": 7469,
      "pls": 7470,
      "Ġ50": 7471,
      "privile": 7472,
      "strings": 7473,
      "Ġmvd": 7474,
      "Ġusbdevice": 7475,
      "dspcontext": 7476,
      "Ġtimestamps": 7477,
      "Ġlevels": 7478,
      "Ġnames": 7479,
      "riff": 7480,
      "rength": 7481,
      "Ġdescaddr": 7482,
      "muxdemux": 7483,
      "Ġ]+": 7484,
      "Ġldub": 7485,
      "Ġ...)": 7486,
      "Ġappend": 7487,
      "recording": 7488,
      "completed": 7489,
      "Ġlittle": 7490,
      "384": 7491,
      "hypercall": 7492,
      "Ġhappens": 7493,
      "modified": 7494,
      "Ġexists": 7495,
      "----------------": 7496,
      "lossless": 7497,
      "Ġbroadcast": 7498,
      "========": 7499,
      "powerpccpu": 7500,
      "fspdu": 7501,
      "Ġfmovcc": 7502,
      "Ġstarts": 7503,
      "temporal": 7504,
      "raxfs": 7505,
      "indicator": 7506,
      "linders": 7507,
      ")].": 7508,
      "012": 7509,
      "57": 7510,
      "\\\"\\": 7511,
      "aflag": 7512,
      "cues": 7513,
      "cdrom": 7514,
      "ech": 7515,
      "kqemu": 7516,
      "nto": 7517,
      "pstate": 7518,
      "paddr": 7519,
      "sort": 7520,
      "Ġlag": 7521,
      "sta": 7522,
      "Ġite": 7523,
      "depc": 7524,
      "Ġamr": 7525,
      "Ġtight": 7526,
      "Ġfac": 7527,
      "itive": 7528,
      "Ġpcc": 7529,
      "elnet": 7530,
      "Ġniov": 7531,
      "errun": 7532,
      "Ġstbuf": 7533,
      "getxattr": 7534,
      "Ġqvirtqueue": 7535,
      "Ġtheora": 7536,
      "ullw": 7537,
      "indexes": 7538,
      "Ġxilinx": 7539,
      "ential": 7540,
      "sha": 7541,
      "Ġarmmmu": 7542,
      "ritical": 7543,
      "cise": 7544,
      "sigcontext": 7545,
      "Ġadb": 7546,
      "timed": 7547,
      "Ġunlink": 7548,
      "Ġoutputs": 7549,
      "Ġsrcfilter": 7550,
      "esr": 7551,
      "statp": 7552,
      "subpel": 7553,
      "Ġdstfilter": 7554,
      "swi": 7555,
      "featurestr": 7556,
      "addressspace": 7557,
      "mcg": 7558,
      "Ġmovq": 7559,
      "Ġmovatom": 7560,
      "scanout": 7561,
      "Ġmouse": 7562,
      "ually": 7563,
      "gpt": 7564,
      "Ġbusstate": 7565,
      "bling": 7566,
      "Ġoptind": 7567,
      "bars": 7568,
      "041": 7569,
      "Ġmmio": 7570,
      "graphs": 7571,
      "Ġmatching": 7572,
      "Ġproblem": 7573,
      "facs": 7574,
      "cbpcy": 7575,
      "Ġvolume": 7576,
      "Ġgeo": 7577,
      "pcmpeq": 7578,
      "laysurface": 7579,
      "Ġmakes": 7580,
      "Ġlduw": 7581,
      "'ll": 7582,
      "970": 7583,
      "btn": 7584,
      "bmdma": 7585,
      "cchip": 7586,
      "canceled": 7587,
      "einprogress": 7588,
      "fctx": 7589,
      "gdt": 7590,
      "lwebsock": 7591,
      "pak": 7592,
      "qbool": 7593,
      "sconf": 7594,
      "smooth": 7595,
      "telnet": 7596,
      "Ġ){": 7597,
      "inout": 7598,
      "stl": 7599,
      "stn": 7600,
      "deleted": 7601,
      "Ġsar": 7602,
      "orith": 7603,
      "intnum": 7604,
      "Ġbind": 7605,
      "Ġfurther": 7606,
      "loaded": 7607,
      "Ġreuse": 7608,
      "Ġrepeat": 7609,
      "Ġpmv": 7610,
      "coupling": 7611,
      "Ġavf": 7612,
      "Ġavr": 7613,
      "Ġvps": 7614,
      "sized": 7615,
      "Ġdquant": 7616,
      "chk": 7617,
      "Ġreturns": 7618,
      "util": 7619,
      "avprobedata": 7620,
      "Ġwrd": 7621,
      "Ġbreakpoint": 7622,
      "Ġhid": 7623,
      "role": 7624,
      "ushed": 7625,
      "mtime": 7626,
      "Ġxmin": 7627,
      "Ġcook": 7628,
      "refblock": 7629,
      "reftable": 7630,
      "Ġunmap": 7631,
      "Ġunallocated": 7632,
      "Ġthings": 7633,
      "Ġdoing": 7634,
      "Ġwebso": 7635,
      "subpq": 7636,
      "cmds": 7637,
      "Ġprecision": 7638,
      "Ġreads": 7639,
      "Ġparity": 7640,
      "Ġfds": 7641,
      "Ġioapic": 7642,
      "Ġpixelsv": 7643,
      "Ġsym": 7644,
      "sdps": 7645,
      "Ġextensions": 7646,
      "Ġimages": 7647,
      "lpf": 7648,
      "Ġlowcomp": 7649,
      "10001000": 7650,
      "Ġinsns": 7651,
      "Ġipv": 7652,
      "Ġtranslate": 7653,
      "Ġclr": 7654,
      "whit": 7655,
      "Ġwriter": 7656,
      "3333": 7657,
      "writer": 7658,
      "Ġunits": 7659,
      "lavfi": 7660,
      "preadv": 7661,
      "Ġhandlers": 7662,
      "40004000": 7663,
      "attachment": 7664,
      "Ġcblkno": 7665,
      "smbios": 7666,
      "Ġsecure": 7667,
      "Ġgives": 7668,
      "Ġcompleted": 7669,
      "Ġrelative": 7670,
      "avior": 7671,
      "column": 7672,
      "Ġbndpsd": 7673,
      "Ġ',')": 7674,
      "Ġissue": 7675,
      "isolation": 7676,
      "Ġfunny": 7677,
      "81": 7678,
      "cum": 7679,
      "grain": 7680,
      "lation": 7681,
      "ptimer": 7682,
      "scoefs": 7683,
      "vo": 7684,
      "wid": 7685,
      "wave": 7686,
      "xsave": 7687,
      "inactive": 7688,
      "inverse": 7689,
      "strength": 7690,
      "era": 7691,
      "deposit": 7692,
      "Ġcid": 7693,
      "Ġcac": 7694,
      "Ġssp": 7695,
      "Ġsmc": 7696,
      "Ġslave": 7697,
      "Ġtun": 7698,
      "onerror": 7699,
      "loff": 7700,
      "Ġnbits": 7701,
      "Ġintfloat": 7702,
      "uname": 7703,
      "unblock": 7704,
      "mpa": 7705,
      "chrom": 7706,
      "chain": 7707,
      "chmod": 7708,
      "prio": 7709,
      "trigger": 7710,
      "Ġratio": 7711,
      "exts": 7712,
      "aver": 7713,
      "Ġqntsty": 7714,
      "sclp": 7715,
      "Ġconsider": 7716,
      "cpuarchstate": 7717,
      "imer": 7718,
      "inepak": 7719,
      "andc": 7720,
      "Ġopkt": 7721,
      "Ġ35": 7722,
      "sigprocmask": 7723,
      "Ġeob": 7724,
      "Ġthough": 7725,
      "parm": 7726,
      "mvi": 7727,
      "Ġ'?": 7728,
      "Ġmach": 7729,
      "substream": 7730,
      "tba": 7731,
      "Ġcodecs": 7732,
      "sysenter": 7733,
      "])>>": 7734,
      "fsstate": 7735,
      "chrv": 7736,
      "conditional": 7737,
      "optarg": 7738,
      "mute": 7739,
      "localaddr": 7740,
      "Ġattemp": 7741,
      "Ġattach": 7742,
      "yuvj": 7743,
      "Ġsdp": 7744,
      "Ġblks": 7745,
      "rentries": 7746,
      "xfffff": 7747,
      "herit": 7748,
      "repnz": 7749,
      "Ġsmallest": 7750,
      "highgid": 7751,
      "clksel": 7752,
      "orbell": 7753,
      "aviocontext": 7754,
      "Ġschro": 7755,
      "Ġcyls": 7756,
      "Ġsmaller": 7757,
      "buffered": 7758,
      "bfraction": 7759,
      "tidptr": 7760,
      "Ġreduced": 7761,
      "frozen": 7762,
      "Ġwebsocket": 7763,
      "=-": 7764,
      "ained": 7765,
      "aurb": 7766,
      "gluster": 7767,
      "gpp": 7768,
      "gui": 7769,
      "hs": 7770,
      "lpes": 7771,
      "rmd": 7772,
      "tbuf": 7773,
      "vhd": 7774,
      "wctx": 7775,
      "reason": 7776,
      "ino": 7777,
      "inw": 7778,
      "stq": 7779,
      "Ġidr": 7780,
      "Ġsat": 7781,
      "Ġsid": 7782,
      "Ġssid": 7783,
      "Ġsparc": 7784,
      "Ġtta": 7785,
      "Ġtell": 7786,
      "lelement": 7787,
      "Ġfu": 7788,
      "amd": 7789,
      "Ġresample": 7790,
      "Ġreopen": 7791,
      "als": 7792,
      "Ġ&(": 7793,
      "Ġmd": 7794,
      "Ġvde": 7795,
      "Ġvendor": 7796,
      "Ġnl": 7797,
      "Ġnfs": 7798,
      "unary": 7799,
      "Ġdg": 7800,
      "setfs": 7801,
      "fiop": 7802,
      "expect": 7803,
      "Ġinp": 7804,
      "logerr": 7805,
      "logue": 7806,
      "Ġtheir": 7807,
      "framebuffer": 7808,
      "ising": 7809,
      "igd": 7810,
      "amples": 7811,
      "skel": 7812,
      "nelelement": 7813,
      "sigfault": 7814,
      "memmap": 7815,
      "srcptr": 7816,
      "generate": 7817,
      "prepare": 7818,
      "Ġunder": 7819,
      "movcond": 7820,
      "dstu": 7821,
      "dstbpp": 7822,
      "curframe": 7823,
      "cbpy": 7824,
      "subsampling": 7825,
      "newstyle": 7826,
      "tblk": 7827,
      "profil": 7828,
      "cols": 7829,
      "Ġfilled": 7830,
      "Ġ32768": 7831,
      "hwframes": 7832,
      ">>>": 7833,
      "fcvt": 7834,
      "Ġminor": 7835,
      "Ġplus": 7836,
      "ufficient": 7837,
      "servers": 7838,
      "seekhead": 7839,
      "varargs": 7840,
      "Ġtherefore": 7841,
      "hibit": 7842,
      "osen": 7843,
      "Ġcalls": 7844,
      "Ġcaller": 7845,
      "padded": 7846,
      "Ġshorten": 7847,
      "vtctx": 7848,
      "watchlo": 7849,
      "Ġdescriptors": 7850,
      "msdm": 7851,
      "Ġvdctx": 7852,
      "Ġgrouplist": 7853,
      "Ġhttpstate": 7854,
      "Ġdpds": 7855,
      "Ġcomplex": 7856,
      "Ġindicate": 7857,
      "filtercodesize": 7858,
      "Ġtrapnr": 7859,
      "Ġ65535": 7860,
      "Ġinterleave": 7861,
      "dsisr": 7862,
      "Ġscoop": 7863,
      "Ġaccesses": 7864,
      "orithm": 7865,
      "210": 7866,
      "45": 7867,
      "87": 7868,
      "8000000": 7869,
      "bprm": 7870,
      "cac": 7871,
      "fadvise": 7872,
      "gpe": 7873,
      "iet": 7874,
      "mcb": 7875,
      "nsector": 7876,
      "sdev": 7877,
      "vde": 7878,
      "ves": 7879,
      "wfds": 7880,
      "zip": 7881,
      "Ġent": 7882,
      "destruct": 7883,
      "Ġce": 7884,
      "Ġche": 7885,
      "Ġcaps": 7886,
      "Ġsconf": 7887,
      "Ġsuffix": 7888,
      "inten": 7889,
      "intrs": 7890,
      "interrupts": 7891,
      "Ġblend": 7892,
      "Ġbprm": 7893,
      "Ġfst": 7894,
      "amera": 7895,
      "Ġremap": 7896,
      "Ġpstate": 7897,
      "Ġpref": 7898,
      "alta": 7899,
      "Ġmeg": 7900,
      "operation": 7901,
      "Ġvpic": 7902,
      "Ġvbi": 7903,
      "Ġ\"(": 7904,
      "Ġdlen": 7905,
      "major": 7906,
      "setsockopt": 7907,
      "Ġstorage": 7908,
      "constraint": 7909,
      "Ġqbus": 7910,
      "))[": 7911,
      "Ġhi": 7912,
      "Ġhv": 7913,
      "pir": 7914,
      "inited": 7915,
      "Ġeagain": 7916,
      "lists": 7917,
      "Ġjs": 7918,
      "filled": 7919,
      "parity": 7920,
      "Ġexcept": 7921,
      "tmpstride": 7922,
      "Ġnotify": 7923,
      "cris": 7924,
      "portio": 7925,
      "rates": 7926,
      "bounce": 7927,
      "Ġ52": 7928,
      "fffff": 7929,
      "Ġchecking": 7930,
      "iova": 7931,
      "domid": 7932,
      "Ġreftable": 7933,
      "Ġ\"\\\\": 7934,
      "Ġwriteback": 7935,
      "Ġsubband": 7936,
      "mpegts": 7937,
      "Ġtimebase": 7938,
      "Ġdrck": 7939,
      "pmullw": 7940,
      "Ġzstream": 7941,
      "sume": 7942,
      "4030": 7943,
      "disconnect": 7944,
      "hda": 7945,
      "Ġquiet": 7946,
      "controller": 7947,
      "Ġphi": 7948,
      "Ġperformance": 7949,
      "virtioscsi": 7950,
      "Ġidebus": 7951,
      "imgfmt": 7952,
      "Ġscaled": 7953,
      "Ġnodename": 7954,
      "highuid": 7955,
      "2568": 7956,
      "Ġapng": 7957,
      "shorten": 7958,
      "Ġcssid": 7959,
      "gidsetsize": 7960,
      "fbdev": 7961,
      "Ġgoing": 7962,
      "wsaddr": 7963,
      "Ġgrab": 7964,
      "Ġdxgi": 7965,
      "mergeh": 7966,
      "datalen": 7967,
      "scratchpad": 7968,
      "Ġimmediately": 7969,
      "variant": 7970,
      "Ġsimpli": 7971,
      "renced": 7972,
      "adaptive": 7973,
      "Ġprcm": 7974,
      "combine": 7975,
      "inputvisitordata": 7976,
      "hardware": 7977,
      "twop": 7978,
      "Ġreordering": 7979,
      "ironment": 7980,
      "widget": 7981,
      "'%": 7982,
      "050": 7983,
      "=\",": 7984,
      "apu": 7985,
      "basic": 7986,
      "cpsr": 7987,
      "ebp": 7988,
      "hack": 7989,
      "iu": 7990,
      "istr": 7991,
      "lf": 7992,
      "lstat": 7993,
      "udo": 7994,
      "wnames": 7995,
      "year": 7996,
      "Ġla": 7997,
      "reget": 7998,
      "reater": 7999,
      "Ġtss": 8000,
      "Ġifname": 8001,
      "Ġbg": 8002,
      "Ġbri": 8003,
      "Ġfto": 8004,
      "Ġrem": 8005,
      "Ġrev": 8006,
      "Ġrevision": 8007,
      "Ġresidual": 8008,
      "Ġmst": 8009,
      "Ġgem": 8010,
      "Ġvk": 8011,
      "Ġvcodec": 8012,
      "Ġvram": 8013,
      "pul": 8014,
      "icr": 8015,
      "Ġdxy": 8016,
      "diotrack": 8017,
      "utime": 8018,
      "mmal": 8019,
      "psnr": 8020,
      "mba": 8021,
      "mbskip": 8022,
      "Ġlat": 8023,
      "Ġlan": 8024,
      "Ġxop": 8025,
      "todo": 8026,
      "addu": 8027,
      "Ġ8192": 8028,
      "Ġee": 8029,
      "Ġes": 8030,
      "perms": 8031,
      "Ġexpand": 8032,
      "Ġcharacter": 8033,
      "Ġstrdup": 8034,
      "obmc": 8035,
      "ncid": 8036,
      "dcache": 8037,
      "Ġregnames": 8038,
      "statistics": 8039,
      "subtype": 8040,
      "subpage": 8041,
      "Ġenet": 8042,
      "timebase": 8043,
      "timeofday": 8044,
      "ldt": 8045,
      "Ġtrunc": 8046,
      "chrsrch": 8047,
      "Ġcuridx": 8048,
      "undant": 8049,
      "Ġfilt": 8050,
      "stdin": 8051,
      "outputstream": 8052,
      "hwdevice": 8053,
      "rrrn": 8054,
      "Ġwritebgr": 8055,
      "Ġioc": 8056,
      "Ġhwaccel": 8057,
      "handled": 8058,
      "Ġsprite": 8059,
      "Ġinterval": 8060,
      "mipsdsp": 8061,
      "nvme": 8062,
      "Ġbusy": 8063,
      "ieee": 8064,
      "izz": 8065,
      "Ġchrsrc": 8066,
      "Ġmono": 8067,
      "Ġcreated": 8068,
      "Ġcommands": 8069,
      "Ġproperties": 8070,
      "xffffffffull": 8071,
      "schid": 8072,
      "postproc": 8073,
      ",%%": 8074,
      "Ġclipped": 8075,
      "branchy": 8076,
      "laves": 8077,
      "Ġvdpau": 8078,
      "Ġschid": 8079,
      "Ġdsputil": 8080,
      "Ġpollin": 8081,
      "spips": 8082,
      "Ġoverride": 8083,
      "ensity": 8084,
      "identify": 8085,
      "Ġblockdevonerror": 8086,
      "vpeconf": 8087,
      "Ġaltivec": 8088,
      "positions": 8089,
      "Ġttmb": 8090,
      "Ġsimply": 8091,
      "Ġdetected": 8092,
      "Ġseparate": 8093,
      "strlcatf": 8094,
      "Ġmemtxattrs": 8095,
      "movzbl": 8096,
      "category": 8097,
      "twopass": 8098,
      "5000": 8099,
      "62": 8100,
      "=((": 8101,
      "border": 8102,
      "fmov": 8103,
      "fback": 8104,
      "ier": 8105,
      "ipi": 8106,
      "isible": 8107,
      "ming": 8108,
      "mcontext": 8109,
      "ru": 8110,
      "sq": 8111,
      "tgt": 8112,
      "virq": 8113,
      "vos": 8114,
      "vsubsample": 8115,
      "wm": 8116,
      "xcc": 8117,
      "zoom": 8118,
      "retr": 8119,
      "inflight": 8120,
      "Ġcrn": 8121,
      "Ġsioc": 8122,
      "Ġtyp": 8123,
      "lope": 8124,
      "Ġresync": 8125,
      "Ġremote": 8126,
      "Ġpq": 8127,
      "Ġplug": 8128,
      "Ġmbs": 8129,
      "operand": 8130,
      "unded": 8131,
      "unexpected": 8132,
      "mag": 8133,
      "setxattr": 8134,
      "Ġrpkt": 8135,
      "Ġrpl": 8136,
      "Ġrandom": 8137,
      "Ġwalk": 8138,
      "abling": 8139,
      "rounder": 8140,
      "bufpq": 8141,
      "Ġcpux": 8142,
      "upscale": 8143,
      "andle": 8144,
      "Ġfflush": 8145,
      "Ġxics": 8146,
      "tos": 8147,
      "member": 8148,
      "ipts": 8149,
      "Ġsever": 8150,
      "Ġsecurity": 8151,
      "movn": 8152,
      "Ġjb": 8153,
      "Ġklv": 8154,
      "phy": 8155,
      "mdat": 8156,
      "tlv": 8157,
      "){\\": 8158,
      "120": 8159,
      "10101": 8160,
      "propri": 8161,
      "swscaler": 8162,
      "hwframe": 8163,
      "Ġvirtioscsi": 8164,
      "Ġcompress": 8165,
      "Ġwithin": 8166,
      "Ġiohandler": 8167,
      "Ġusbpacket": 8168,
      "testinputvisitordata": 8169,
      "Ġramblock": 8170,
      "chardriver": 8171,
      "dents": 8172,
      "transaction": 8173,
      "lumxinc": 8174,
      "Ġpaths": 8175,
      "Ġisadevice": 8176,
      "bcd": 8177,
      "smbus": 8178,
      "virtfs": 8179,
      "Ġapplication": 8180,
      "clr": 8181,
      "Ġtopo": 8182,
      "Ġhighpass": 8183,
      "affinity": 8184,
      "transpa": 8185,
      "Ġreserve": 8186,
      "schro": 8187,
      "Ġprefixes": 8188,
      "hpel": 8189,
      "Ġfragments": 8190,
      "Ġsnapshots": 8191,
      "schefback": 8192,
      "processing": 8193,
      "permutated": 8194,
      "pairs": 8195,
      "modify": 8196,
      "Ġsynchron": 8197,
      "Ġconnected": 8198,
      "ethernet": 8199,
      "Ġnegative": 8200,
      "broadcast": 8201,
      "predictable": 8202,
      "Ġexactly": 8203,
      "chrsrcvsubsample": 8204,
      "dentials": 8205,
      "fsfidstate": 8206,
      "Ġarmmmuidx": 8207,
      "izzle": 8208,
      "Ġseveral": 8209,
      "410": 8210,
      "]\",": 8211,
      "bfi": 8212,
      "dk": 8213,
      "dot": 8214,
      "dtlb": 8215,
      "lfg": 8216,
      "slaves": 8217,
      "tor": 8218,
      "voffs": 8219,
      "xs": 8220,
      "xics": 8221,
      "Ġemu": 8222,
      "Ġ].": 8223,
      "stts": 8224,
      "deo": 8225,
      "Ġ*));": 8226,
      "Ġcla": 8227,
      "Ġspectr": 8228,
      "ene": 8229,
      "entropy": 8230,
      "Ġbn": 8231,
      "Ġbqp": 8232,
      "lection": 8233,
      "Ġfh": 8234,
      "amma": 8235,
      "Ġreloc": 8236,
      "sib": 8237,
      "Ġavoption": 8238,
      "addend": 8239,
      "elt": 8240,
      "opreg": 8241,
      "Ġvr": 8242,
      "Ġ/*****************": 8243,
      "uncompressed": 8244,
      "mpc": 8245,
      "Ġdig": 8246,
      "emul": 8247,
      "emulate": 8248,
      "prn": 8249,
      "Ġrqp": 8250,
      "Ġrather": 8251,
      "avccontext": 8252,
      "Ġqpy": 8253,
      "Ġuuid": 8254,
      "Ġhu": 8255,
      "Ġhad": 8256,
      "Ġinflate": 8257,
      "pcmd": 8258,
      "];\\": 8259,
      "usable": 8260,
      "),/": 8261,
      "Ġ400": 8262,
      "Ġxx": 8263,
      "pba": 8264,
      "span": 8265,
      "nthe": 8266,
      "Ġeac": 8267,
      "Ġunpredictable": 8268,
      "based": 8269,
      "Ġkmvc": 8270,
      "Ġymin": 8271,
      "filesize": 8272,
      "subch": 8273,
      "subframes": 8274,
      "timecode": 8275,
      "ference": 8276,
      "Ġprd": 8277,
      "body": 8278,
      "Ġ72": 8279,
      "must": 8280,
      "entrylo": 8281,
      "stdout": 8282,
      "hwd": 8283,
      "Ġcomplet": 8284,
      "scsidiskstate": 8285,
      "Ġmvy": 8286,
      "Ġfilesize": 8287,
      "Ġvncstate": 8288,
      "Ġsdlk": 8289,
      "scanline": 8290,
      "Ġfirmware": 8291,
      "Ġmincost": 8292,
      "spaces": 8293,
      "Ġzlib": 8294,
      "dispi": 8295,
      "tracked": 8296,
      "().": 8297,
      "Ġinterlacing": 8298,
      "Ġextend": 8299,
      "ptem": 8300,
      "sections": 8301,
      "isspace": 8302,
      "Ġdifference": 8303,
      "penalty": 8304,
      "globals": 8305,
      "punpckhb": 8306,
      "punpckhwd": 8307,
      "initialize": 8308,
      "Ġmacroblocks": 8309,
      "Ġscalar": 8310,
      "Ġavformatparameters": 8311,
      "tracecontrol": 8312,
      "populate": 8313,
      "frametype": 8314,
      "2002": 8315,
      "Ġpdtrace": 8316,
      "specifier": 8317,
      "Ġfunctions": 8318,
      "needs": 8319,
      "Ġsequences": 8320,
      "Ġstrtoul": 8321,
      "Ġtakes": 8322,
      "multiple": 8323,
      "Ġowner": 8324,
      "Ġviolation": 8325,
      "milkymist": 8326,
      "ntoa": 8327,
      "punpckhbw": 8328,
      "!!": 8329,
      "20000000": 8330,
      "7000": 8331,
      "=(": 8332,
      "]].": 8333,
      "bz": 8334,
      "bcond": 8335,
      "dreg": 8336,
      "dmmu": 8337,
      "fabs": 8338,
      "iotlb": 8339,
      "kx": 8340,
      "khz": 8341,
      "lmb": 8342,
      "oem": 8343,
      "oss": 8344,
      "occ": 8345,
      "pable": 8346,
      "qerr": 8347,
      "qed": 8348,
      "rf": 8349,
      "rsr": 8350,
      "ssid": 8351,
      "tty": 8352,
      "ufd": 8353,
      "wide": 8354,
      "xad": 8355,
      "xcontext": 8356,
      "xfd": 8357,
      "stime": 8358,
      "Ġcw": 8359,
      "Ġcuvid": 8360,
      "Ġcipher": 8361,
      "Ġsab": 8362,
      "Ġaway": 8363,
      "Ġred": 8364,
      "Ġpsw": 8365,
      "Ġavresample": 8366,
      "adr": 8367,
      "ells": 8368,
      "Ġmh": 8369,
      "Ġmci": 8370,
      "Ġgchar": 8371,
      "Ġgpt": 8372,
      "Ġnor": 8373,
      "Ġdw": 8374,
      "Ġdate": 8375,
      "Ġdue": 8376,
      "setinfo": 8377,
      "Ġstellaris": 8378,
      "003": 8379,
      "004": 8380,
      "codevectors": 8381,
      "getdents": 8382,
      "prof": 8383,
      "trle": 8384,
      "Ġodd": 8385,
      "consistent": 8386,
      "uts": 8387,
      "Ġwell": 8388,
      "Ġhb": 8389,
      "abits": 8390,
      "lence": 8391,
      "rcu": 8392,
      "bitdepth": 8393,
      "regno": 8394,
      "sccb": 8395,
      "Ġuintptr": 8396,
      "Ġcpuarmstate": 8397,
      "Ġtoc": 8398,
      "Ġgetopt": 8399,
      "mtab": 8400,
      "toc": 8401,
      "cip": 8402,
      "Ġ((((": 8403,
      "Ġcores": 8404,
      "Ġaddi": 8405,
      "Ġeoi": 8406,
      "listxattr": 8407,
      "ations": 8408,
      "writew": 8409,
      "deflate": 8410,
      "Ġfaac": 8411,
      "Ġbeyond": 8412,
      "Ġnegoti": 8413,
      "dern": 8414,
      "ongson": 8415,
      "Ġaddrlen": 8416,
      "lowmem": 8417,
      "Ġshutdown": 8418,
      "dirname": 8419,
      "Ġ*)((": 8420,
      "interpreter": 8421,
      "tcx": 8422,
      "xxxx": 8423,
      "(*(": 8424,
      "Ġtrailing": 8425,
      "codingstyle": 8426,
      "chardriverstate": 8427,
      "expan": 8428,
      "mediacodec": 8429,
      "Ġ15444": 8430,
      "Ġaudiobits": 8431,
      "mulu": 8432,
      "Ġspaprdrconnector": 8433,
      "stepsize": 8434,
      "displaystate": 8435,
      "absolute": 8436,
      "Ġbusdev": 8437,
      "Ġcomment": 8438,
      "vda": 8439,
      "sfence": 8440,
      "bootinfo": 8441,
      "rotate": 8442,
      "countered": 8443,
      "xorl": 8444,
      "pads": 8445,
      "wrapper": 8446,
      "Ġembedded": 8447,
      "clken": 8448,
      ")];\\": 8449,
      "dvb": 8450,
      "Ġrwco": 8451,
      "hextile": 8452,
      "Ġlumfilter": 8453,
      "histogram": 8454,
      "wire": 8455,
      "sistency": 8456,
      "routes": 8457,
      "hour": 8458,
      "=\\\"%": 8459,
      "Ġstderr": 8460,
      "merg": 8461,
      "ipdopd": 8462,
      "classi": 8463,
      "Ġrados": 8464,
      "expire": 8465,
      "betouv": 8466,
      "shufps": 8467,
      "virtiopcidevice": 8468,
      "Ġitem": 8469,
      "fiopcidevice": 8470,
      ").\\": 8471,
      "71": 8472,
      "876": 8473,
      "[^": 8474,
      "areg": 8475,
      "bne": 8476,
      "both": 8477,
      "csp": 8478,
      "fopen": 8479,
      "fsid": 8480,
      "gra": 8481,
      "ham": 8482,
      "hel": 8483,
      "iff": 8484,
      "istreams": 8485,
      "lsr": 8486,
      "ltop": 8487,
      "nu": 8488,
      "ncomponents": 8489,
      "nmean": 8490,
      "pbuf": 8491,
      "qdm": 8492,
      "rop": 8493,
      "rdev": 8494,
      "sleep": 8495,
      "vb": 8496,
      "xlevel": 8497,
      "xstride": 8498,
      "reame": 8499,
      "instruction": 8500,
      "ern": 8501,
      "erts": 8502,
      "Ġirb": 8503,
      "seed": 8504,
      "Ġ(__": 8505,
      "Ġ*);": 8506,
      "Ġclo": 8507,
      "Ġsort": 8508,
      "Ġsphb": 8509,
      "Ġtitle": 8510,
      "letouv": 8511,
      "Ġfig": 8512,
      "Ġfec": 8513,
      "Ġfsr": 8514,
      "Ġpul": 8515,
      "Ġptl": 8516,
      "Ġpsr": 8517,
      "arrow": 8518,
      "etag": 8519,
      "Ġavclass": 8520,
      "Ġmsk": 8521,
      "opus": 8522,
      "Ġgif": 8523,
      "Ġglob": 8524,
      "Ġgrp": 8525,
      "Ġvdst": 8526,
      "Ġvnet": 8527,
      "tee": 8528,
      "lain": 8529,
      "chw": 8530,
      "chld": 8531,
      "Ġrsize": 8532,
      "Ġraddr": 8533,
      "Ġrusage": 8534,
      "exps": 8535,
      "321": 8536,
      "Ġform": 8537,
      "Ġconsume": 8538,
      "ifm": 8539,
      "ifq": 8540,
      "readline": 8541,
      "readahead": 8542,
      "Ġgetting": 8543,
      "Ġcoupling": 8544,
      "Ġunavailable": 8545,
      "Ġmemop": 8546,
      "phandle": 8547,
      "Ġybuf": 8548,
      "Ġymax": 8549,
      "tack": 8550,
      "Ġregno": 8551,
      "beq": 8552,
      "Ġshif": 8553,
      "scalefactor": 8554,
      "Ġ62": 8555,
      "Ġmaxval": 8556,
      "chrxinc": 8557,
      "activ": 8558,
      "vcd": 8559,
      "constant": 8560,
      "__(": 8561,
      "Ġable": 8562,
      "Ġmasked": 8563,
      "supp": 8564,
      "Ġlisten": 8565,
      "Ġcopied": 8566,
      "muls": 8567,
      "Ġsprn": 8568,
      "Ġscsidiskstate": 8569,
      "mradds": 8570,
      "Ġperms": 8571,
      "Ġoverla": 8572,
      "correction": 8573,
      "sources": 8574,
      "Ġtracks": 8575,
      "stopped": 8576,
      "Ġmmal": 8577,
      "Ġuserspace": 8578,
      "rwco": 8579,
      "via": 8580,
      "partitioning": 8581,
      "Ġfew": 8582,
      "Ġtilegx": 8583,
      "Ġprocessor": 8584,
      "watchhi": 8585,
      "writing": 8586,
      "items": 8587,
      "Ġcalculation": 8588,
      "mitted": 8589,
      "Ġpacked": 8590,
      "packedy": 8591,
      "Ġlive": 8592,
      "Ġglfs": 8593,
      "Ġclocks": 8594,
      "certificate": 8595,
      "rices": 8596,
      "vmxnet": 8597,
      "Ġestimate": 8598,
      "Ġslowleak": 8599,
      "mvpconf": 8600,
      "Ġbuffered": 8601,
      "attributes": 8602,
      "Ġinterpolate": 8603,
      "Ġquadword": 8604,
      "extslice": 8605,
      "propriate": 8606,
      "reamed": 8607,
      "Ġfigure": 8608,
      "016": 8609,
      "270": 8610,
      "65": 8611,
      "]-": 8612,
      "aregs": 8613,
      "bprintf": 8614,
      "borg": 8615,
      "calloc": 8616,
      "custom": 8617,
      "dq": 8618,
      "gf": 8619,
      "jfields": 8620,
      "large": 8621,
      "mtr": 8622,
      "nbits": 8623,
      "psize": 8624,
      "preamble": 8625,
      "qsize": 8626,
      "qem": 8627,
      "qtailq": 8628,
      "rpkt": 8629,
      "sheepdog": 8630,
      "tte": 8631,
      "xce": 8632,
      "ypos": 8633,
      "yuyv": 8634,
      "inb": 8635,
      "inference": 8636,
      "sti": 8637,
      "stbuf": 8638,
      "stand": 8639,
      "stuff": 8640,
      "Ġim": 8641,
      "Ġibv": 8642,
      "Ġcabac": 8643,
      "att": 8644,
      "Ġask": 8645,
      "Ġamask": 8646,
      "Ġaround": 8647,
      "ories": 8648,
      "Ġtco": 8649,
      "Ġtvp": 8650,
      "Ġtinterlace": 8651,
      "Ġtftp": 8652,
      "Ġbfd": 8653,
      "Ġfic": 8654,
      "Ġfont": 8655,
      "Ġpu": 8656,
      "Ġpmax": 8657,
      "Ġavpalette": 8658,
      "opdef": 8659,
      "Ġgsize": 8660,
      "Ġnmac": 8661,
      "urate": 8662,
      "unaligned": 8663,
      "chosen": 8664,
      "pear": 8665,
      "die": 8666,
      "diment": 8667,
      "getable": 8668,
      "prstatus": 8669,
      "exattr": 8670,
      "utoff": 8671,
      "Ġqsb": 8672,
      "ceal": 8673,
      "Ġforward": 8674,
      "rcular": 8675,
      "past": 8676,
      "Ġsibling": 8677,
      "isf": 8678,
      "Ġdesired": 8679,
      "asy": 8680,
      "irtion": 8681,
      "Ġtcgmemop": 8682,
      "accessed": 8683,
      "mtp": 8684,
      "memalign": 8685,
      "Ġseen": 8686,
      "Ġundo": 8687,
      "cpkt": 8688,
      "Ġjo": 8689,
      "Ġyb": 8690,
      "Ġtmpptr": 8691,
      "masked": 8692,
      "filtergraphs": 8693,
      "cbw": 8694,
      "swcr": 8695,
      "fpga": 8696,
      "Ġprocessed": 8697,
      "Ġtiming": 8698,
      "8080": 8699,
      "checkpoint": 8700,
      "usec": 8701,
      "Ġmovstreamcontext": 8702,
      "Ġsupp": 8703,
      "decodercontext": 8704,
      "oldpath": 8705,
      "xbpp": 8706,
      "Ġlongword": 8707,
      "dbdma": 8708,
      "Ġfpscr": 8709,
      "501": 8710,
      "books": 8711,
      "gicv": 8712,
      "nonref": 8713,
      "nonkey": 8714,
      "Ġreqs": 8715,
      "Ġdirp": 8716,
      "Ġlowres": 8717,
      "10001": 8718,
      "quiet": 8719,
      "Ġsigprocmask": 8720,
      "Ġvmw": 8721,
      "smi": 8722,
      "251": 8723,
      "257": 8724,
      "movdqu": 8725,
      "Ġsocklen": 8726,
      "iopl": 8727,
      "Ġmcg": 8728,
      "Ġemulated": 8729,
      "hevccontext": 8730,
      "bgra": 8731,
      "negative": 8732,
      "origin": 8733,
      "reallocp": 8734,
      "061": 8735,
      "Ġaccel": 8736,
      "lvsl": 8737,
      "Ġboundaries": 8738,
      "recovery": 8739,
      "advance": 8740,
      "Ġlife": 8741,
      "Ġmulh": 8742,
      "restorer": 8743,
      "Ġgenerated": 8744,
      "lossy": 8745,
      "Ġcreation": 8746,
      "Ġcuda": 8747,
      "warping": 8748,
      "Ġstarted": 8749,
      "sensor": 8750,
      "spectral": 8751,
      "removexattr": 8752,
      "Ġoperands": 8753,
      "dividual": 8754,
      "semble": 8755,
      "Ġkeysym": 8756,
      "utils": 8757,
      "nthesis": 8758,
      "Ġcompletely": 8759,
      "dimentions": 8760,
      "irtionet": 8761,
      "3130": 8762,
      "5206": 8763,
      "67": 8764,
      "6000": 8765,
      "bink": 8766,
      "cps": 8767,
      "dxy": 8768,
      "fcode": 8769,
      "gate": 8770,
      "gable": 8771,
      "ict": 8772,
      "iadst": 8773,
      "mup": 8774,
      "mime": 8775,
      "nn": 8776,
      "pref": 8777,
      "pmcw": 8778,
      "qvirtio": 8779,
      "rule": 8780,
      "tg": 8781,
      "tpr": 8782,
      "zc": 8783,
      "zs": 8784,
      "Ġcat": 8785,
      "Ġcflag": 8786,
      "Ġctl": 8787,
      "Ġsv": 8788,
      "Ġasid": 8789,
      "orted": 8790,
      "Ġbasic": 8791,
      "Ġfre": 8792,
      "loongson": 8793,
      "cout": 8794,
      "Ġglx": 8795,
      "Ġvdec": 8796,
      "teard": 8797,
      "unlink": 8798,
      "Ġdk": 8799,
      "Ġrbase": 8800,
      "Ġol": 8801,
      "avformat": 8802,
      "Ġ%*": 8803,
      "Ġqsort": 8804,
      "Ġuval": 8805,
      "Ġwants": 8806,
      "Ġhflags": 8807,
      "Ġincr": 8808,
      "paused": 8809,
      "bitalloc": 8810,
      "tsr": 8811,
      "three": 8812,
      "through": 8813,
      "iser": 8814,
      "Ġdeleted": 8815,
      "ird": 8816,
      "ifnof": 8817,
      "psrc": 8818,
      "Ġtcgcond": 8819,
      "addrinfo": 8820,
      "Ġstats": 8821,
      "Ġlcd": 8822,
      "ices": 8823,
      "otool": 8824,
      "andl": 8825,
      "terboard": 8826,
      "reading": 8827,
      "Ġopus": 8828,
      "Ġxr": 8829,
      "Ġxmax": 8830,
      "should": 8831,
      "spn": 8832,
      "nums": 8833,
      "Ġ37": 8834,
      "samplesb": 8835,
      "Ġadx": 8836,
      "Ġeinval": 8837,
      "infolist": 8838,
      "pression": 8839,
      "(\"{": 8840,
      "Ġunpack": 8841,
      "vers": 8842,
      "Ġthumb": 8843,
      "mvs": 8844,
      "Ġpact": 8845,
      "resolution": 8846,
      "Ġencountered": 8847,
      "nbytes": 8848,
      "Ġwhy": 8849,
      "tlbs": 8850,
      "Ġdstblock": 8851,
      "Ġdstwidth": 8852,
      "augh": 8853,
      "Ġsccb": 8854,
      "Ġsched": 8855,
      "lowcomp": 8856,
      "picinfo": 8857,
      "encl": 8858,
      "csrr": 8859,
      "sbank": 8860,
      "condlabel": 8861,
      "moval": 8862,
      "804": 8863,
      "8042": 8864,
      "Ġdirentry": 8865,
      "copyahead": 8866,
      "rbsp": 8867,
      "runstate": 8868,
      "Ġfilteralign": 8869,
      "coeffsbank": 8870,
      "oldset": 8871,
      "Ġcbpc": 8872,
      "hdrlen": 8873,
      "Ġtaghdrlen": 8874,
      "Ġflic": 8875,
      "Ġheap": 8876,
      "really": 8877,
      "Ġmipsnet": 8878,
      "vactx": 8879,
      "Ġuvuv": 8880,
      "endianness": 8881,
      "itecture": 8882,
      "yvy": 8883,
      "Ġnetclientstate": 8884,
      "Ġrows": 8885,
      "xori": 8886,
      "qxldevice": 8887,
      "Ġmaclhw": 8888,
      "Ġvqa": 8889,
      "Ġppmode": 8890,
      "contents": 8891,
      "processor": 8892,
      "droppable": 8893,
      "tonal": 8894,
      "Ġsynth": 8895,
      "Ġtemporal": 8896,
      "voices": 8897,
      "voiceout": 8898,
      "Ġimpl": 8899,
      "Ġexcite": 8900,
      "variable": 8901,
      "rency": 8902,
      "Ġpredicted": 8903,
      "Ġattributes": 8904,
      "Ġguar": 8905,
      "spectrum": 8906,
      "alppixbuf": 8907,
      "whitelist": 8908,
      "Ġmachhw": 8909,
      "profiler": 8910,
      "mcbsp": 8911,
      "Ġentire": 8912,
      "stuffing": 8913,
      "teardown": 8914,
      "ifnofpu": 8915,
      "otoolbox": 8916,
      "aughterboard": 8917,
      "&~": 8918,
      "144": 8919,
      "49": 8920,
      "bmv": 8921,
      "credp": 8922,
      "dle": 8923,
      "fchown": 8924,
      "gcr": 8925,
      "jtag": 8926,
      "mlock": 8927,
      "mss": 8928,
      "ount": 8929,
      "pins": 8930,
      "rand": 8931,
      "rmode": 8932,
      "slev": 8933,
      "slavio": 8934,
      "tun": 8935,
      "tlog": 8936,
      "tcb": 8937,
      "xscale": 8938,
      "yb": 8939,
      "zsig": 8940,
      "rer": 8941,
      "inquiry": 8942,
      "inhibit": 8943,
      "deinit": 8944,
      "Ġcatch": 8945,
      "Ġcenter": 8946,
      "Ġsli": 8947,
      "Ġssf": 8948,
      "Ġamd": 8949,
      "Ġbsi": 8950,
      "Ġbpc": 8951,
      "lear": 8952,
      "Ġfctx": 8953,
      "Ġpur": 8954,
      "Ġpty": 8955,
      "Ġpdev": 8956,
      "Ġpfd": 8957,
      "sient": 8958,
      "Ġavsubtitle": 8959,
      "Ġmk": 8960,
      "Ġmms": 8961,
      "Ġmime": 8962,
      "Ġgreen": 8963,
      "Ġgroups": 8964,
      "Ġvo": 8965,
      "Ġvas": 8966,
      "Ġvscsi": 8967,
      "Ġvreader": 8968,
      "Ġnibble": 8969,
      "urst": 8970,
      "ancy": 8971,
      "Ġ\"?": 8972,
      "Ġintptr": 8973,
      "unescaped": 8974,
      "Ġdds": 8975,
      "amedia": 8976,
      "Ġstdio": 8977,
      "chlist": 8978,
      "direntries": 8979,
      "drq": 8980,
      "Ġrou": 8981,
      "Ġomx": 8982,
      "averror": 8983,
      "iobn": 8984,
      "Ġwon": 8985,
      "Ġhsize": 8986,
      "Ġhighest": 8987,
      "Ġsigp": 8988,
      "Ġcontinu": 8989,
      "rocess": 8990,
      "asing": 8991,
      "asure": 8992,
      "acr": 8993,
      "Ġgeneration": 8994,
      "Ġxio": 8995,
      "Ġxvmc": 8996,
      "splash": 8997,
      "memdev": 8998,
      "Ġ8000": 8999,
      "samplesize": 9000,
      "Ġejtag": 9001,
      "prenv": 9002,
      "Ġbufsize": 9003,
      "Ġunexpected": 9004,
      "Ġexpr": 9005,
      "Ġexample": 9006,
      "Ġmapcache": 9007,
      "subl": 9008,
      "resolve": 9009,
      "Ġaddrx": 9010,
      "Ġscl": 9011,
      "ratecontrol": 9012,
      "sound": 9013,
      "Ġfails": 9014,
      "ccs": 9015,
      "Ġ51": 9016,
      "flg": 9017,
      "epctx": 9018,
      "notdirty": 9019,
      "moov": 9020,
      "Ġorb": 9021,
      "gaction": 9022,
      "2050": 9023,
      "Ġcompiler": 9024,
      "1111": 9025,
      "dsputil": 9026,
      "Ġminimum": 9027,
      "Ġ[%": 9028,
      "exceptions": 9029,
      "Ġdescription": 9030,
      "Ġruns": 9031,
      "Ġsignific": 9032,
      "autoc": 9033,
      "ocm": 9034,
      "alphastate": 9035,
      "Ġractx": 9036,
      "overwrite": 9037,
      "sockname": 9038,
      "spaprdevice": 9039,
      "plugged": 9040,
      "Ġdecide": 9041,
      "181": 9042,
      "Ġemit": 9043,
      "realizefn": 9044,
      "relation": 9045,
      "Ġrxbuf": 9046,
      "hvb": 9047,
      "Ġlibopen": 9048,
      "videotoolbox": 9049,
      "Ġsaf": 9050,
      "Ġrecord": 9051,
      "periodic": 9052,
      "Ġdrivers": 9053,
      "joint": 9054,
      "enospc": 9055,
      "Ġcompletion": 9056,
      "rexw": 9057,
      "Ġ'/')": 9058,
      "Ġlrintf": 9059,
      "Ġvaapiencode": 9060,
      "licate": 9061,
      "mkno": 9062,
      "settings": 9063,
      "Ġdepends": 9064,
      "restricted": 9065,
      "Ġexceeds": 9066,
      "sibly": 9067,
      "prenvironment": 9068,
      "*,": 9069,
      "41": 9070,
      "46": 9071,
      "61": 9072,
      "]&": 9073,
      "])){": 9074,
      "aar": 9075,
      "bsize": 9076,
      "bmask": 9077,
      "cw": 9078,
      "dss": 9079,
      "dsh": 9080,
      "dxfer": 9081,
      "eject": 9082,
      "hup": 9083,
      "husb": 9084,
      "jal": 9085,
      "kill": 9086,
      "nmi": 9087,
      "narrow": 9088,
      "pam": 9089,
      "ppkt": 9090,
      "qd": 9091,
      "sad": 9092,
      "uu": 9093,
      "uate": 9094,
      "vld": 9095,
      "vser": 9096,
      "vbr": 9097,
      "xface": 9098,
      "yinc": 9099,
      "Ġur": 9100,
      "Ġlay": 9101,
      "reboot": 9102,
      "inl": 9103,
      "streamed": 9104,
      "eral": 9105,
      "decision": 9106,
      "security": 9107,
      "Ġ(--": 9108,
      "Ġsun": 9109,
      "Ġsol": 9110,
      "Ġtinfo": 9111,
      "Ġifm": 9112,
      "ctet": 9113,
      "Ġbsig": 9114,
      "Ġblack": 9115,
      "Ġftp": 9116,
      "Ġpch": 9117,
      "Ġpvscsi": 9118,
      "coale": 9119,
      "adif": 9120,
      "Ġmpy": 9121,
      "ffmax": 9122,
      "Ġvma": 9123,
      "Ġvide": 9124,
      "Ġvrect": 9125,
      "Ġnargs": 9126,
      "Ġnblocks": 9127,
      "Ġnpal": 9128,
      "Ġ110": 9129,
      "tevent": 9130,
      "unsafe": 9131,
      "errint": 9132,
      "drained": 9133,
      "007": 9134,
      "Ġrlimit": 9135,
      "contr": 9136,
      "Ġqi": 9137,
      "Ġwent": 9138,
      "Ġhole": 9139,
      "ssum": 9140,
      "Ġsigaction": 9141,
      "pil": 9142,
      "Ġ2000": 9143,
      "roffst": 9144,
      "Ġdeal": 9145,
      "Ġtcx": 9146,
      "iform": 9147,
      "psot": 9148,
      "Ġlsps": 9149,
      "ovec": 9150,
      "shell": 9151,
      "sigsuspend": 9152,
      "iph": 9153,
      "srcfilter": 9154,
      "Ġsect": 9155,
      "bases": 9156,
      "baseimg": 9157,
      "Ġyv": 9158,
      "mvdata": 9159,
      "Ġblockaiocb": 9160,
      "curidx": 9161,
      "pictures": 9162,
      "Ġmaps": 9163,
      "subsys": 9164,
      "resno": 9165,
      "timestr": 9166,
      "Ġdstv": 9167,
      "possible": 9168,
      "encinput": 9169,
      "epchar": 9170,
      "chrh": 9171,
      "tcpa": 9172,
      "brr": 9173,
      "entryhi": 9174,
      "haskey": 9175,
      "Ġtimers": 9176,
      "Ġparsed": 9177,
      "Ġdirection": 9178,
      "granule": 9179,
      "celp": 9180,
      "celt": 9181,
      "copyright": 9182,
      "rxerr": 9183,
      "Ġhwctx": 9184,
      "Ġhwsetup": 9185,
      "Ġsysctrl": 9186,
      "Ġshiftcount": 9187,
      "rawvideo": 9188,
      "0200": 9189,
      "dirtybitmap": 9190,
      "aborting": 9191,
      "incl": 9192,
      "Ġquick": 9193,
      "ptep": 9194,
      "Ġoverlay": 9195,
      "downmix": 9196,
      "Ġspd": 9197,
      "Ġsigsegv": 9198,
      "3030": 9199,
      "Ġmpx": 9200,
      "Ġsockets": 9201,
      "Ġtranslated": 9202,
      "Ġhigher": 9203,
      "wards": 9204,
      "Ġepel": 9205,
      "Ġepctx": 9206,
      "Ġclientflags": 9207,
      "cyl": 9208,
      "Ġspecify": 9209,
      "badinstr": 9210,
      "parameterbuffer": 9211,
      "casc": 9212,
      "Ġwaiting": 9213,
      "Ġgranule": 9214,
      "Ġvda": 9215,
      "notes": 9216,
      "attachments": 9217,
      "Ġfastleak": 9218,
      "hypervisor": 9219,
      "Ġwindows": 9220,
      "Ġspecification": 9221,
      "residues": 9222,
      "Ġvariant": 9223,
      "arison": 9224,
      "Ġtaskstate": 9225,
      "((\">>>": 9226,
      "closed": 9227,
      "fications": 9228,
      "interpolated": 9229,
      "Ġportsc": 9230,
      "Ġexplicitly": 9231,
      "wkup": 9232,
      "Ġtwice": 9233,
      "Ġconverter": 9234,
      "pcmpeqw": 9235,
      "Ġreducedresno": 9236,
      "mergel": 9237,
      "amediacodec": 9238,
      "89": 9239,
      "</": 9240,
      "]|": 9241,
      "dpa": 9242,
      "eintr": 9243,
      "fra": 9244,
      "font": 9245,
      "garray": 9246,
      "gsm": 9247,
      "hba": 9248,
      "lwc": 9249,
      "nentries": 9250,
      "pck": 9251,
      "qdiff": 9252,
      "rg": 9253,
      "rld": 9254,
      "rchr": 9255,
      "ttbr": 9256,
      "wptr": 9257,
      "xie": 9258,
      "Ġulong": 9259,
      "Ġign": 9260,
      "deinterlace": 9261,
      "Ġsstep": 9262,
      "aton": 9263,
      "Ġapi": 9264,
      "Ġ}\",": 9265,
      "orld": 9266,
      "Ġtsize": 9267,
      "Ġfsc": 9268,
      "Ġresize": 9269,
      "Ġrecur": 9270,
      "Ġresid": 9271,
      "itable": 9272,
      "Ġpw": 9273,
      "argb": 9274,
      "Ġavx": 9275,
      "Ġaver": 9276,
      "Ġavinput": 9277,
      "Ġmull": 9278,
      "Ġvop": 9279,
      "Ġvdc": 9280,
      "Ġnf": 9281,
      "Ġnsv": 9282,
      "Ġnamelen": 9283,
      "publ": 9284,
      "mpx": 9285,
      "Ġdat": 9286,
      "otential": 9287,
      "drives": 9288,
      "Ġrcb": 9289,
      "Ġobuf": 9290,
      "explicit": 9291,
      "utls": 9292,
      "iobase": 9293,
      "atable": 9294,
      "Ġhmp": 9295,
      "edit": 9296,
      "devname": 9297,
      "Ġinverse": 9298,
      "Ġindividual": 9299,
      "Ġfork": 9300,
      "life": 9301,
      "datain": 9302,
      "pcp": 9303,
      "Ġconsistent": 9304,
      "ism": 9305,
      "uspend": 9306,
      "iment": 9307,
      "codecs": 9308,
      "mbv": 9309,
      "Ġstatp": 9310,
      "Ġchctx": 9311,
      "Ġchro": 9312,
      "uple": 9313,
      "rays": 9314,
      "Ġgets": 9315,
      "Ġgettimeofday": 9316,
      "nocache": 9317,
      "Ġxn": 9318,
      "Ġxp": 9319,
      "ship": 9320,
      "bsd": 9321,
      "bsfc": 9322,
      "Ġeip": 9323,
      "buffersize": 9324,
      "preser": 9325,
      "Ġuni": 9326,
      "cpar": 9327,
      "periment": 9328,
      "Ġexpression": 9329,
      "Ġoutsamplesref": 9330,
      "Ġyield": 9331,
      "Ġstrategy": 9332,
      "uction": 9333,
      "quare": 9334,
      "nbands": 9335,
      "crt": 9336,
      "Ġdataptr": 9337,
      "reduction": 9338,
      "Ġmaxband": 9339,
      "swc": 9340,
      "swizzle": 9341,
      "videocontext": 9342,
      "undle": 9343,
      "bri": 9344,
      "modern": 9345,
      "Ġbounce": 9346,
      "Ġresults": 9347,
      "gnutls": 9348,
      "hword": 9349,
      "blksize": 9350,
      "grid": 9351,
      "netclientstate": 9352,
      "Ġ90000": 9353,
      "fclk": 9354,
      "fcntl": 9355,
      "Ġtemplate": 9356,
      "Ġbandwidth": 9357,
      "Ġ(%\"": 9358,
      "Ġtbi": 9359,
      "Ġlonger": 9360,
      "Ġmodule": 9361,
      "Ġccw": 9362,
      "dence": 9363,
      "Ġhandshake": 9364,
      "Ġdescri": 9365,
      "Ġinputstream": 9366,
      "Ġsyms": 9367,
      "gptimer": 9368,
      "Ġcoprocess": 9369,
      "Ġfpst": 9370,
      "good": 9371,
      "xcd": 9372,
      "Ġshouldn": 9373,
      "fragsize": 9374,
      "Ġidestate": 9375,
      "Ġlowcore": 9376,
      "Ġ++;": 9377,
      "author": 9378,
      "vncdisplay": 9379,
      "Ġxenpt": 9380,
      "Ġversions": 9381,
      "visible": 9382,
      "sparse": 9383,
      "when": 9384,
      "Ġroq": 9385,
      "Ġexecve": 9386,
      "Ġcmos": 9387,
      "Ġusleep": 9388,
      "Ġcounts": 9389,
      "dropped": 9390,
      "vchrfilter": 9391,
      "Ġbinary": 9392,
      "glfs": 9393,
      "kbetag": 9394,
      "Ġendianness": 9395,
      "Ġflip": 9396,
      "afq": 9397,
      "strtok": 9398,
      "Ġsrcslicey": 9399,
      "01010101": 9400,
      "fstatat": 9401,
      "Ġhistogram": 9402,
      "Ġmutex": 9403,
      "Ġ44100": 9404,
      "Ġpermissions": 9405,
      "Ġpolicy": 9406,
      "videobufpos": 9407,
      "Ġattempt": 9408,
      "Ġclosed": 9409,
      "mtrr": 9410,
      "versatile": 9411,
      "Ġroute": 9412,
      "public": 9413,
      "\".": 9414,
      "(_": 9415,
      ":\");": 9416,
      "balign": 9417,
      "csize": 9418,
      "carry": 9419,
      "did": 9420,
      "dow": 9421,
      "dns": 9422,
      "ere": 9423,
      "gce": 9424,
      "gcodes": 9425,
      "ht": 9426,
      "ifile": 9427,
      "ision": 9428,
      "lbu": 9429,
      "lseek": 9430,
      "munlock": 9431,
      "mcbpc": 9432,
      "pn": 9433,
      "pmt": 9434,
      "qf": 9435,
      "qspi": 9436,
      "ric": 9437,
      "rshift": 9438,
      "tbytes": 9439,
      "uas": 9440,
      "vpc": 9441,
      "vcs": 9442,
      "xi": 9443,
      "incompatible": 9444,
      "erred": 9445,
      "Ġidc": 9446,
      "Ġcross": 9447,
      "Ġiff": 9448,
      "Ġfreg": 9449,
      "Ġfcmp": 9450,
      "Ġpret": 9451,
      "ari": 9452,
      "cof": 9453,
      "coffs": 9454,
      "Ġavindex": 9455,
      "Ġmmc": 9456,
      "Ġmkbetag": 9457,
      "Ġgcc": 9458,
      "Ġgui": 9459,
      "Ġgolden": 9460,
      "Ġvbe": 9461,
      "Ġvisible": 9462,
      "Ġni": 9463,
      "Ġintc": 9464,
      "undefined": 9465,
      "unimp": 9466,
      "Ġdtb": 9467,
      "Ġstb": 9468,
      "pex": 9469,
      "dig": 9470,
      "trac": 9471,
      "ioapic": 9472,
      "ioeventfds": 9473,
      "Ġqtrle": 9474,
      "Ġubuf": 9475,
      "))>>": 9476,
      "Ġhop": 9477,
      "Ġhue": 9478,
      "pae": 9479,
      "bitr": 9480,
      "tsb": 9481,
      "pcnet": 9482,
[...]
